<pad>	0
</s>	0
<unk>	0
<extra_id_0>	0
<extra_id_1>	0
<extra_id_2>	0
<extra_id_3>	0
<extra_id_4>	0
<extra_id_5>	0
<extra_id_6>	0
<extra_id_7>	0
<extra_id_8>	0
<extra_id_9>	0
<extra_id_10>	0
<extra_id_11>	0
<extra_id_12>	0
<extra_id_13>	0
<extra_id_14>	0
<extra_id_15>	0
<extra_id_16>	0
<extra_id_17>	0
<extra_id_18>	0
<extra_id_19>	0
<extra_id_20>	0
<extra_id_21>	0
<extra_id_22>	0
<extra_id_23>	0
<extra_id_24>	0
<extra_id_25>	0
<extra_id_26>	0
<extra_id_27>	0
<extra_id_28>	0
<extra_id_29>	0
<extra_id_30>	0
<extra_id_31>	0
<extra_id_32>	0
<extra_id_33>	0
<extra_id_34>	0
<extra_id_35>	0
<extra_id_36>	0
<extra_id_37>	0
<extra_id_38>	0
<extra_id_39>	0
<extra_id_40>	0
<extra_id_41>	0
<extra_id_42>	0
<extra_id_43>	0
<extra_id_44>	0
<extra_id_45>	0
<extra_id_46>	0
<extra_id_47>	0
<extra_id_48>	0
<extra_id_49>	0
<extra_id_50>	0
<extra_id_51>	0
<extra_id_52>	0
<extra_id_53>	0
<extra_id_54>	0
<extra_id_55>	0
<extra_id_56>	0
<extra_id_57>	0
<extra_id_58>	0
<extra_id_59>	0
<extra_id_60>	0
<extra_id_61>	0
<extra_id_62>	0
<extra_id_63>	0
<extra_id_64>	0
<extra_id_65>	0
<extra_id_66>	0
<extra_id_67>	0
<extra_id_68>	0
<extra_id_69>	0
<extra_id_70>	0
<extra_id_71>	0
<extra_id_72>	0
<extra_id_73>	0
<extra_id_74>	0
<extra_id_75>	0
<extra_id_76>	0
<extra_id_77>	0
<extra_id_78>	0
<extra_id_79>	0
<extra_id_80>	0
<extra_id_81>	0
<extra_id_82>	0
<extra_id_83>	0
<extra_id_84>	0
<extra_id_85>	0
<extra_id_86>	0
<extra_id_87>	0
<extra_id_88>	0
<extra_id_89>	0
<extra_id_90>	0
<extra_id_91>	0
<extra_id_92>	0
<extra_id_93>	0
<extra_id_94>	0
<extra_id_95>	0
<extra_id_96>	0
<extra_id_97>	0
<extra_id_98>	0
<extra_id_99>	0
<extra_id_100>	0
<extra_id_101>	0
<extra_id_102>	0
<extra_id_103>	0
<extra_id_104>	0
<extra_id_105>	0
<extra_id_106>	0
<extra_id_107>	0
<extra_id_108>	0
<extra_id_109>	0
<extra_id_110>	0
<extra_id_111>	0
<extra_id_112>	0
<extra_id_113>	0
<extra_id_114>	0
<extra_id_115>	0
<extra_id_116>	0
<extra_id_117>	0
<extra_id_118>	0
<extra_id_119>	0
<extra_id_120>	0
<extra_id_121>	0
<extra_id_122>	0
<extra_id_123>	0
<extra_id_124>	0
<extra_id_125>	0
<extra_id_126>	0
<extra_id_127>	0
<extra_id_128>	0
<extra_id_129>	0
<extra_id_130>	0
<extra_id_131>	0
<extra_id_132>	0
<extra_id_133>	0
<extra_id_134>	0
<extra_id_135>	0
<extra_id_136>	0
<extra_id_137>	0
<extra_id_138>	0
<extra_id_139>	0
<extra_id_140>	0
<extra_id_141>	0
<extra_id_142>	0
<extra_id_143>	0
<extra_id_144>	0
<extra_id_145>	0
<extra_id_146>	0
<extra_id_147>	0
<extra_id_148>	0
<extra_id_149>	0
<extra_id_150>	0
<extra_id_151>	0
<extra_id_152>	0
<extra_id_153>	0
<extra_id_154>	0
<extra_id_155>	0
<extra_id_156>	0
<extra_id_157>	0
<extra_id_158>	0
<extra_id_159>	0
<extra_id_160>	0
<extra_id_161>	0
<extra_id_162>	0
<extra_id_163>	0
<extra_id_164>	0
<extra_id_165>	0
<extra_id_166>	0
<extra_id_167>	0
<extra_id_168>	0
<extra_id_169>	0
<extra_id_170>	0
<extra_id_171>	0
<extra_id_172>	0
<extra_id_173>	0
<extra_id_174>	0
<extra_id_175>	0
<extra_id_176>	0
<extra_id_177>	0
<extra_id_178>	0
<extra_id_179>	0
<extra_id_180>	0
<extra_id_181>	0
<extra_id_182>	0
<extra_id_183>	0
<extra_id_184>	0
<extra_id_185>	0
<extra_id_186>	0
<extra_id_187>	0
<extra_id_188>	0
<extra_id_189>	0
<extra_id_190>	0
<extra_id_191>	0
<extra_id_192>	0
<extra_id_193>	0
<extra_id_194>	0
<extra_id_195>	0
<extra_id_196>	0
<extra_id_197>	0
<extra_id_198>	0
<extra_id_199>	0
<extra_id_200>	0
<extra_id_201>	0
<extra_id_202>	0
<extra_id_203>	0
<extra_id_204>	0
<extra_id_205>	0
<extra_id_206>	0
<extra_id_207>	0
<extra_id_208>	0
<extra_id_209>	0
<extra_id_210>	0
<extra_id_211>	0
<extra_id_212>	0
<extra_id_213>	0
<extra_id_214>	0
<extra_id_215>	0
<extra_id_216>	0
<extra_id_217>	0
<extra_id_218>	0
<extra_id_219>	0
<extra_id_220>	0
<extra_id_221>	0
<extra_id_222>	0
<extra_id_223>	0
<extra_id_224>	0
<extra_id_225>	0
<extra_id_226>	0
<extra_id_227>	0
<extra_id_228>	0
<extra_id_229>	0
<extra_id_230>	0
<extra_id_231>	0
<extra_id_232>	0
<extra_id_233>	0
<extra_id_234>	0
<extra_id_235>	0
<extra_id_236>	0
<extra_id_237>	0
<extra_id_238>	0
<extra_id_239>	0
<extra_id_240>	0
<extra_id_241>	0
<extra_id_242>	0
<extra_id_243>	0
<extra_id_244>	0
<extra_id_245>	0
<extra_id_246>	0
<extra_id_247>	0
<extra_id_248>	0
<extra_id_249>	0
<extra_id_250>	0
<extra_id_251>	0
<extra_id_252>	0
<extra_id_253>	0
<extra_id_254>	0
<extra_id_255>	0
[R]	0
[X]	0
[S]	0
<style:grammar>	0
<style:concise>	0
<style:elaborate>	0
<style:professional>	0
<style:friendly>	0
<style:assertive>	0
<style:empathetic>	0
<style:fluent>	0
<style:formal>	0
<style:paraphrase>	0
<style:polite>	0
<style:simplify>	0
<text_to_rewrite>	0
</text_to_rewrite>	0
<reserved_0>	0
<reserved_1>	0
<reserved_2>	0
<reserved_3>	0
<reserved_4>	0
<reserved_5>	0
<reserved_6>	0
<reserved_7>	0
<reserved_8>	0
<reserved_9>	0
<reserved_10>	0
<reserved_11>	0
<reserved_12>	0
<reserved_13>	0
<reserved_14>	0
<reserved_15>	0
<reserved_16>	0
<reserved_17>	0
<reserved_18>	0
<reserved_19>	0
<reserved_20>	0
<reserved_21>	0
<reserved_22>	0
<reserved_23>	0
<reserved_24>	0
<reserved_25>	0
<reserved_26>	0
<reserved_27>	0
<reserved_28>	0
<reserved_29>	0
<reserved_30>	0
<reserved_31>	0
<reserved_32>	0
<reserved_33>	0
<reserved_34>	0
<reserved_35>	0
<cli_reserved_0>	0
<cli_reserved_1>	0
<cli_reserved_2>	0
<cli_reserved_3>	0
<cli_reserved_4>	0
<cli_reserved_5>	0
<cli_reserved_6>	0
<cli_reserved_7>	0
<cli_reserved_8>	0
<cli_reserved_9>	0
<cli_reserved_10>	0
<cli_reserved_11>	0
<cli_reserved_12>	0
<cli_reserved_13>	0
<cli_reserved_14>	0
<cli_reserved_15>	0
<cli_reserved_16>	0
<cli_reserved_17>	0
<cli_reserved_18>	0
<cli_reserved_19>	0
<cli_reserved_20>	0
<cli_reserved_21>	0
<cli_reserved_22>	0
<cli_reserved_23>	0
<cli_reserved_24>	0
<cli_reserved_25>	0
<cli_reserved_26>	0
<cli_reserved_27>	0
<cli_reserved_28>	0
<cli_reserved_29>	0
<cli_reserved_30>	0
<cli_reserved_31>	0
<cli_reserved_32>	0
<cli_reserved_33>	0
<cli_reserved_34>	0
<cli_reserved_35>	0
<cli_reserved_36>	0
<cli_reserved_37>	0
<cli_reserved_38>	0
<cli_reserved_39>	0
<cli_reserved_40>	0
<cli_reserved_41>	0
<cli_reserved_42>	0
<cli_reserved_43>	0
<cli_reserved_44>	0
<cli_reserved_45>	0
<cli_reserved_46>	0
<cli_reserved_47>	0
<cli_reserved_48>	0
<cli_reserved_49>	0
<cli_reserved_50>	0
<cli_reserved_51>	0
<cli_reserved_52>	0
<cli_reserved_53>	0
<cli_reserved_54>	0
<cli_reserved_55>	0
<cli_reserved_56>	0
<cli_reserved_57>	0
<cli_reserved_58>	0
<cli_reserved_59>	0
<cli_reserved_60>	0
<cli_reserved_61>	0
<cli_reserved_62>	0
<cli_reserved_63>	0
<0x00>	0
<0x01>	0
<0x02>	0
<0x03>	0
<0x04>	0
<0x05>	0
<0x06>	0
<0x07>	0
<0x08>	0
<0x09>	0
<0x0A>	0
<0x0B>	0
<0x0C>	0
<0x0D>	0
<0x0E>	0
<0x0F>	0
<0x10>	0
<0x11>	0
<0x12>	0
<0x13>	0
<0x14>	0
<0x15>	0
<0x16>	0
<0x17>	0
<0x18>	0
<0x19>	0
<0x1A>	0
<0x1B>	0
<0x1C>	0
<0x1D>	0
<0x1E>	0
<0x1F>	0
<0x20>	0
<0x21>	0
<0x22>	0
<0x23>	0
<0x24>	0
<0x25>	0
<0x26>	0
<0x27>	0
<0x28>	0
<0x29>	0
<0x2A>	0
<0x2B>	0
<0x2C>	0
<0x2D>	0
<0x2E>	0
<0x2F>	0
<0x30>	0
<0x31>	0
<0x32>	0
<0x33>	0
<0x34>	0
<0x35>	0
<0x36>	0
<0x37>	0
<0x38>	0
<0x39>	0
<0x3A>	0
<0x3B>	0
<0x3C>	0
<0x3D>	0
<0x3E>	0
<0x3F>	0
<0x40>	0
<0x41>	0
<0x42>	0
<0x43>	0
<0x44>	0
<0x45>	0
<0x46>	0
<0x47>	0
<0x48>	0
<0x49>	0
<0x4A>	0
<0x4B>	0
<0x4C>	0
<0x4D>	0
<0x4E>	0
<0x4F>	0
<0x50>	0
<0x51>	0
<0x52>	0
<0x53>	0
<0x54>	0
<0x55>	0
<0x56>	0
<0x57>	0
<0x58>	0
<0x59>	0
<0x5A>	0
<0x5B>	0
<0x5C>	0
<0x5D>	0
<0x5E>	0
<0x5F>	0
<0x60>	0
<0x61>	0
<0x62>	0
<0x63>	0
<0x64>	0
<0x65>	0
<0x66>	0
<0x67>	0
<0x68>	0
<0x69>	0
<0x6A>	0
<0x6B>	0
<0x6C>	0
<0x6D>	0
<0x6E>	0
<0x6F>	0
<0x70>	0
<0x71>	0
<0x72>	0
<0x73>	0
<0x74>	0
<0x75>	0
<0x76>	0
<0x77>	0
<0x78>	0
<0x79>	0
<0x7A>	0
<0x7B>	0
<0x7C>	0
<0x7D>	0
<0x7E>	0
<0x7F>	0
<0x80>	0
<0x81>	0
<0x82>	0
<0x83>	0
<0x84>	0
<0x85>	0
<0x86>	0
<0x87>	0
<0x88>	0
<0x89>	0
<0x8A>	0
<0x8B>	0
<0x8C>	0
<0x8D>	0
<0x8E>	0
<0x8F>	0
<0x90>	0
<0x91>	0
<0x92>	0
<0x93>	0
<0x94>	0
<0x95>	0
<0x96>	0
<0x97>	0
<0x98>	0
<0x99>	0
<0x9A>	0
<0x9B>	0
<0x9C>	0
<0x9D>	0
<0x9E>	0
<0x9F>	0
<0xA0>	0
<0xA1>	0
<0xA2>	0
<0xA3>	0
<0xA4>	0
<0xA5>	0
<0xA6>	0
<0xA7>	0
<0xA8>	0
<0xA9>	0
<0xAA>	0
<0xAB>	0
<0xAC>	0
<0xAD>	0
<0xAE>	0
<0xAF>	0
<0xB0>	0
<0xB1>	0
<0xB2>	0
<0xB3>	0
<0xB4>	0
<0xB5>	0
<0xB6>	0
<0xB7>	0
<0xB8>	0
<0xB9>	0
<0xBA>	0
<0xBB>	0
<0xBC>	0
<0xBD>	0
<0xBE>	0
<0xBF>	0
<0xC0>	0
<0xC1>	0
<0xC2>	0
<0xC3>	0
<0xC4>	0
<0xC5>	0
<0xC6>	0
<0xC7>	0
<0xC8>	0
<0xC9>	0
<0xCA>	0
<0xCB>	0
<0xCC>	0
<0xCD>	0
<0xCE>	0
<0xCF>	0
<0xD0>	0
<0xD1>	0
<0xD2>	0
<0xD3>	0
<0xD4>	0
<0xD5>	0
<0xD6>	0
<0xD7>	0
<0xD8>	0
<0xD9>	0
<0xDA>	0
<0xDB>	0
<0xDC>	0
<0xDD>	0
<0xDE>	0
<0xDF>	0
<0xE0>	0
<0xE1>	0
<0xE2>	0
<0xE3>	0
<0xE4>	0
<0xE5>	0
<0xE6>	0
<0xE7>	0
<0xE8>	0
<0xE9>	0
<0xEA>	0
<0xEB>	0
<0xEC>	0
<0xED>	0
<0xEE>	0
<0xEF>	0
<0xF0>	0
<0xF1>	0
<0xF2>	0
<0xF3>	0
<0xF4>	0
<0xF5>	0
<0xF6>	0
<0xF7>	0
<0xF8>	0
<0xF9>	0
<0xFA>	0
<0xFB>	0
<0xFC>	0
<0xFD>	0
<0xFE>	0
<0xFF>	0
.	-3.27202
,	-3.39211
▁the	-3.45129
▁	-3.53374
s	-4.06202
▁of	-4.08618
▁and	-4.09791
▁to	-4.11201
▁a	-4.32123
-	-4.52795
▁in	-4.54425
0	-4.61482
1	-4.73424
▁is	-4.83505
'	-4.90868
2	-5.01036
▁for	-5.13757
▁that	-5.14906
/	-5.20141
_	-5.20704
:	-5.32764
▁with	-5.41638
)	-5.42744
▁(	-5.46765
▁it	-5.5221
▁on	-5.5545
▁be	-5.57595
3	-5.62617
▁are	-5.65542
▁as	-5.66062
▁I	-5.66099
▁you	-5.6991
5	-5.73757
▁or	-5.75141
▁The	-5.76569
▁"	-5.78571
▁-	-5.78726
4	-5.79646
"	-5.83445
▁by	-5.85633
9	-5.89749
8	-5.91468
t	-5.92374
▁from	-5.93659
▁this	-5.93812
6	-5.94927
▁was	-5.9688
▁▁▁▁▁▁	-5.97106
▁not	-5.98455
(	-6.02918
▁can	-6.04665
▁have	-6.05803
▁an	-6.09797
7	-6.12778
▁at	-6.15022
d	-6.1879
ing	-6.18952
;	-6.1972
▁will	-6.31497
▁all	-6.33433
▁your	-6.33552
ed	-6.38455
▁which	-6.39765
▁▁▁▁▁▁▁▁▁▁	-6.40059
▁but	-6.47854
▁their	-6.5168
?	-6.57177
▁one	-6.60534
▁has	-6.61052
▁they	-6.617
▁▁▁▁▁▁▁	-6.62385
▁if	-6.64597
▁more	-6.64799
▁▁▁▁▁▁▁▁▁▁▁▁▁▁	-6.68502
▁we	-6.6998
▁his	-6.70267
a	-6.70339
}}	-6.71594
e	-6.72589
▁he	-6.75125
▁▁▁	-6.79713
▁This	-6.81419
▁{{	-6.82107
▁▁▁▁	-6.82505
▁▁▁▁▁▁▁▁▁▁▁	-6.83767
▁also	-6.84786
▁A	-6.85233
▁when	-6.85981
n	-6.85998
▁▁▁▁▁▁▁▁▁▁▁▁▁	-6.86312
▁--	-6.87594
▁so	-6.88434
to	-6.90396
▁about	-6.90729
m	-6.90751
▁were	-6.9127
▁other	-6.93096
▁had	-6.94729
).	-6.94753
▁file	-6.95149
▁time	-6.96157
I	-6.97611
]	-6.97915
i	-6.9801
▁In	-6.99511
ly	-7.01112
▁It	-7.01228
▁into	-7.01346
▁do	-7.01501
▁my	-7.03543
▁use	-7.03907
▁may	-7.04198
The	-7.04763
▁there	-7.05046
▁$	-7.05133
▁out	-7.05432
▁only	-7.05763
▁been	-7.05927
▁up	-7.06908
▁would	-7.07916
▁them	-7.0845
>	-7.08755
▁than	-7.09701
▁|	-7.10704
x	-7.12179
▁no	-7.12611
▁some	-7.12972
▁who	-7.13387
▁its	-7.14164
▁like	-7.14203
▁any	-7.14825
=	-7.15222
),	-7.16291
▁`	-7.17646
://	-7.17781
▁used	-7.18037
▁new	-7.18266
in	-7.1862
▁=	-7.18677
▁our	-7.18789
!	-7.18807
er	-7.19168
▁│	-7.19528
▁what	-7.19699
S	-7.2011
y	-7.20477
`	-7.21762
▁these	-7.21767
r	-7.23352
▁▁▁▁▁▁▁▁▁▁▁▁▁▁▁▁	-7.24704
▁her	-7.25905
▁information	-7.2606
c	-7.26388
▁[	-7.26855
A	-7.27316
▁If	-7.28237
▁'	-7.28803
▁<	-7.31883
▁such	-7.33441
▁first	-7.34492
▁should	-7.35964
re	-7.36227
▁how	-7.36773
▁then	-7.37834
}	-7.38928
f	-7.40334
\	-7.41008
▁files	-7.42366
▁over	-7.43664
▁get	-7.43873
▁two	-7.43952
path	-7.45501
▁people	-7.45932
▁most	-7.46552
▁using	-7.47222
o	-7.47337
▁set	-7.47796
▁just	-7.49167
p	-7.50083
▁could	-7.50413
▁me	-7.51493
▁make	-7.51768
▁work	-7.52278
https	-7.52593
."	-7.52597
▁*	-7.52789
|	-7.53144
▁system	-7.54213
g	-7.54626
name	-7.54788
com	-7.54923
or	-7.55063
▁where	-7.56893
the	-7.57228
▁through	-7.58805
▁many	-7.59797
▁well	-7.60937
▁way	-7.61084
C	-7.61486
▁after	-7.62282
[	-7.62462
▁see	-7.62656
h	-7.62755
▁need	-7.62877
▁data	-7.62893
▁said	-7.63913
▁same	-7.65818
▁each	-7.66648
▁/	-7.67023
%	-7.67439
▁between	-7.67812
b	-7.68487
▁very	-7.68601
l	-7.69554
▁help	-7.69794
▁she	-7.70315
file	-7.71375
▁current	-7.71637
]}}	-7.73014
▁For	-7.73034
es	-7.73162
▁even	-7.73176
▁name	-7.74716
{	-7.74835
▁number	-7.75623
▁C	-7.75755
▁before	-7.75858
▁him	-7.75906
▁those	-7.76098
▁{	-7.77157
▁–	-7.77318
▁He	-7.77503
▁S	-7.78178
al	-7.79787
▁because	-7.7993
$	-7.801
▁under	-7.80526
▁being	-7.80644
▁value	-7.81482
▁know	-7.81657
k	-7.82259
,"	-7.82355
▁now	-7.83273
and	-7.8352
▁while	-7.83759
);	-7.83822
▁directory	-7.84327
th	-7.84678
▁much	-7.85049
▁years	-7.85645
▁We	-7.85771
▁must	-7.85894
|--	-7.85916
▁us	-7.86697
▁both	-7.86888
▁different	-7.87386
▁option	-7.87718
▁command	-7.8854
▁{{[-	-7.89266
▁You	-7.8952
▁does	-7.8972
find	-7.90375
▁made	-7.91013
D	-7.9109
v	-7.927
▁good	-7.93259
▁\	-7.93624
▁long	-7.93659
org	-7.95355
ve	-7.95542
B	-7.95946
▁back	-7.96226
▁But	-7.97031
▁want	-7.97255
u	-7.97329
▁process	-7.98776
▁without	-7.99133
▁take	-7.99474
▁▁▁▁▁▁▁▁▁▁▁▁▁▁▁	-7.99615
▁user	-7.99859
▁don	-8.00136
▁found	-8.00451
▁To	-8.01466
▁part	-8.03061
▁&	-8.04122
▁world	-8.04298
ll	-8.04824
▁own	-8.04831
▁day	-8.04837
▁during	-8.0484
E	-8.04933
#	-8.04955
▁might	-8.05029
▁water	-8.05425
▁life	-8.05479
F	-8.05664
*	-8.05827
▁line	-8.05871
▁example	-8.06161
▁B	-8.06263
▁find	-8.06365
on	-8.06405
▁down	-8.07833
▁default	-8.08242
▁still	-8.08289
▁More	-8.0897
▁list	-8.0943
▁E	-8.09458
▁here	-8.09466
▁high	-8.09638
()	-8.09792
▁right	-8.10223
▁case	-8.10586
▁last	-8.10801
id	-8.10939
▁year	-8.11297
▁As	-8.11345
▁specific	-8.1138
▁And	-8.12487
▁When	-8.12831
en	-8.13252
▁go	-8.13808
@	-8.1386
▁key	-8.13878
▁every	-8.14313
▁did	-8.15166
▁They	-8.15608
M	-8.16079
ers	-8.16819
::	-8.16863
▁given	-8.17356
‐	-8.17898
▁another	-8.19536
▁available	-8.19779
In	-8.20076
▁change	-8.20258
▁re	-8.20924
P	-8.21064
no	-8.2128
▁following	-8.2129
type	-8.21377
▁type	-8.21618
▁think	-8.21771
▁within	-8.2211
▁around	-8.22462
▁There	-8.22576
▁great	-8.22676
▁un	-8.23035
--	-8.23098
▁D	-8.23386
▁M	-8.2341
T	-8.23713
▁end	-8.24746
▁version	-8.25174
▁output	-8.2548
▁▁▁▁▁▁▁▁	-8.25636
▁support	-8.25813
able	-8.25861
▁specified	-8.26669
▁three	-8.26716
▁best	-8.26909
▁home	-8.26957
man	-8.27173
▁off	-8.27184
<	-8.2768
▁place	-8.28688
is	-8.29867
+	-8.30717
G	-8.30958
▁f	-8.31208
▁important	-8.31513
▁state	-8.31576
▁including	-8.31629
▁read	-8.31669
▁too	-8.3267
▁man	-8.32673
▁P	-8.333
▁function	-8.33331
of	-8.33417
▁These	-8.33435
▁often	-8.33629
▁run	-8.33762
▁group	-8.34373
▁since	-8.34407
This	-8.35038
▁order	-8.35434
▁power	-8.35477
▁So	-8.35733
▁_	-8.35949
▁little	-8.36012
▁am	-8.36451
w	-8.36509
▁children	-8.36617
>.	-8.36983
R	-8.37028
▁T	-8.37147
▁local	-8.37614
="	-8.37894
▁size	-8.38199
net	-8.38209
▁look	-8.38412
▁create	-8.38598
▁+	-8.38654
▁possible	-8.38749
▁few	-8.39164
X	-8.394
▁better	-8.39748
▁public	-8.3975
▁something	-8.39772
—	-8.40347
▁come	-8.40425
▁always	-8.40446
get	-8.40679
▁R	-8.4114
▁i	-8.41527
▁students	-8.41779
▁#	-8.42095
▁called	-8.42111
▁health	-8.42436
▁G	-8.42803
z	-8.43546
▁small	-8.43552
V	-8.44098
▁device	-8.44275
▁point	-8.44572
▁de	-8.4458
▁per	-8.45175
▁class	-8.45424
▁F	-8.46007
▁program	-8.46046
▁problem	-8.464
▁against	-8.46424
▁return	-8.46486
L	-8.46564
▁However	-8.47197
▁open	-8.48089
▁What	-8.48143
▁U	-8.48354
▁provide	-8.48605
▁show	-8.48986
▁never	-8.49013
▁less	-8.49153
▁New	-8.49486
▁old	-8.49572
▁non	-8.49827
▁start	-8.49857
▁access	-8.49932
▁say	-8.50104
▁means	-8.50378
H	-8.50391
",	-8.50433
▁things	-8.50495
▁service	-8.50569
▁form	-8.5081
**	-8.51693
it	-8.5172
▁able	-8.51979
▁options	-8.5198
▁code	-8.52922
O	-8.5343
▁large	-8.5364
▁space	-8.53755
us	-8.53902
W	-8.54018
html	-8.54048
▁second	-8.54163
▁working	-8.54276
▁By	-8.54315
](	-8.54392
▁research	-8.54668
▁full	-8.54815
N	-8.55318
as	-8.55459
▁known	-8.55622
▁free	-8.55634
▁control	-8.5591
▁upon	-8.56046
▁going	-8.56087
▁next	-8.56155
ity	-8.56408
▁p	-8.56483
▁include	-8.56915
▁result	-8.57083
▁body	-8.57164
▁error	-8.57234
▁several	-8.57334
▁above	-8.57581
▁again	-8.5762
It	-8.57631
K	-8.58252
▁really	-8.5828
▁question	-8.58303
▁based	-8.58391
▁See	-8.58668
▁give	-8.58767
▁L	-8.58852
▁O	-8.59464
an	-8.59585
ic	-8.59703
▁study	-8.59951
▁sure	-8.60435
->	-8.60625
▁development	-8.60863
▁level	-8.60948
set	-8.61166
▁field	-8.61187
le	-8.61225
▁human	-8.61778
j	-8.62023
▁why	-8.62486
www	-8.62967
▁address	-8.6336
if	-8.63957
▁call	-8.63958
▁put	-8.64188
at	-8.6456
▁done	-8.64983
▁days	-8.65186
▁various	-8.65438
▁single	-8.65499
▁until	-8.65608
▁test	-8.6565
▁business	-8.65821
▁add	-8.6595
▁already	-8.65963
▁source	-8.66064
▁H	-8.66175
▁school	-8.66362
▁J	-8.66375
▁server	-8.66462
▁become	-8.66686
▁left	-8.66796
▁area	-8.66827
▁times	-8.66828
▁experience	-8.67127
▁family	-8.67283
If	-8.67334
ness	-8.67374
▁keep	-8.67393
▁N	-8.67689
▁X	-8.68029
▁having	-8.68034
▁common	-8.68227
▁On	-8.68269
ation	-8.68576
▁page	-8.68921
▁child	-8.69369
▁That	-8.6964
▁environment	-8.69918
▁side	-8.70028
▁light	-8.70141
▁project	-8.70219
▁K	-8.70452
▁either	-8.70604
▁among	-8.71091
▁image	-8.71095
▁below	-8.71782
▁hand	-8.71912
▁social	-8.71946
▁history	-8.72041
▁making	-8.72277
time	-8.72355
▁food	-8.72415
▁mode	-8.72636
▁across	-8.72714
▁string	-8.72747
line	-8.73132
▁due	-8.7319
▁whether	-8.732
▁values	-8.73538
▁One	-8.73674
▁present	-8.73712
▁path	-8.73838
▁God	-8.73879
...	-8.74211
▁try	-8.74285
▁far	-8.74353
▁away	-8.74387
▁care	-8.74538
▁All	-8.74788
▁She	-8.74815
</	-8.74891
▁network	-8.75102
▁An	-8.75241
▁With	-8.75523
▁course	-8.75797
▁once	-8.75877
▁though	-8.76069
▁instead	-8.76192
▁least	-8.76353
▁tree	-8.76504
▁person	-8.7693
dev	-8.77645
▁text	-8.77848
▁real	-8.78268
▁love	-8.78399
q	-8.7843
▁changes	-8.78482
▁running	-8.78572
▁systems	-8.78645
▁others	-8.78817
▁e	-8.78874
▁true	-8.78993
▁format	-8.78997
▁enough	-8.78998
▁together	-8.7901
▁needs	-8.79043
▁country	-8.79176
▁range	-8.79177
▁let	-8.79445
▁men	-8.7946
▁energy	-8.79485
▁cannot	-8.7963
▁—	-8.79698
▁V	-8.8028
–	-8.80628
▁top	-8.81027
▁self	-8.81075
▁At	-8.81579
▁No	-8.82089
?"	-8.82385
up	-8.82562
▁results	-8.82601
▁low	-8.8269
▁doesn	-8.82876
You	-8.83031
▁services	-8.83053
ion	-8.83111
▁early	-8.83125
▁says	-8.83341
▁answer	-8.83488
▁came	-8.83545
▁cause	-8.83578
▁fact	-8.83669
▁further	-8.83995
▁object	-8.83996
▁W	-8.84001
sudo	-8.84009
▁Re	-8.8401
▁multiple	-8.84019
Y	-8.8406
▁American	-8.84071
▁understand	-8.8418
▁future	-8.84363
▁women	-8.84847
for	-8.85065
▁yet	-8.85201
▁book	-8.85321
un	-8.85409
▁rather	-8.85506
▁configuration	-8.85736
▁short	-8.8577
List	-8.85859
▁lot	-8.86141
▁How	-8.86213
▁University	-8.86423
▁hard	-8.86539
We	-8.86579
▁check	-8.87368
▁team	-8.87984
key	-8.88621
▁post	-8.88682
▁head	-8.88726
▁issue	-8.88797
▁later	-8.88821
▁created	-8.88905
▁government	-8.8908
▁thing	-8.89165
print	-8.89233
▁x	-8.89359
▁works	-8.89531
▁however	-8.89551
▁main	-8.89581
all	-8.89818
Display	-8.90025
▁package	-8.90048
▁four	-8.90329
▁thought	-8.9042
▁company	-8.90622
▁standard	-8.90637
http	-8.90745
▁along	-8.90759
▁@	-8.90777
▁**	-8.91206
user	-8.91449
▁certain	-8.9149
▁design	-8.92308
("	-8.92434
▁got	-8.92463
▁Windows	-8.92485
▁via	-8.92518
▁lines	-8.92756
▁Linux	-8.92782
▁content	-8.9295
▁play	-8.93135
▁character	-8.93156
list	-8.93195
▁today	-8.93376
▁ever	-8.93827
▁bit	-8.94243
end	-8.94326
io	-8.94345
▁required	-8.94398
▁makes	-8.9446
▁whole	-8.94634
▁similar	-8.94637
▁quality	-8.94792
▁learning	-8.94958
▁community	-8.95157
out	-8.95242
▁input	-8.95511
ism	-8.95684
▁potential	-8.96121
▁message	-8.96184
▁names	-8.96187
▁looking	-8.96384
de	-8.96874
▁itself	-8.96937
▁words	-8.9695
▁seen	-8.97089
▁}	-8.97184
▁Some	-8.97259
▁air	-8.97344
▁method	-8.97508
▁install	-8.98009
▁provided	-8.98311
▁young	-8.98365
by	-8.98681
git	-8.98784
▁Do	-8.98906
▁c	-8.98915
▁individual	-8.98927
▁heart	-8.99044
▁feel	-8.99125
▁risk	-8.99523
▁application	-8.99525
▁build	-8.99615
▁issues	-8.99642
▁write	-8.99969
▁effect	-9.00046
log	-9.00072
txt	-9.0023
▁memory	-9.00321
▁report	-9.00393
▁actually	-9.00394
For	-9.00444
J	-9.00585
▁doing	-9.00634
▁section	-9.00672
▁online	-9.00714
▁United	-9.00794
▁role	-9.01075
▁language	-9.01381
▁technology	-9.01388
▁clear	-9.01497
▁word	-9.0161
▁usually	-9.01727
▁likely	-9.01755
my	-9.01828
▁live	-9.02137
▁past	-9.0222
▁systemd	-9.02336
▁kernel	-9.02498
co	-9.02602
▁After	-9.03121
▁action	-9.03263
▁simple	-9.03302
▁areas	-9.03464
▁special	-9.03631
▁learn	-9.03827
▁original	-9.03851
etc	-9.03855
▁search	-9.03871
▁added	-9.03929
▁comes	-9.04039
▁mind	-9.04044
▁allow	-9.04297
▁site	-9.043
▁•	-9.04446
▁age	-9.04515
▁table	-9.04848
▁general	-9.04862
▁problems	-9.05049
▁etc	-9.05162
▁▁▁▁▁	-9.05178
▁higher	-9.05219
▁pre	-9.05307
▁taken	-9.05693
▁natural	-9.05712
▁sub	-9.05739
▁idea	-9.05797
▁account	-9.05908
▁folder	-9.05957
dir	-9.06076
):	-9.06308
exec	-9.06579
U	-9.06631
▁kind	-9.06911
▁blood	-9.07176
▁treatment	-9.07215
ist	-9.07256
size	-9.07265
▁variable	-9.07399
▁associated	-9.07456
Find	-9.07469
▁users	-9.07473
▁amount	-9.07687
▁computer	-9.07915
▁root	-9.07924
var	-9.07998
^	-9.08021
▁particular	-9.08074
To	-9.08101
rs	-9.08169
li	-9.08187
▁needed	-9.08284
▁link	-9.08328
▁game	-9.08335
sh	-9.08344
▁types	-9.0835
&	-9.0849
▁levels	-9.0869
int	-9.08693
▁event	-9.08769
▁software	-9.08861
▁v	-9.08992
▁provides	-9.09023
▁city	-9.09085
▁necessary	-9.09132
▁events	-9.09268
▁cases	-9.09328
ton	-9.09339
▁products	-9.09465
less	-9.09511
▁structure	-9.0961
▁model	-9.09611
▁host	-9.09691
▁regular	-9.09725
▁machine	-9.0975
▁lead	-9.09808
▁setting	-9.10071
▁drive	-9.10141
▁especially	-9.10182
▁money	-9.10196
What	-9.10224
st	-9.10356
▁increase	-9.10474
conf	-9.10481
▁management	-9.10529
be	-9.10615
▁performance	-9.10622
▁took	-9.10693
▁devices	-9.10711
▁face	-9.10828
▁*/	-9.10837
▁allows	-9.10945
▁disease	-9.10981
▁While	-9.10997
▁resources	-9.11003
▁unique	-9.1108
ry	-9.11095
age	-9.11247
▁details	-9.11308
▁status	-9.11332
▁house	-9.11912
Z	-9.11976
▁port	-9.12144
▁view	-9.12251
▁Note	-9.12261
▁went	-9.12384
▁States	-9.1253
▁reason	-9.12584
▁argument	-9.12623
▁else	-9.12772
▁education	-9.12837
▁LETTER	-9.12896
ul	-9.13085
▁period	-9.13249
▁b	-9.13256
ar	-9.13291
▁mean	-9.13525
▁law	-9.13584
▁close	-9.13717
▁conditions	-9.14137
data	-9.14149
▁written	-9.14192
▁knowledge	-9.14345
▁personal	-9.14498
el	-9.14717
▁growth	-9.14769
▁easy	-9.14946
this	-9.15016
▁nothing	-9.15327
new	-9.15356
▁building	-9.15395
▁turn	-9.1545
▁significant	-9.15457
▁connection	-9.1552
▁addition	-9.15628
▁display	-9.15882
▁land	-9.16026
▁white	-9.16027
▁market	-9.16206
▁complete	-9.16523
▁major	-9.16569
▁members	-9.16602
▁writing	-9.16852
▁questions	-9.16919
me	-9.16962
▁themselves	-9.17032
▁installed	-9.17046
▁Mr	-9.17194
▁anything	-9.17234
ian	-9.17252
▁story	-9.17292
▁instance	-9.17297
▁seems	-9.17353
▁private	-9.1775
▁ensure	-9.17957
ip	-9.1802
▁offer	-9.18045
▁five	-9.18072
▁night	-9.18195
lib	-9.18232
!"	-9.18254
▁▁▁▁▁▁▁▁▁▁▁▁	-9.18358
Q	-9.18412
▁move	-9.18477
▁security	-9.18516
▁color	-9.18597
▁lower	-9.18599
▁related	-9.1862
▁target	-9.18679
▁hours	-9.18704
▁physical	-9.18733
ling	-9.18747
▁half	-9.18799
▁His	-9.18821
▁week	-9.18859
▁features	-9.19095
ant	-9.19168
▁whose	-9.19235
▁St	-9.19592
||	-9.19768
▁ways	-9.19825
▁believe	-9.20028
▁paper	-9.20137
▁tell	-9.20313
▁matter	-9.20504
▁position	-9.20533
▁big	-9.20548
▁My	-9.20874
▁shall	-9.20877
▁approach	-9.20903
▁almost	-9.20945
ies	-9.21007
▁English	-9.2114
▁additional	-9.21158
▁won	-9.21163
▁...	-9.21247
see	-9.21284
est	-9.2129
▁directly	-9.21314
um	-9.21409
▁total	-9.21479
ment	-9.21517
png	-9.21853
▁probably	-9.21866
▁million	-9.21869
▁impact	-9.21947
▁understanding	-9.22007
▁consider	-9.22286
▁room	-9.22371
▁cost	-9.22402
▁functions	-9.22421
▁getting	-9.22594
▁sense	-9.22652
▁d	-9.22717
ia	-9.22806
not	-9.22855
▁trying	-9.22964
▁National	-9.23032
▁media	-9.23087
▁shows	-9.23227
▁according	-9.235
▁$\	-9.23509
NAME	-9.23558
▁tried	-9.23629
▁industry	-9.23682
▁quite	-9.23721
▁terms	-9.23784
▁>	-9.23884
▁war	-9.23885
sstatic	-9.2397
▁didn	-9.24012
that	-9.24335
▁shell	-9.24418
test	-9.24452
▁taking	-9.24518
▁built	-9.24559
▁print	-9.24624
▁success	-9.24664
son	-9.24714
▁rate	-9.24849
usr	-9.24869
▁currently	-9.24978
directory	-9.25198
▁m	-9.25216
▁longer	-9.25302
he	-9.2547
▁near	-9.25479
ent	-9.25515
▁programs	-9.25593
▁reading	-9.25708
▁started	-9.25775
▁species	-9.25784
▁Dr	-9.25928
▁modern	-9.25986
▁product	-9.26023
`.	-9.26031
with	-9.2605
▁tool	-9.26058
▁git	-9.26074
▁skills	-9.26221
▁co	-9.26295
▁car	-9.26411
▁job	-9.26653
▁processes	-9.26666
ne	-9.26745
▁response	-9.26881
▁everything	-9.26904
▁global	-9.2702
▁practice	-9.27048
▁production	-9.27133
As	-9.27176
…	-9.27288
▁throughout	-9.27341
bin	-9.27432
one	-9.2746
▁length	-9.27466
▁unit	-9.27516
ary	-9.27547
▁screen	-9.27661
which	-9.27678
▁nature	-9.27691
▁strong	-9.27717
▁death	-9.2783
▁share	-9.27841
▁script	-9.27902
▁contains	-9.2802
">	-9.28023
▁plan	-9.2803
▁someone	-9.28085
▁uses	-9.28116
▁effective	-9.28124
go	-9.28135
Print	-9.28164
▁update	-9.28218
▁policy	-9.2827
ie	-9.28295
▁black	-9.28356
▁log	-9.28405
do	-9.28433
▁solution	-9.28465
based	-9.28582
output	-9.28623
ting	-9.29159
▁recent	-9.29171
▁match	-9.29205
bit	-9.2945
▁John	-9.29465
▁himself	-9.29684
▁towards	-9.29775
▁groups	-9.29812
▁useful	-9.29817
▁directories	-9.29867
▁months	-9.29899
▁percent	-9.30064
▁characters	-9.30072
▁block	-9.30092
▁web	-9.30271
▁simply	-9.30277
os	-9.30347
▁countries	-9.30572
▁remote	-9.30608
ive	-9.30653
▁video	-9.30799
▁property	-9.3115
▁sent	-9.31161
▁supported	-9.31187
▁Then	-9.31255
▁window	-9.31291
▁require	-9.31655
▁inside	-9.3197
▁existing	-9.32179
▁Now	-9.32284
▁patients	-9.32377
▁became	-9.32404
▁ago	-9.32611
();	-9.32669
There	-9.32697
")	-9.32706
▁remove	-9.32986
▁follow	-9.32994
so	-9.3301
▁interface	-9.33014
ter	-9.33246
▁considered	-9.33403
▁living	-9.33546
▁designed	-9.33647
▁date	-9.33862
▁website	-9.33864
▁points	-9.33958
▁series	-9.33991
▁fine	-9.33997
▁cells	-9.34076
▁step	-9.34099
▁individuals	-9.34132
▁Use	-9.34258
When	-9.34441
▁entire	-9.34451
▁World	-9.3448
▁takes	-9.3489
▁material	-9.35063
▁continue	-9.3511
▁n	-9.35543
▁normal	-9.35641
▁art	-9.35674
▁%	-9.35702
▁behind	-9.35746
▁focus	-9.35787
▁outside	-9.35792
▁tools	-9.35882
▁{}	-9.35944
ID	-9.35968
▁article	-9.35978
config	-9.3604
▁May	-9.36092
▁methods	-9.36112
▁//	-9.36166
▁requires	-9.36308
github	-9.36311
▁greater	-9.36318
▁music	-9.36412
▁client	-9.36561
And	-9.36644
▁record	-9.36725
▁essential	-9.3675
▁feature	-9.37044
▁prevent	-9.37063
▁save	-9.37094
py	-9.37126
▁told	-9.37421
▁interest	-9.37421
ch	-9.37443
il	-9.37458
▁contain	-9.37572
▁third	-9.37594
▁▁▁▁▁▁▁▁▁	-9.37619
▁numbers	-9.37659
▁subject	-9.37863
▁copy	-9.37968
▁parts	-9.38143
▁asked	-9.38234
▁creating	-9.38306
▁defined	-9.38424
▁shown	-9.38448
▁named	-9.38528
te	-9.38557
▁pay	-9.38615
▁IP	-9.38657
▁ground	-9.38782
▁changed	-9.38851
▁[-	-9.38906
text	-9.38969
ty	-9.38975
▁activities	-9.39057
▁returned	-9.39211
▁US	-9.39235
▁rest	-9.39235
▁behavior	-9.39313
▁red	-9.39571
▁force	-9.39603
port	-9.39687
▁pressure	-9.39818
▁send	-9.39852
▁pain	-9.39876
▁et	-9.39919
▁materials	-9.40008
▁received	-9.40163
▁reduce	-9.40179
▁thus	-9.40208
▁War	-9.40295
▁De	-9.40329
▁offers	-9.40349
▁training	-9.40445
code	-9.40517
▁location	-9.40566
▁term	-9.40612
────────────────	-9.40767
▁Co	-9.40854
▁ID	-9.40913
▁includes	-9.40929
▁isn	-9.40944
▁State	-9.4096
▁plant	-9.4099
▁cut	-9.40994
▁saw	-9.4104
▁safety	-9.41075
▁final	-9.41078
info	-9.41156
▁ability	-9.4119
▁soon	-9.41201
▁minutes	-9.41336
▁speed	-9.41384
▁ask	-9.41439
▁disk	-9.4146
▁base	-9.41464
▁develop	-9.41505
▁passed	-9.41596
▁analysis	-9.41786
▁oil	-9.41926
am	-9.42012
▁effects	-9.42063
▁positive	-9.42151
▁century	-9.4235
▁g	-9.42404
ization	-9.42439
▁cancer	-9.42461
▁al	-9.42463
▁America	-9.42465
▁exit	-9.4259
▁activity	-9.42769
▁applications	-9.42793
▁leading	-9.42944
▁evidence	-9.43015
value	-9.43043
`,	-9.43182
▁attention	-9.43232
▁operation	-9.43305
▁difficult	-9.43362
▁factors	-9.43368
▁difference	-9.43383
▁choose	-9.43388
▁settings	-9.43427
▁increased	-9.43438
help	-9.43565
ized	-9.43641
▁complex	-9.43683
▁companies	-9.43729
▁From	-9.43765
▁included	-9.43877
▁sometimes	-9.43888
▁library	-9.43965
▁sort	-9.43994
Set	-9.44125
▁avoid	-9.44129
ine	-9.44147
▁bad	-9.44165
▁moment	-9.44229
▁boot	-9.44293
▁context	-9.44479
▁political	-9.44568
▁active	-9.44698
▁Be	-9.44746
version	-9.44747
▁enabled	-9.44765
▁forward	-9.44894
▁followed	-9.44923
▁began	-9.44974
▁studies	-9.45078
▁York	-9.45157
▁eyes	-9.45237
ro	-9.45273
▁contact	-9.45291
▁Your	-9.45335
▁front	-9.45363
docs	-9.45364
▁stop	-9.45567
▁style	-9.45649
▁signal	-9.45871
▁medical	-9.45935
▁South	-9.46216
▁improve	-9.46281
▁sound	-9.46319
▁request	-9.46342
▁sea	-9.46373
ra	-9.46383
from	-9.46519
▁beyond	-9.46538
▁lives	-9.46643
▁previous	-9.46698
na	-9.46729
include	-9.46846
▁region	-9.46867
▁benefits	-9.46882
per	-9.46941
▁states	-9.46963
▁commands	-9.46983
▁bytes	-9.47026
▁wide	-9.47068
▁seem	-9.47072
▁popular	-9.47134
source	-9.47181
▁session	-9.47395
add	-9.47411
▁population	-9.47679
home	-9.47693
▁science	-9.47756
▁held	-9.47762
ce	-9.47845
▁correct	-9.48002
old	-9.48298
▁rights	-9.48381
Name	-9.48479
▁surface	-9.48533
▁dis	-9.48557
▁entry	-9.48575
ma	-9.48582
▁store	-9.48635
▁loss	-9.4868
command	-9.49009
▁easily	-9.49044
▁purpose	-9.49123
▁array	-9.49315
▁Our	-9.49356
▁hope	-9.49402
et	-9.49514
▁flag	-9.4952
▁shared	-9.49532
▁elements	-9.49647
land	-9.49705
So	-9.4971
▁cell	-9.49944
systemd	-9.49964
use	-9.50175
▁leave	-9.50232
▁bring	-9.50305
▁providing	-9.50405
▁beginning	-9.50464
▁receive	-9.50509
▁please	-9.50553
But	-9.50556
How	-9.50564
im	-9.50581
▁Here	-9.50594
▁Also	-9.50671
▁Ubuntu	-9.50937
▁student	-9.51059
▁yourself	-9.51188
cli	-9.51416
▁described	-9.51487
term	-9.51503
▁fire	-9.51651
▁returns	-9.51697
like	-9.5179
string	-9.51946
ur	-9.51957
Create	-9.52175
▁password	-9.52359
▁brain	-9.52375
▁successful	-9.52448
▁involved	-9.52591
▁international	-9.52599
▁produce	-9.52734
▁images	-9.52752
ance	-9.52772
ate	-9.52805
▁traditional	-9.529
▁North	-9.53068
//	-9.53433
▁skin	-9.53442
▁developed	-9.53668
▁therefore	-9.53926
▁wrong	-9.53934
▁Not	-9.54121
▁pass	-9.54128
run	-9.54132
▁fast	-9.54132
ally	-9.5414
▁condition	-9.54175
▁note	-9.54201
▁national	-9.54212
▁app	-9.54358
▁lost	-9.54365
▁]	-9.54405
▁particularly	-9.54519
ca	-9.54551
▁price	-9.54732
▁friends	-9.54789
bar	-9.54792
▁expected	-9.54795
▁feet	-9.54833
▁Or	-9.54854
ence	-9.54894
▁filesystem	-9.54926
He	-9.54996
▁appear	-9.55233
▁average	-9.55258
ating	-9.55261
▁plants	-9.55365
off	-9.55378
tion	-9.55558
ad	-9.55647
▁six	-9.5567
▁starting	-9.55683
▁pattern	-9.55849
Show	-9.55869
▁Can	-9.55879
▁safe	-9.55919
▁financial	-9.55929
▁http	-9.56183
but	-9.56512
▁hands	-9.56512
▁rules	-9.56568
▁helps	-9.56583
▁overall	-9.56636
▁published	-9.56641
▁basic	-9.56644
▁situation	-9.569
▁objects	-9.57039
ls	-9.57116
men	-9.5723
▁hold	-9.57253
▁digital	-9.57275
Start	-9.57371
▁terminal	-9.57374
▁communication	-9.57475
▁module	-9.57545
▁visit	-9.57558
tmp	-9.5764
▁weight	-9.57646
▁late	-9.58211
▁economic	-9.58288
▁packages	-9.58419
▁operations	-9.58427
▁coming	-9.58456
▁except	-9.58675
▁causes	-9.58811
▁otherwise	-9.58839
▁limit	-9.58946
day	-9.59188
_{	-9.59208
▁exactly	-9.59242
ley	-9.59303
mo	-9.59306
example	-9.59448
▁compared	-9.5947
▁usage	-9.5948
▁primary	-9.59548
▁Since	-9.59754
host	-9.5976
▁meet	-9.59918
ful	-9.59981
▁larger	-9.59986
▁connected	-9.60086
▁Most	-9.60158
▁parents	-9.60162
▁society	-9.60175
image	-9.60192
service	-9.60216
▁poor	-9.60275
▁direct	-9.60354
mp	-9.60429
▁healthy	-9.60509
▁led	-9.60568
map	-9.6057
▁partition	-9.60581
▁decision	-9.60737
Get	-9.60741
($	-9.60763
▁apply	-9.60786
▁eye	-9.60805
▁allowed	-9.60876
▁rule	-9.61125
▁extra	-9.61148
return	-9.61259
▁Of	-9.61332
em	-9.61333
▁sources	-9.61365
▁month	-9.61386
▁determine	-9.61396
server	-9.61434
▁sleep	-9.61449
▁ideas	-9.61468
▁appropriate	-9.61627
▁generally	-9.61693
▁meaning	-9.61927
▁fields	-9.61963
▁System	-9.61983
▁worked	-9.62032
▁quickly	-9.62054
▁heat	-9.62077
▁woman	-9.62193
▁brought	-9.62252
ous	-9.62354
ta	-9.62428
▁maximum	-9.62434
▁father	-9.62469
▁turned	-9.62519
))	-9.62551
▁Let	-9.62585
▁opportunities	-9.62686
▁limited	-9.62783
▁break	-9.62919
▁empty	-9.6303
ated	-9.63051
▁Each	-9.63104
▁author	-9.6311
▁\;	-9.63272
ke	-9.63319
▁database	-9.63339
DESCRIPTION	-9.63499
▁{{[	-9.63506
▁perfect	-9.63646
▁steps	-9.63662
▁stay	-9.63665
▁gave	-9.63706
▁deep	-9.6372
▁goes	-9.64315
▁party	-9.64326
ac	-9.64329
▁professional	-9.64334
▁gas	-9.64392
▁First	-9.64466
link	-9.64724
▁gives	-9.64726
▁India	-9.64918
▁clean	-9.64961
ish	-9.65104
▁challenges	-9.65176
▁expression	-9.65192
▁card	-9.65243
▁LATIN	-9.65263
▁release	-9.65302
▁Go	-9.65475
▁remember	-9.65548
▁zero	-9.65609
▁messages	-9.65658
▁Health	-9.65697
▁=>	-9.65723
nd	-9.65802
▁green	-9.65882
▁caused	-9.66023
▁member	-9.66058
input	-9.66313
▁School	-9.6638
group	-9.66416
▁exist	-9.6643
▁task	-9.66434
▁although	-9.66435
▁forms	-9.66465
▁grep	-9.66491
right	-9.66586
▁==	-9.66682
▁bar	-9.66718
ize	-9.66824
▁round	-9.66853
▁British	-9.66864
▁volume	-9.66926
▁document	-9.67057
▁email	-9.67222
▁critical	-9.67271
▁Al	-9.67292
Re	-9.67407
la	-9.6741
ner	-9.67412
▁grow	-9.67446
▁mother	-9.67462
▁arguments	-9.67524
No	-9.67588
▁sign	-9.67603
▁culture	-9.67681
Type	-9.67945
▁heard	-9.67997
▁Many	-9.68069
▁season	-9.6807
▁daily	-9.68099
▁everyone	-9.68258
▁containing	-9.6828
▁talk	-9.68331
▁k	-9.68524
▁located	-9.68557
▁opportunity	-9.68581
▁reference	-9.68609
▁driver	-9.68612
▁multi	-9.6865
▁custom	-9.68769
▁recently	-9.68899
▁symptoms	-9.68931
div	-9.68974
default	-9.69024
▁patient	-9.69034
▁virtual	-9.69054
freedesktop	-9.69076
▁variety	-9.69135
▁components	-9.6933
▁ready	-9.69529
▁act	-9.69556
fs	-9.69605
▁progress	-9.69752
manned	-9.6983
▁select	-9.69851
▁deal	-9.6989
▁connect	-9.69919
▁Le	-9.69994
her	-9.7004
▁supply	-9.70042
▁begin	-9.70099
▁calls	-9.70123
▁anyone	-9.70123
▁looks	-9.7014
▁removed	-9.70175
▁protection	-9.70177
▁remains	-9.70231
▁pretty	-9.70311
▁French	-9.70425
▁items	-9.70458
On	-9.70505
/*	-9.70577
▁properties	-9.70649
▁climate	-9.70695
▁branch	-9.70847
▁fully	-9.70872
▁double	-9.71036
root	-9.71115
▁fall	-9.71191
▁wanted	-9.71195
con	-9.71256
▁movement	-9.71397
▁costs	-9.71441
▁Y	-9.71488
ah	-9.71499
▁March	-9.71527
▁enable	-9.7158
▁reported	-9.71633
▁temperature	-9.71647
▁false	-9.71653
▁automatically	-9.71698
pdf	-9.7176
▁thinking	-9.71792
▁staff	-9.71966
import	-9.72065
▁separate	-9.72094
▁office	-9.7219
frac	-9.72266
▁remain	-9.72382
▁maintain	-9.72471
▁solutions	-9.72478
▁projects	-9.72567
▁Con	-9.72572
we	-9.72585
▁Z	-9.72683
▁core	-9.72753
package	-9.72761
▁contents	-9.7279
ted	-9.72793
▁becomes	-9.72935
▁commit	-9.72941
▁internal	-9.72947
▁produced	-9.73072
▁wait	-9.73143
▁practices	-9.73154
▁immediately	-9.73182
class	-9.73296
▁alone	-9.73358
▁influence	-9.73398
▁pages	-9.73583
only	-9.73592
ir	-9.73608
▁choice	-9.7361
▁mental	-9.73726
▁crucial	-9.73741
▁legal	-9.73847
led	-9.73913
▁perhaps	-9.73949
some	-9.73965
▁box	-9.74045
▁books	-9.74061
▁click	-9.7411
▁download	-9.74171
▁efforts	-9.74208
▁sun	-9.74213
tar	-9.74216
▁looked	-9.74346
▁index	-9.74354
▁communities	-9.74454
▁importance	-9.74458
▁serve	-9.74508
▁goal	-9.74536
▁mount	-9.74626
▁flow	-9.74683
▁stage	-9.74687
▁reach	-9.74713
▁THE	-9.7472
}}"	-9.74827
▁actual	-9.74915
▁earlier	-9.74976
ri	-9.75101
len	-9.75118
▁completely	-9.75137
▁benefit	-9.75139
▁Day	-9.75198
▁highly	-9.75315
▁unless	-9.75385
▁protect	-9.75412
▁established	-9.75461
▁typically	-9.75524
▁background	-9.75599
▁Although	-9.75604
▁growing	-9.75612
▁xargs	-9.75775
ol	-9.75791
way	-9.75853
▁Q	-9.75918
▁placed	-9.75926
▁storage	-9.76052
▁relationship	-9.76053
▁older	-9.76135
My	-9.76218
▁external	-9.76224
▁animals	-9.76282
▁latest	-9.76408
local	-9.76414
▁damage	-9.76479
cat	-9.76497
ED	-9.76529
▁parent	-9.76541
doc	-9.7655
▁hair	-9.76621
▁organization	-9.76729
▁resource	-9.76833
▁auto	-9.76862
▁fun	-9.76983
table	-9.77086
▁mentioned	-9.77094
▁perform	-9.77275
▁parameter	-9.77458
Run	-9.77546
▁identify	-9.77582
▁map	-9.77606
▁review	-9.77625
lo	-9.77681
▁load	-9.77701
▁worth	-9.77786
▁count	-9.77791
pi	-9.77794
ut	-9.77851
▁piece	-9.77856
▁beautiful	-9.77897
▁Research	-9.77947
ping	-9.77993
▁China	-9.78016
▁domain	-9.7806
▁giving	-9.78114
▁Even	-9.7815
▁modified	-9.78316
▁repository	-9.7844
▁morning	-9.7844
index	-9.78559
top	-9.78606
▁strategies	-9.78638
▁developing	-9.78728
▁"$	-9.78839
▁interesting	-9.78849
▁City	-9.78924
min	-9.7897
▁techniques	-9.79022
▁errors	-9.79111
Search	-9.79147
▁lack	-9.79149
▁hear	-9.79276
▁schools	-9.79305
▁distribution	-9.79308
▁element	-9.79377
▁nor	-9.7945
▁rates	-9.79486
▁friend	-9.795
da	-9.79526
▁cover	-9.79527
▁proper	-9.79557
▁Pro	-9.79653
▁nearly	-9.79655
▁variables	-9.79675
▁units	-9.79689
▁collection	-9.79694
was	-9.79704
▁town	-9.79762
year	-9.80026
read	-9.80081
▁regarding	-9.80086
▁environmental	-9.80176
▁King	-9.80212
▁Why	-9.80304
▁trade	-9.80319
▁voice	-9.80342
▁explore	-9.80346
back	-9.80498
▁weeks	-9.80527
▁letter	-9.80556
▁affect	-9.80651
▁summer	-9.80692
▁center	-9.80742
▁occur	-9.80854
By	-9.80913
▁testing	-9.80973
target	-9.80995
▁switch	-9.81086
▁"{{	-9.81248
ial	-9.81267
▁whom	-9.81274
▁powerful	-9.81323
red	-9.81612
▁parameters	-9.81659
▁Google	-9.81663
▁Europe	-9.81737
▁ALSO	-9.81807
sys	-9.81811
▁selected	-9.81814
ship	-9.81914
▁sets	-9.82195
▁London	-9.82317
▁valid	-9.82354
SYNOPSIS	-9.82369
▁chance	-9.82431
▁picture	-9.82587
▁applied	-9.82652
▁hot	-9.82685
script	-9.82793
our	-9.82842
▁film	-9.82931
den	-9.83012
▁earth	-9.83033
▁blue	-9.83039
▁alternative	-9.83111
▁Act	-9.83201
▁According	-9.83206
url	-9.83301
▁equipment	-9.83328
▁cross	-9.83366
▁Center	-9.83378
level	-9.83385
▁ones	-9.83457
▁equal	-9.83495
▁European	-9.83625
▁felt	-9.83715
▁negative	-9.83764
▁La	-9.83793
▁anti	-9.83819
▁cold	-9.83947
check	-9.83955
▁former	-9.84072
▁description	-9.84103
ps	-9.8421
▁specify	-9.84229
▁appears	-9.84261
▁knew	-9.84374
▁reasons	-9.84388
foo	-9.84396
proc	-9.84404
▁windows	-9.84406
ns	-9.84437
▁con	-9.84441
▁relevant	-9.84622
▁requirements	-9.84638
▁President	-9.84687
▁listed	-9.84688
▁England	-9.84733
▁smaller	-9.84736
▁West	-9.84854
▁initial	-9.84891
▁Earth	-9.85007
▁SMALL	-9.85008
▁pro	-9.85137
free	-9.85151
▁track	-9.85163
▁respect	-9.85179
▁April	-9.85199
▁places	-9.85215
ology	-9.85281
▁House	-9.85283
const	-9.85312
▁organizations	-9.85339
▁researchers	-9.85363
▁WITH	-9.85365
▁stand	-9.85572
tic	-9.85616
Do	-9.8567
ge	-9.85705
▁models	-9.85763
▁happen	-9.85862
('	-9.85878
▁column	-9.85879
▁San	-9.85923
▁son	-9.85966
▁seconds	-9.86099
▁saying	-9.86157
▁families	-9.86195
str	-9.86208
▁hardware	-9.86268
▁fit	-9.86325
▁board	-9.86376
▁court	-9.86472
▁clients	-9.86557
▁USB	-9.86631
▁road	-9.86658
▁General	-9.86718
▁degree	-9.86766
ref	-9.86823
▁void	-9.86915
▁customers	-9.8694
▁significantly	-9.87089
▁OS	-9.87111
▁eat	-9.87175
open	-9.87372
▁operating	-9.87424
op	-9.87457
you	-9.87458
▁generated	-9.87505
▁extension	-9.87538
▁soil	-9.87586
▁failure	-9.87634
field	-9.87649
gen	-9.87684
▁handle	-9.87689
▁buy	-9.87729
▁games	-9.8781
▁military	-9.87842
That	-9.87914
▁trust	-9.88083
ff	-9.88092
▁Her	-9.88174
▁Lord	-9.88205
▁comment	-9.88265
View	-9.883
▁June	-9.88403
");	-9.88599
side	-9.88632
ard	-9.88644
▁trees	-9.88671
span	-9.88676
▁instructions	-9.88689
app	-9.88697
ak	-9.88724
▁versions	-9.88895
▁balance	-9.88917
can	-9.88949
php	-9.8896
▁traffic	-9.88966
▁phone	-9.89007
▁middle	-9.89045
jpg	-9.89079
▁title	-9.8908
▁thread	-9.89081
ING	-9.89104
▁l	-9.89164
ubuntu	-9.89177
▁int	-9.89263
▁actions	-9.89279
izing	-9.89318
▁Department	-9.89361
▁Please	-9.89462
search	-9.89468
▁enjoy	-9.89511
▁stress	-9.89696
▁responsible	-9.89714
▁International	-9.8972
An	-9.89731
▁records	-9.89747
▁expect	-9.89769
▁master	-9.89797
▁figure	-9.89956
▁Don	-9.90034
▁statement	-9.90078
▁waste	-9.90139
▁hour	-9.90273
▁corresponding	-9.90322
▁continued	-9.90325
▁effort	-9.90439
▁fish	-9.9048
▁manager	-9.90487
format	-9.90488
echo	-9.90496
▁planning	-9.90512
▁delete	-9.9058
over	-9.90628
▁filter	-9.90631
▁largest	-9.90649
▁July	-9.90664
▁conclusion	-9.90729
▁travel	-9.90779
▁buffer	-9.90849
▁construction	-9.90866
▁rich	-9.9091
▁During	-9.90992
▁dark	-9.91213
▁gain	-9.91239
▁links	-9.91266
long	-9.91314
▁ten	-9.91389
point	-9.91468
▁changing	-9.91568
▁news	-9.91654
▁businesses	-9.91662
▁allowing	-9.91681
▁Un	-9.91714
db	-9.918
▁stored	-9.91821
▁tests	-9.91844
▁serious	-9.91874
▁wish	-9.91881
▁profile	-9.91938
▁myself	-9.91944
▁door	-9.92071
der	-9.92087
max	-9.92092
▁Just	-9.92103
▁adding	-9.92158
▁Man	-9.92201
▁failed	-9.92261
▁Set	-9.92268
▁CPU	-9.92324
▁manner	-9.92416
▁increasing	-9.92444
▁keys	-9.92488
▁Car	-9.92556
▁achieve	-9.92607
tro	-9.92627
▁char	-9.92677
pm	-9.92681
With	-9.92835
ex	-9.92938
▁January	-9.93032
▁toward	-9.93078
▁concept	-9.93117
▁Another	-9.93166
ten	-9.93229
----------------	-9.9335
▁Science	-9.9344
▁attempt	-9.93462
▁processing	-9.93539
▁generation	-9.93549
▁mass	-9.93608
▁sites	-9.93641
ists	-9.93697
▁reports	-9.93765
▁plans	-9.93895
▁direction	-9.93925
▁performed	-9.93964
▁happens	-9.93966
▁exercise	-9.93973
mm	-9.94045
▁Jesus	-9.94084
▁Get	-9.94109
▁https	-9.94113
▁watch	-9.94137
▁en	-9.94164
▁aspects	-9.94289
▁essay	-9.94294
{{	-9.94306
rd	-9.9448
▁Once	-9.94584
▁strength	-9.94649
▁fresh	-9.94671
bo	-9.94693
▁demand	-9.94707
▁numerous	-9.94716
▁presence	-9.94739
▁generate	-9.94778
▁shape	-9.94779
}{	-9.94813
▁theory	-9.94816
▁fear	-9.94846
ite	-9.94847
▁tax	-9.94924
▁[--	-9.94946
▁carbon	-9.95069
▁miles	-9.95094
tr	-9.95146
▁matching	-9.95187
▁cache	-9.953
▁Black	-9.95339
▁slow	-9.95347
▁none	-9.95366
▁patterns	-9.95421
▁August	-9.95456
▁distance	-9.95583
▁cultural	-9.95741
▁resulting	-9.95843
▁seemed	-9.95879
▁enter	-9.95916
▁info	-9.95916
▁Moreover	-9.95923
~	-9.95931
▁moved	-9.9595
é	-9.96039
▁II	-9.96058
▁certificate	-9.96059
▁scale	-9.96066
ium	-9.96075
▁foot	-9.96079
▁easier	-9.96079
▁fixed	-9.96121
▁moving	-9.96163
▁inter	-9.96168
▁customer	-9.96178
▁UK	-9.96195
▁solar	-9.96299
se	-9.96328
▁career	-9.96342
▁documentation	-9.96386
▁huge	-9.96398
▁basis	-9.96565
▁transfer	-9.96568
▁marketing	-9.96612
▁ancient	-9.96628
mon	-9.96634
▁stream	-9.96929
All	-9.96932
td	-9.9699
are	-9.97085
▁header	-9.97114
▁null	-9.97123
wiki	-9.97207
Remove	-9.97271
▁Mar	-9.97275
▁r	-9.97358
▁German	-9.97362
▁speak	-9.9739
▁County	-9.97404
base	-9.97443
▁Any	-9.97444
ster	-9.97473
▁attack	-9.97617
▁guide	-9.977
▁super	-9.97816
▁interested	-9.97849
▁manage	-9.97885
▁certainly	-9.97886
▁spread	-9.97921
▁relationships	-9.97925
▁relative	-9.97999
▁connections	-9.98049
▁November	-9.9806
▁measure	-9.9807
mer	-9.98083
ities	-9.98165
▁implementation	-9.98256
▁config	-9.98284
One	-9.98289
▁central	-9.98333
(),	-9.9835
▁Other	-9.98363
▁native	-9.98395
ring	-9.98499
ise	-9.98532
▁layer	-9.9855
▁kids	-9.98619
▁measures	-9.9867
▁wrote	-9.98739
▁brand	-9.98746
▁exists	-9.98819
sum	-9.98853
▁standards	-9.98888
▁journey	-9.98946
▁meeting	-9.99046
▁Open	-9.99074
▁wife	-9.99124
}$	-9.99211
lock	-9.99334
▁dog	-9.99352
▁node	-9.99512
▁missing	-9.99563
▁feeling	-9.99566
▁walk	-9.99577
▁Institute	-9.99614
linux	-9.99652
▁race	-9.99654
date	-9.99711
rc	-9.99786
++	-9.99958
Is	-9.9998
▁selection	-10
▁involves	-10.0002
▁sample	-10.0002
▁bottom	-10.0013
▁experiences	-10.002
▁kept	-10.0021
▁properly	-10.0023
▁Thus	-10.0025
▁happy	-10.0027
▁entries	-10.003
▁church	-10.0031
▁wall	-10.0033
mode	-10.0047
▁September	-10.0057
▁died	-10.0061
▁Park	-10.0068
▁tasks	-10.0072
▁previously	-10.0095
▁equivalent	-10.0097
▁couple	-10.01
▁depending	-10.0101
▁truth	-10.012
▁PC	-10.0122
pid	-10.0135
▁Additionally	-10.0137
▁Internet	-10.0138
▁workers	-10.014
▁la	-10.0141
house	-10.0148
▁platform	-10.0153
pre	-10.0155
tag	-10.0156
create	-10.0157
tor	-10.0158
><	-10.0164
system	-10.0166
▁socket	-10.017
▁diet	-10.0181
▁River	-10.0184
ctl	-10.0188
▁static	-10.0192
▁animal	-10.0193
val	-10.0196
▁credit	-10.0197
▁religious	-10.0198
▁goals	-10.0201
▁addresses	-10.0202
▁prior	-10.0206
▁intended	-10.0211
▁excellent	-10.0222
At	-10.0233
▁opening	-10.0242
▁OF	-10.0243
▁/*	-10.0245
his	-10.0249
▁affected	-10.0256
▁suggest	-10.0258
File	-10.0266
▁showing	-10.0267
▁dead	-10.0272
ha	-10.0272
ci	-10.0281
▁doubt	-10.0286
▁teachers	-10.0304
▁charge	-10.0306
▁recommended	-10.0308
start	-10.0323
▁France	-10.0324
▁internet	-10.0324
▁gets	-10.0336
let	-10.0338
▁capital	-10.0338
▁sequence	-10.0338
▁challenge	-10.0352
▁effectively	-10.0364
▁protocol	-10.0366
vi	-10.0367
▁installation	-10.0371
▁highest	-10.0378
▁fix	-10.0378
number	-10.0386
│	-10.0387
▁owner	-10.039
head	-10.0399
▁California	-10.0416
▁historical	-10.0421
▁CAPITAL	-10.0424
▁follows	-10.0428
▁Free	-10.0433
▁notice	-10.0433
▁constant	-10.0433
▁hit	-10.0434
▁winter	-10.0443
▁Ha	-10.045
▁wind	-10.045
▁quick	-10.0451
▁opened	-10.0451
param	-10.0452
}\	-10.0453
rm	-10.0455
▁permission	-10.0461
▁dry	-10.0462
▁replace	-10.0464
▁topic	-10.0472
▁container	-10.0474
▁factor	-10.0476
▁flags	-10.0478
▁secure	-10.0478
dy	-10.0478
▁Me	-10.0486
▁teaching	-10.0489
▁decided	-10.0493
▁Because	-10.05
▁capacity	-10.0503
▁Court	-10.0509
▁calling	-10.0516
▁Pi	-10.0519
bus	-10.053
▁manual	-10.0534
String	-10.0539
▁"*.	-10.054
▁leaves	-10.0541
▁archive	-10.0545
▁stack	-10.055
▁gold	-10.0553
ng	-10.0555
▁photo	-10.0562
▁gone	-10.0565
▁weather	-10.0569
▁claim	-10.0572
▁advantage	-10.0574
ler	-10.0574
▁visual	-10.0577
▁East	-10.0578
▁stories	-10.0581
Add	-10.0584
▁ensuring	-10.0591
▁offered	-10.0606
▁component	-10.0606
▁Only	-10.0613
spec	-10.0624
▁Home	-10.0629
▁Net	-10.0635
▁attributes	-10.0635
form	-10.0646
▁commercial	-10.0647
ability	-10.0653
▁policies	-10.0654
▁High	-10.0656
Use	-10.0658
▁drop	-10.0665
▁spring	-10.0671
▁monitor	-10.0672
▁players	-10.0677
▁Great	-10.0685
gh	-10.0688
▁binary	-10.069
▁playing	-10.069
sub	-10.0697
▁presented	-10.0699
color	-10.0701
▁billion	-10.0701
▁spent	-10.0705
ms	-10.0708
▁finally	-10.0716
▁Pre	-10.0721
left	-10.0722
▁o	-10.0725
▁October	-10.0726
username	-10.0733
▁trace	-10.0734
▁finding	-10.0737
state	-10.0738
▁concerns	-10.0744
▁advanced	-10.075
▁David	-10.075
box	-10.0754
▁AND	-10.0755
▁combination	-10.0756
▁heavy	-10.0757
▁Africa	-10.076
▁forces	-10.0763
ga	-10.0765
▁December	-10.0771
▁Added	-10.0779
▁born	-10.0791
▁fail	-10.0797
▁examples	-10.08
▁Group	-10.0805
node	-10.0805
ni	-10.081
▁engine	-10.0817
▁blocks	-10.0822
▁rise	-10.0823
po	-10.0827
▁specifically	-10.0835
ab	-10.0846
▁strategy	-10.0849
▁Their	-10.0855
ice	-10.0859
▁chain	-10.0866
fd	-10.0869
▁met	-10.087
▁Christ	-10.0882
▁Manual	-10.0884
▁const	-10.0899
▁teeth	-10.09
ru	-10.0902
▁&&	-10.0905
count	-10.0905
▁login	-10.0909
{\	-10.0917
▁aware	-10.0921
▁doctor	-10.0929
▁scientific	-10.0932
▁updated	-10.0945
ible	-10.096
▁Paul	-10.096
ions	-10.0962
▁lib	-10.097
▁discussion	-10.0971
Data	-10.0997
self	-10.1
▁showed	-10.1001
Open	-10.101
les	-10.101
▁official	-10.1013
▁supports	-10.1024
struct	-10.1026
▁advice	-10.1028
ina	-10.1037
since	-10.1048
▁Red	-10.1053
▁released	-10.1061
▁occurs	-10.1061
▁Mac	-10.1063
▁differences	-10.1071
▁item	-10.1073
▁tag	-10.1074
▁carried	-10.1077
▁Web	-10.1079
down	-10.1088
▁Indian	-10.1096
▁cat	-10.1104
▁College	-10.1107
dd	-10.1107
▁explain	-10.1107
▁carry	-10.1114
▁indicate	-10.1119
▁Service	-10.1124
▁nice	-10.1125
▁reached	-10.1127
▁Make	-10.113
password	-10.1131
va	-10.1138
▁river	-10.1142
▁Check	-10.1149
ana	-10.1152
──────────────	-10.1156
init	-10.1161
▁mobile	-10.1164
show	-10.1169
▁experienced	-10.117
▁spaces	-10.1173
pa	-10.1176
oc	-10.1179
▁extract	-10.1179
ble	-10.118
▁comments	-10.1188
▁obtain	-10.1195
▁floor	-10.1197
▁independent	-10.1199
well	-10.1201
▁IPv	-10.1233
▁represent	-10.1237
▁seeking	-10.1237
▁net	-10.1237
▁whatever	-10.1238
ig	-10.1239
)](	-10.1239
▁completed	-10.1241
▁Therefore	-10.1245
▁valuable	-10.1245
▁foreign	-10.125
▁definition	-10.1251
▁happened	-10.1257
▁solid	-10.126
▁History	-10.1265
▁reduced	-10.1268
▁ideal	-10.1272
▁decisions	-10.1272
▁square	-10.1273
▁Bo	-10.1274
mount	-10.1277
▁route	-10.1278
lin	-10.1282
▁depends	-10.1283
▁foods	-10.1284
▁indeed	-10.129
▁wood	-10.1294
▁therapy	-10.1296
▁Canada	-10.13
▁contribute	-10.1304
▁packet	-10.1304
▁accept	-10.1309
▁resolution	-10.1312
▁push	-10.1319
▁hundred	-10.1325
▁pieces	-10.1327
lu	-10.1331
js	-10.1334
▁touch	-10.1336
space	-10.1337
ative	-10.1338
▁ex	-10.1342
▁educational	-10.1342
▁Church	-10.1344
work	-10.1348
▁fair	-10.1353
▁warning	-10.1354
Check	-10.1354
▁El	-10.1355
▁sudo	-10.1357
▁POSIX	-10.1361
▁aspect	-10.1364
▁w	-10.137
case	-10.1376
▁frame	-10.138
md	-10.1386
public	-10.1387
part	-10.1388
stat	-10.1389
▁filename	-10.1398
▁Git	-10.1405
ee	-10.141
▁scientists	-10.141
▁nation	-10.141
▁join	-10.1413
device	-10.1418
▁enables	-10.1419
iv	-10.1419
Id	-10.1429
▁die	-10.143
▁configured	-10.144
▁diverse	-10.1448
▁minimum	-10.1451
▁formed	-10.1455
▁served	-10.1458
▁James	-10.146
▁Mo	-10.1461
▁mark	-10.1463
more	-10.1464
▁observed	-10.1465
▁laws	-10.1477
▁classes	-10.1482
▁vision	-10.1484
▁clearly	-10.1484
auto	-10.1485
▁federal	-10.1485
▁mid	-10.1491
▁keeping	-10.1498
▁menu	-10.1498
board	-10.1499
▁win	-10.15
ap	-10.15
▁treat	-10.1501
▁dynamic	-10.1505
▁mouth	-10.1506
▁determined	-10.1509
ka	-10.1509
▁soft	-10.1515
▁Education	-10.1518
▁Chinese	-10.1519
▁White	-10.152
RE	-10.1521
▁paid	-10.1531
tree	-10.1531
display	-10.1531
▁structures	-10.1532
▁ignored	-10.1541
▁extended	-10.1548
▁efficiency	-10.1549
▁Using	-10.1553
▁documents	-10.1555
▁wild	-10.1555
how	-10.1562
▁id	-10.1562
▁African	-10.1568
▁king	-10.1569
▁People	-10.1575
▁creation	-10.1584
▁onto	-10.1591
▁spend	-10.1594
▁Key	-10.1595
ron	-10.1613
></	-10.1614
mu	-10.1614
▁closed	-10.162
▁college	-10.1624
▁exposure	-10.1624
▁February	-10.1627
▁detailed	-10.1627
▁glass	-10.1628
▁capabilities	-10.1633
▁Both	-10.1636
)$	-10.1637
▁truly	-10.1643
▁leaders	-10.1643
▁pick	-10.1654
▁identified	-10.1654
▁technical	-10.166
From	-10.1663
di	-10.1663
▁Data	-10.1666
▁micro	-10.1669
▁purposes	-10.1669
▁principles	-10.1672
▁sales	-10.1674
rt	-10.1679
▁bank	-10.168
▁press	-10.1682
post	-10.1683
▁upper	-10.1684
▁recommend	-10.1685
ft	-10.1702
ure	-10.1705
▁warm	-10.1728
▁teacher	-10.173
▁covered	-10.1743
▁discovered	-10.1746
▁String	-10.1746
ier	-10.1748
▁Furthermore	-10.1753
▁technologies	-10.1758
ey	-10.1763
▁Ra	-10.1763
util	-10.1766
▁Christian	-10.1766
▁stock	-10.1767
rate	-10.1769
▁seven	-10.1783
▁successfully	-10.179
▁Na	-10.179
▁sector	-10.1801
▁Water	-10.1805
▁pull	-10.1806
▁merge	-10.1806
SEE	-10.1808
▁fuel	-10.1812
▁baby	-10.1812
void	-10.1816
▁fill	-10.1821
ber	-10.1828
▁metadata	-10.183
";	-10.1832
▁Control	-10.1835
core	-10.1846
▁Washington	-10.1848
ze	-10.1851
Now	-10.1853
▁matches	-10.1854
ging	-10.1854
ham	-10.1864
▁played	-10.1871
▁vital	-10.1871
▁maintaining	-10.1875
options	-10.1876
▁destination	-10.1879
ssh	-10.1882
▁Step	-10.1885
▁peace	-10.189
▁income	-10.189
▁echo	-10.1898
▁treated	-10.1898
▁reality	-10.1902
▁lay	-10.1902
▁y	-10.1905
▁sugar	-10.1909
▁Journal	-10.1911
▁efficient	-10.1916
▁faster	-10.1918
▁Over	-10.1923
lan	-10.1926
▁acid	-10.1927
▁leaving	-10.1934
▁infection	-10.1942
▁Union	-10.1947
▁broken	-10.1951
▁famous	-10.1953
▁provider	-10.1954
▁sharing	-10.1957
▁favorite	-10.1965
▁thin	-10.197
wa	-10.197
▁utility	-10.1975
▁Instead	-10.1977
▁permissions	-10.1979
▁drug	-10.1979
▁pool	-10.1986
▁pair	-10.1987
ran	-10.1997
▁severe	-10.2006
▁symbol	-10.2012
message	-10.2015
▁learned	-10.2018
▁notes	-10.2019
ti	-10.202
▁starts	-10.2025
▁north	-10.2026
▁Li	-10.203
▁apt	-10.2034
▁suitable	-10.2037
▁Government	-10.2039
▁kill	-10.2045
▁girl	-10.205
▁secret	-10.2052
▁extremely	-10.2053
update	-10.2059
▁player	-10.2069
▁maybe	-10.2072
▁Council	-10.2074
▁Read	-10.2075
▁conflict	-10.2075
▁bio	-10.2076
▁Well	-10.2076
▁agree	-10.2083
▁sum	-10.2088
▁risks	-10.2088
▁str	-10.2091
▁battle	-10.2096
▁Art	-10.2099
▁Law	-10.2106
▁blog	-10.2108
US	-10.2109
ang	-10.2109
▁NULL	-10.2113
▁yes	-10.2119
▁economy	-10.2125
▁surrounding	-10.2129
▁$(	-10.2135
▁managed	-10.2172
▁purchase	-10.2177
];	-10.2178
▁eight	-10.2179
▁metal	-10.2186
▁jobs	-10.2189
▁faith	-10.2193
light	-10.2194
▁separated	-10.2198
▁meant	-10.2202
▁DNS	-10.2207
▁guess	-10.2218
style	-10.2221
▁Press	-10.2221
▁south	-10.2226
▁combined	-10.2231
▁Public	-10.2231
▁wasn	-10.2232
•	-10.2243
▁improved	-10.2247
▁birth	-10.2253
▁packets	-10.226
write	-10.2261
▁updates	-10.2265
▁Thanks	-10.2267
gar	-10.2271
▁driving	-10.2272
▁William	-10.2279
▁`/	-10.2282
▁offset	-10.2292
▁cool	-10.2293
▁button	-10.2293
They	-10.2299
master	-10.2302
om	-10.2305
▁discuss	-10.2307
▁normally	-10.2308
▁stuff	-10.2315
Note	-10.2318
▁reducing	-10.2318
▁entirely	-10.2319
▁setup	-10.2321
▁describe	-10.2328
▁linked	-10.2328
▁tend	-10.2328
▁cycle	-10.2329
▁solve	-10.2332
▁signs	-10.2341
ward	-10.2345
au	-10.2345
▁query	-10.2347
▁Such	-10.2347
▁height	-10.2349
▁academic	-10.2349
▁salt	-10.2355
uk	-10.2362
▁eating	-10.2373
▁...}}	-10.2375
Test	-10.2376
▁paths	-10.2382
▁ball	-10.2387
▁frequently	-10.2387
▁helped	-10.2391
▁bits	-10.2395
json	-10.2396
def	-10.2397
▁majority	-10.2398
▁Inc	-10.2398
▁evening	-10.2406
▁investment	-10.2406
ator	-10.2407
where	-10.2408
▁Are	-10.2412
▁introduced	-10.2412
num	-10.2413
▁draw	-10.2415
▁latter	-10.2418
":	-10.2422
page	-10.2423
▁disabled	-10.2423
▁h	-10.2427
▁George	-10.2432
▁raw	-10.2434
error	-10.2441
));	-10.2444
▁resistance	-10.2451
▁raised	-10.2453
▁star	-10.2457
▁maintenance	-10.2458
▁appeared	-10.2459
▁thousands	-10.2462
▁police	-10.2467
▁commonly	-10.2467
▁runs	-10.2473
▁printed	-10.2474
▁parties	-10.2477
AL	-10.2483
▁counter	-10.2486
▁interactive	-10.2491
▁label	-10.2493
Yes	-10.2499
NO	-10.2501
▁circumstances	-10.2511
char	-10.2515
br	-10.2518
▁potentially	-10.2521
▁extent	-10.2522
ger	-10.2537
ER	-10.2541
art	-10.2542
ised	-10.2542
▁audio	-10.2544
res	-10.255
DIR	-10.255
▁random	-10.2559
vo	-10.2567
▁becoming	-10.2568
▁practical	-10.2576
▁fight	-10.2586
▁identity	-10.2592
▁prepared	-10.2593
▁Australia	-10.2595
▁displayed	-10.2605
▁Project	-10.2605
▁humans	-10.2608
▁iron	-10.2616
▁chemical	-10.2622
▁Two	-10.2623
▁Show	-10.2626
▁ice	-10.2629
dis	-10.263
▁diseases	-10.263
▁glibc	-10.2631
▁di	-10.2632
▁Green	-10.2632
▁despite	-10.2639
had	-10.2639
label	-10.264
Specify	-10.264
room	-10.2641
▁thanks	-10.2644
▁regions	-10.2646
▁mostly	-10.2648
▁Se	-10.2663
▁helping	-10.2664
▁Association	-10.2673
directories	-10.2683
▁talking	-10.2688
▁!=	-10.2691
▁hidden	-10.2692
▁attribute	-10.2698
▁creative	-10.2706
Here	-10.2709
▁protein	-10.2716
▁filled	-10.2717
▁colors	-10.2729
▁exact	-10.2741
▁opinion	-10.2743
▁engage	-10.275
▁contrast	-10.2751
scale	-10.2754
book	-10.2759
▁represents	-10.276
▁cities	-10.2764
▁monitoring	-10.2765
pe	-10.2768
▁Mrs	-10.2774
eg	-10.2777
▁lived	-10.2778
pages	-10.2779
▁fruit	-10.2781
profile	-10.2783
▁capable	-10.2783
°	-10.2784
▁priority	-10.2784
After	-10.2786
▁offering	-10.2786
▁interests	-10.2793
▁marked	-10.2794
IN	-10.2794
che	-10.2795
tra	-10.2796
cy	-10.2797
ya	-10.2797
▁laptop	-10.2798
cmd	-10.2798
▁u	-10.2799
▁Part	-10.2802
▁garden	-10.2803
ba	-10.2804
▁adults	-10.2805
▁Foundation	-10.2807
▁architecture	-10.2809
▁Germany	-10.2811
▁referred	-10.2811
▁spirit	-10.2813
▁lose	-10.2816
LE	-10.2818
▁indicates	-10.2818
▁lock	-10.2822
▁killed	-10.2825
▁browser	-10.2835
▁loop	-10.2845
bi	-10.2848
▁refers	-10.285
cc	-10.2855
▁backup	-10.2856
▁insights	-10.2861
cache	-10.2861
▁Wi	-10.2888
▁campaign	-10.2894
▁battery	-10.2897
▁Air	-10.2903
▁consumption	-10.2907
istic	-10.2909
▁daemon	-10.2912
▁desktop	-10.2916
▁promote	-10.2919
▁EVP	-10.2921
▁desired	-10.2923
▁algorithm	-10.2928
mi	-10.2933
▁disable	-10.2937
printf	-10.2942
▁labor	-10.2944
ile	-10.2945
▁dedicated	-10.2953
▁accepted	-10.296
force	-10.2964
▁eventually	-10.2964
▁rock	-10.2967
▁debug	-10.2967
Linux	-10.2974
▁employees	-10.2979
▁drivers	-10.2987
pass	-10.2994
▁professionals	-10.2995
project	-10.2995
▁exchange	-10.3
▁participants	-10.3001
▁seek	-10.3009
▁consistent	-10.301
▁Power	-10.3013
IP	-10.3013
▁executed	-10.3016
delete	-10.3023
▁ip	-10.3026
(\	-10.3029
ext	-10.303
nge	-10.3031
▁Time	-10.3035
▁edit	-10.3037
ants	-10.3039
Key	-10.3045
▁Vi	-10.3047
▁commitment	-10.3047
These	-10.3049
▁leads	-10.305
address	-10.3062
▁familiar	-10.3068
▁informed	-10.3068
▁freedom	-10.3077
▁ahead	-10.3078
▁namespace	-10.3085
▁escape	-10.3087
▁relatively	-10.3089
▁Di	-10.3095
nt	-10.3096
▁Through	-10.3098
▁refer	-10.3103
▁ran	-10.3104
uri	-10.3107
▁correctly	-10.3109
───────────────	-10.3112
▁appearance	-10.3112
▁vehicle	-10.3113
▁slightly	-10.3114
▁Post	-10.3117
▁openssl	-10.3118
▁continues	-10.3119
▁Good	-10.3123
▁audience	-10.3125
▁trip	-10.3127
▁approximately	-10.3127
build	-10.3128
ning	-10.3134
▁teams	-10.314
▁pp	-10.3142
non	-10.3148
▁female	-10.3154
SOURCE	-10.3155
New	-10.3156
▁waiting	-10.3159
▁requests	-10.316
▁API	-10.3166
▁letters	-10.3166
▁institutions	-10.3167
▁shot	-10.3168
▁platforms	-10.317
begin	-10.3175
OS	-10.3179
▁emotional	-10.3184
▁boy	-10.3189
▁obtained	-10.3189
▁specifies	-10.3191
▁motion	-10.3195
▁repair	-10.3198
▁Ho	-10.3199
▁aren	-10.32
▁Mark	-10.3201
▁rm	-10.3205
▁phase	-10.3209
▁landscape	-10.322
▁rare	-10.3222
▁spot	-10.3228
▁networks	-10.3231
See	-10.3234
FILE	-10.3235
ide	-10.3236
▁accurate	-10.324
▁Society	-10.3246
▁helpful	-10.3246
▁radio	-10.3253
▁advance	-10.3256
▁sweet	-10.3261
sha	-10.3276
▁recovery	-10.3277
▁MS	-10.3278
▁statistics	-10.3285
▁Ko	-10.3291
bb	-10.3293
ably	-10.3294
▁fell	-10.3295
ai	-10.3301
▁prompt	-10.3301
▁detail	-10.3308
attr	-10.3314
▁seeing	-10.3318
share	-10.3328
▁Create	-10.3329
▁chosen	-10.3336
▁chapter	-10.3347
▁TV	-10.3359
▁bus	-10.3359
any	-10.336
▁fat	-10.3361
pt	-10.3365
PS	-10.3366
▁Street	-10.337
mail	-10.3378
▁causing	-10.3383
▁cloud	-10.3393
yes	-10.3394
▁split	-10.3396
install	-10.3397
▁underlying	-10.3402
Error	-10.3402
▁Ar	-10.3403
▁asking	-10.3406
▁annual	-10.3411
▁medium	-10.3416
▁focused	-10.3417
▁sounds	-10.3418
▁suggests	-10.3422
▁Test	-10.3434
az	-10.3437
▁serves	-10.3439
event	-10.3443
ec	-10.3445
▁mission	-10.3453
▁define	-10.3454
▁transport	-10.3457
▁prices	-10.3458
▁camera	-10.3459
▁import	-10.3469
ld	-10.3475
▁wear	-10.3478
▁assume	-10.3478
ctx	-10.348
▁insurance	-10.348
▁Will	-10.3484
FS	-10.3487
$.	-10.3489
▁conduct	-10.3493
▁sp	-10.3495
▁edge	-10.3498
▁descriptor	-10.35
▁Roman	-10.3505
▁ship	-10.3506
▁Microsoft	-10.3507
such	-10.3508
ph	-10.3515
She	-10.3518
▁Life	-10.3528
hi	-10.3529
▁sight	-10.353
▁leader	-10.3533
▁Like	-10.3534
▁explanation	-10.3539
▁Pa	-10.3539
▁sed	-10.3552
▁prefer	-10.3553
ius	-10.3557
▁Robert	-10.3559
▁integer	-10.3561
▁struct	-10.3565
Of	-10.3568
▁occurred	-10.3569
▁band	-10.3572
block	-10.3573
▁responsibility	-10.3574
▁Add	-10.3578
▁milk	-10.3581
▁speech	-10.3586
▁attached	-10.3587
▁ssh	-10.3589
▁Before	-10.3596
▁increases	-10.3596
du	-10.3599
Thanks	-10.3602
▁assistance	-10.3605
▁healthcare	-10.3606
apt	-10.3607
filter	-10.3611
kernel	-10.3614
▁j	-10.3616
DBus	-10.3624
▁husband	-10.3627
▁till	-10.363
length	-10.3633
▁conducted	-10.3633
▁views	-10.364
ung	-10.364
▁depth	-10.3649
▁finished	-10.365
▁Sun	-10.3654
mar	-10.3661
▁budget	-10.3665
▁channel	-10.3669
low	-10.367
▁recorded	-10.3674
▁upgrade	-10.3674
have	-10.3674
files	-10.3676
▁Ma	-10.3677
define	-10.368
▁visible	-10.3681
▁optional	-10.3685
ver	-10.3686
▁HTML	-10.3693
▁genetic	-10.3693
▁convert	-10.3696
graph	-10.3696
diff	-10.3697
▁plus	-10.3713
▁injury	-10.3713
av	-10.3714
▁president	-10.3715
▁recognized	-10.372
▁answers	-10.372
▁Human	-10.3723
▁bed	-10.3726
▁firm	-10.3726
/>.	-10.3727
fer	-10.3731
Delete	-10.3734
▁impossible	-10.3735
▁Sea	-10.3736
debug	-10.3737
gnu	-10.3739
▁trouble	-10.3739
▁scene	-10.3743
▁creates	-10.3743
▁domestic	-10.3746
▁instruction	-10.3746
▁straight	-10.3748
={{	-10.3748
▁capture	-10.3752
▁song	-10.3756
▁dependencies	-10.3756
web	-10.3763
▁clock	-10.3763
▁origin	-10.3773
copy	-10.3774
▁fellow	-10.3775
▁remaining	-10.3777
▁collaboration	-10.3777
▁Office	-10.3785
▁sustainable	-10.3787
▁byte	-10.3789
han	-10.3789
▁dangerous	-10.3789
▁enhance	-10.3792
▁Ka	-10.3793
▁detect	-10.3794
▁frequency	-10.3794
Path	-10.3796
IO	-10.3797
▁neither	-10.3799
▁beauty	-10.3809
dump	-10.381
▁hearing	-10.3811
▁twice	-10.3811
cert	-10.3822
▁possibly	-10.3828
▁mis	-10.3842
▁Western	-10.3844
ological	-10.3846
▁Sa	-10.3856
▁sufficient	-10.3858
▁catch	-10.3858
null	-10.3859
▁apart	-10.386
▁meat	-10.3862
▁arms	-10.3865
▁List	-10.3869
▁Island	-10.3871
▁URL	-10.3872
▁infrastructure	-10.3873
`)	-10.3873
OR	-10.3877
range	-10.3885
Generate	-10.3886
▁authority	-10.3888
▁parallel	-10.3889
:**	-10.3895
▁machines	-10.3907
▁bug	-10.3911
kin	-10.3911
env	-10.3914
▁Development	-10.3915
▁execute	-10.3917
que	-10.3919
place	-10.392
▁clinical	-10.3921
tool	-10.3923
▁expansion	-10.3926
▁ultimately	-10.3926
▁Am	-10.3945
▁competition	-10.3947
px	-10.395
▁tab	-10.3951
after	-10.3951
Value	-10.3954
ped	-10.3955
Un	-10.3959
▁respond	-10.396
▁Sir	-10.396
▁Every	-10.3963
▁believed	-10.3964
▁usual	-10.3966
▁saved	-10.3967
▁forest	-10.3971
Update	-10.3973
▁mine	-10.3977
▁couldn	-10.3977
mod	-10.3978
Why	-10.3983
▁medicine	-10.3988
cap	-10.3989
load	-10.3992
▁portion	-10.3996
ray	-10.3997
cd	-10.4003
mac	-10.4003
▁perspective	-10.4003
▁proposed	-10.4004
▁Museum	-10.4008
lic	-10.401
▁managing	-10.4011
▁standing	-10.402
▁experts	-10.4024
▁wants	-10.4027
▁plays	-10.403
▁loved	-10.403
▁army	-10.403
▁religion	-10.4033
▁increasingly	-10.4037
cal	-10.4041
Not	-10.4045
pro	-10.4054
cl	-10.4057
▁Japanese	-10.406
▁Greek	-10.4061
▁entered	-10.4061
▁engagement	-10.4062
fa	-10.4066
▁lies	-10.4067
Property	-10.4069
▁unknown	-10.4069
▁width	-10.4074
▁arm	-10.4077
▁'*.	-10.4082
opt	-10.4084
▁thousand	-10.4085
xml	-10.4091
▁Ta	-10.4094
Read	-10.4096
▁protected	-10.4096
ud	-10.4117
MS	-10.4127
▁bodies	-10.4128
▁plain	-10.4128
▁mail	-10.4131
▁brother	-10.4133
▁respectively	-10.4133
▁Management	-10.4137
▁thoughts	-10.4141
domain	-10.4145
▁herself	-10.4147
▁amazing	-10.4149
▁raise	-10.415
wood	-10.4153
unit	-10.4158
▁passing	-10.416
▁drink	-10.416
▁partner	-10.4161
▁prove	-10.4164
store	-10.4165
▁carefully	-10.4171
▁execution	-10.4173
▁anxiety	-10.4183
![](	-10.4185
Object	-10.4186
▁voltage	-10.4187
boot	-10.4187
▁prefix	-10.419
▁Network	-10.4193
▁taste	-10.4199
▁wouldn	-10.4199
▁sold	-10.4208
▁sports	-10.421
Install	-10.4219
reference	-10.4225
▁implement	-10.4225
ov	-10.4228
▁proof	-10.4229
▁comprehensive	-10.423
▁Bank	-10.4231
ja	-10.4235
▁ongoing	-10.4236
remote	-10.4238
▁leadership	-10.4239
▁Where	-10.4241
▁deliver	-10.4241
Our	-10.4245
making	-10.425
▁ourselves	-10.4251
▁decades	-10.4252
▁register	-10.4252
▁approaches	-10.4253
▁topics	-10.4259
▁prepare	-10.4265
▁drugs	-10.4266
client	-10.4268
▁consists	-10.4268
water	-10.4269
▁License	-10.4271
▁delivery	-10.4271
▁listen	-10.4271
▁manufacturing	-10.4272
▁accounts	-10.4272
▁minute	-10.4273
▁male	-10.4274
other	-10.4275
docker	-10.4282
▁horse	-10.4284
▁branches	-10.4288
related	-10.4292
▁flat	-10.4294
▁reset	-10.43
▁suggested	-10.4302
▁File	-10.4304
▁outcomes	-10.431
hu	-10.431
▁sat	-10.4312
▁signed	-10.4314
▁tested	-10.4316
▁font	-10.4317
▁bridge	-10.4318
▁shift	-10.4319
$$	-10.4319
▁dance	-10.432
ned	-10.432
▁stood	-10.4324
AS	-10.4332
▁articles	-10.4334
change	-10.4337
specific	-10.4337
▁comfort	-10.4338
▁DNA	-10.4339
ho	-10.4342
▁considering	-10.4344
▁industrial	-10.4348
car	-10.435
msg	-10.4351
▁daughter	-10.4353
▁atmosphere	-10.4354
▁zone	-10.4355
AC	-10.4358
▁teach	-10.4359
function	-10.4362
▁Today	-10.4369
▁replaced	-10.4371
▁servers	-10.4375
▁editor	-10.4377
▁justice	-10.4378
▁Library	-10.4381
ell	-10.4382
▁launch	-10.4382
main	-10.4382
▁im	-10.4384
▁implemented	-10.4384
ney	-10.4385
▁hash	-10.4387
▁noise	-10.4387
pp	-10.439
▁Congress	-10.4393
aws	-10.4393
▁situations	-10.4394
king	-10.4398
network	-10.4399
▁violence	-10.44
▁symbolic	-10.4403
▁novel	-10.4403
ek	-10.4403
▁birds	-10.4404
▁dogs	-10.4406
▁Japan	-10.4406
▁Israel	-10.4407
▁agent	-10.4408
▁explained	-10.4416
▁absolute	-10.4425
▁journal	-10.4427
▁Peter	-10.4427
▁begins	-10.4428
▁Whether	-10.443
▁chief	-10.4432
▁feed	-10.4433
▁abuse	-10.4435
▁concern	-10.4444
▁diff	-10.445
▁cast	-10.4452
▁Take	-10.4455
▁bound	-10.4458
▁challenging	-10.4458
▁Americans	-10.4464
▁tail	-10.4465
▁mention	-10.4466
par	-10.4468
▁Bay	-10.447
▁languages	-10.4472
nu	-10.4476
▁restore	-10.4478
▁closely	-10.4479
▁CA	-10.4479
▁spiritual	-10.4483
▁characteristics	-10.4485
query	-10.4487
src	-10.4491
▁awareness	-10.4491
▁motor	-10.4491
▁mask	-10.4496
col	-10.4497
▁expensive	-10.4498
▁conversation	-10.4502
▁train	-10.4503
▁row	-10.4504
view	-10.4505
▁ring	-10.4505
▁transition	-10.4506
▁planet	-10.4512
▁director	-10.4512
▁pipe	-10.4514
▁Services	-10.4516
▁citizens	-10.4517
▁GNU	-10.4518
▁bacteria	-10.4522
▁harm	-10.4523
▁procedure	-10.4523
▁sell	-10.4525
▁ls	-10.4529
▁pointer	-10.4529
▁Who	-10.4533
raw	-10.4533
▁strings	-10.4533
▁careful	-10.4537
▁degrees	-10.4539
ko	-10.4541
▁stone	-10.4543
gz	-10.4544
▁syntax	-10.4546
IS	-10.4552
sa	-10.4553
▁corner	-10.4558
▁limits	-10.4562
ker	-10.4563
using	-10.4565
java	-10.4571
trace	-10.4573
▁stated	-10.4575
▁literature	-10.4575
width	-10.4575
▁Hu	-10.458
▁En	-10.4584
▁greatest	-10.4587
sec	-10.4594
filename	-10.4595
▁tr	-10.46
ever	-10.4616
ified	-10.4617
ries	-10.4625
▁Bar	-10.4628
▁establish	-10.463
ach	-10.4633
▁girls	-10.4637
▁unable	-10.4641
▁closer	-10.4658
▁plastic	-10.466
▁gender	-10.466
ck	-10.4661
Can	-10.4663
ny	-10.4664
▁speaking	-10.4667
Some	-10.4667
▁confidence	-10.4669
▁noted	-10.4672
▁__	-10.4673
▁technique	-10.4675
▁conversion	-10.4682
▁reflect	-10.4684
power	-10.4688
SE	-10.4689
▁User	-10.4689
▁virus	-10.469
▁discover	-10.4694
▁locations	-10.4695
▁wonder	-10.4695
▁claims	-10.4699
status	-10.4701
▁tissue	-10.4703
▁forget	-10.4716
▁island	-10.4725
▁dream	-10.4729
▁supporting	-10.4734
▁recognize	-10.4737
▁Book	-10.474
▁snow	-10.4742
While	-10.4745
▁emergency	-10.4751
▁Yes	-10.4757
ins	-10.4757
don	-10.476
▁Russian	-10.4762
▁signals	-10.4762
title	-10.4762
▁broad	-10.4764
▁skill	-10.477
▁cards	-10.477
▁Lo	-10.4771
▁encourage	-10.4777
▁regardless	-10.4779
▁stopped	-10.478
make	-10.4783
lang	-10.4785
▁console	-10.4787
▁environments	-10.479
▁Report	-10.4791
order	-10.4797
▁merely	-10.4799
▁accessible	-10.4802
▁Su	-10.4808
ST	-10.4811
▁extreme	-10.4815
▁holds	-10.482
▁href	-10.482
▁Texas	-10.4821
when	-10.4821
▁contract	-10.4823
ib	-10.4827
edit	-10.4829
▁civil	-10.4831
▁chronic	-10.4833
▁Company	-10.4834
oo	-10.4848
▁mounted	-10.485
▁bear	-10.4857
▁marriage	-10.4858
▁innovative	-10.486
▁committed	-10.4861
▁smooth	-10.4863
sp	-10.4866
▁cutting	-10.4869
▁pictures	-10.4874
▁router	-10.4876
▁comfortable	-10.4876
ious	-10.4879
▁feedback	-10.488
mit	-10.4882
ok	-10.4884
she	-10.4888
▁Miss	-10.4895
▁attacks	-10.4897
eth	-10.4898
▁mix	-10.49
▁Ben	-10.4907
De	-10.4909
▁Har	-10.4911
▁seed	-10.4911
▁aid	-10.4916
pl	-10.4917
npm	-10.4918
▁Finally	-10.4918
▁vast	-10.4923
▁receiving	-10.4925
they	-10.4928
▁diabetes	-10.4928
call	-10.4936
▁survey	-10.4937
▁category	-10.4938
Change	-10.494
▁facilities	-10.4942
▁formula	-10.4943
▁Ni	-10.4958
▁consumers	-10.4959
▁ignore	-10.496
▁Mary	-10.4965
▁Social	-10.4967
first	-10.4973
▁existence	-10.4987
Be	-10.4989
ery	-10.499
▁tells	-10.4994
▁Thomas	-10.5003
ations	-10.5007
▁compare	-10.501
▁SSL	-10.501
▁boat	-10.5015
remove	-10.5026
▁consequences	-10.5032
TS	-10.5036
▁Smith	-10.5038
Le	-10.504
▁rose	-10.5044
▁stable	-10.5044
▁foo	-10.5045
tz	-10.5045
ug	-10.5046
pkg	-10.5048
▁Manager	-10.5049
▁immune	-10.505
yl	-10.5051
ware	-10.5053
▁lots	-10.5053
▁wave	-10.5053
▁findings	-10.5054
ville	-10.5059
▁funding	-10.5065
lv	-10.5071
disk	-10.5073
ea	-10.5074
ot	-10.5075
▁plugin	-10.5078
▁widely	-10.5078
▁expert	-10.508
▁Old	-10.5081
▁urban	-10.5088
▁controlled	-10.5089
▁forced	-10.5092
▁Information	-10.5094
▁export	-10.5096
▁license	-10.5097
▁camp	-10.5098
fi	-10.5103
ui	-10.5103
▁worse	-10.5109
who	-10.5115
▁Fa	-10.5116
▁providers	-10.5116
▁exposed	-10.5116
▁holding	-10.5118
▁desire	-10.5119
▁expand	-10.5123
▁evaluation	-10.5124
▁explicitly	-10.5128
▁Program	-10.5133
▁IN	-10.5134
▁emissions	-10.5136
vm	-10.5136
▁mainly	-10.514
▁examine	-10.514
ments	-10.5141
▁Those	-10.5142
ev	-10.5143
questions	-10.5145
EN	-10.5148
▁tips	-10.515
what	-10.5152
▁News	-10.516
kill	-10.5162
addr	-10.5164
▁temporary	-10.5165
cu	-10.5168
▁z	-10.5169
there	-10.5171
▁decide	-10.5173
▁assigned	-10.5178
▁Sunday	-10.5178
▁primarily	-10.5179
▁twenty	-10.518
▁scan	-10.5181
ow	-10.5185
▁max	-10.519
▁tar	-10.519
▁executable	-10.5196
▁fundamental	-10.5198
api	-10.52
▁breast	-10.5202
object	-10.5203
▁keyboard	-10.5203
▁Po	-10.5205
▁street	-10.5208
▁bright	-10.5209
IC	-10.5211
▁App	-10.5214
▁electric	-10.5215
▁drawing	-10.5216
▁procedures	-10.5219
▁modify	-10.5222
▁cent	-10.5224
▁Central	-10.5225
▁trans	-10.5225
▁appeal	-10.5226
▁expressed	-10.5236
▁choices	-10.5237
ue	-10.5238
▁functionality	-10.5238
▁debt	-10.5242
Then	-10.5244
Count	-10.5245
▁representation	-10.5254
▁tea	-10.5258
ens	-10.5265
▁fan	-10.5265
▁…	-10.5267
▁sexual	-10.5267
chi	-10.5271
true	-10.5276
▁sit	-10.5278
▁mechanism	-10.5279
▁announced	-10.5285
▁haven	-10.5285
▁Food	-10.5287
▁homes	-10.5287
▁score	-10.5287
ong	-10.5292
ification	-10.5293
▁criminal	-10.5302
▁rapidly	-10.5315
exe	-10.5315
position	-10.5317
▁wonderful	-10.5319
▁adult	-10.5323
▁electricity	-10.5323
▁disorder	-10.5324
▁suffer	-10.5324
▁administration	-10.533
▁Does	-10.5335
▁Paris	-10.5335
▁coast	-10.5336
▁Spanish	-10.5344
▁putting	-10.5345
CA	-10.5354
▁sending	-10.5359
▁authentication	-10.5365
ical	-10.5366
▁delay	-10.5369
However	-10.5371
uc	-10.5372
▁soul	-10.5372
▁PDF	-10.5372
Well	-10.5376
▁Standard	-10.538
▁Ex	-10.5382
▁mo	-10.5382
▁engineering	-10.5383
▁math	-10.5385
life	-10.5386
▁matters	-10.5388
▁reduction	-10.5393
▁supposed	-10.54
▁remained	-10.5402
hand	-10.5405
▁intelligence	-10.5407
▁yellow	-10.5407
▁summary	-10.5407
▁collected	-10.5408
▁Yet	-10.5409
▁organic	-10.5414
pattern	-10.5415
▁HTTP	-10.5421
▁manually	-10.5422
▁Design	-10.5422
▁programming	-10.5423
mb	-10.5424
▁loaded	-10.5424
del	-10.5431
▁brief	-10.5437
▁buildings	-10.5438
▁innovation	-10.544
▁cap	-10.5442
row	-10.5445
▁smart	-10.5446
▁vs	-10.5447
▁turns	-10.5451
pack	-10.5451
▁Facebook	-10.5454
sort	-10.5458
▁Board	-10.5461
▁grade	-10.5464
▁wine	-10.5466
will	-10.5468
▁colour	-10.5468
▁officials	-10.5469
▁station	-10.5476
][	-10.5476
/**	-10.5482
▁trial	-10.5483
▁village	-10.5487
ick	-10.549
▁improvement	-10.5491
▁ends	-10.5492
▁understood	-10.5494
▁stands	-10.5498
▁Under	-10.55
Con	-10.5503
▁bill	-10.5506
▁residents	-10.5515
ford	-10.5515
PATH	-10.5519
▁typical	-10.553
▁sections	-10.5532
cr	-10.5532
software	-10.554
▁Have	-10.5544
▁assist	-10.5547
▁Director	-10.5555
ram	-10.5559
▁agreement	-10.556
body	-10.5562
▁nuclear	-10.5562
▁patch	-10.5566
▁steel	-10.5567
▁TCP	-10.5569
▁handling	-10.557
▁Business	-10.5573
▁panel	-10.5577
▁estimated	-10.5581
▁rain	-10.5585
content	-10.5586
put	-10.5587
▁Apple	-10.559
▁narrow	-10.5597
▁taught	-10.5597
▁Per	-10.5602
▁vi	-10.5604
▁distinct	-10.5606
▁photos	-10.5607
▁ISO	-10.5609
▁necessarily	-10.561
▁expertise	-10.5611
▁min	-10.5613
ox	-10.5614
▁concerned	-10.5615
▁experiment	-10.5617
▁joint	-10.5619
▁LV	-10.5622
▁reliable	-10.5626
▁posted	-10.5627
▁reader	-10.5629
▁pointed	-10.5632
▁~	-10.5639
▁Russia	-10.5645
lar	-10.5648
▁immediate	-10.5651
▁persons	-10.5654
▁engaging	-10.5655
▁contained	-10.5656
last	-10.5657
pam	-10.5657
▁scope	-10.5658
▁worldwide	-10.5658
▁minor	-10.5659
▁sensitive	-10.566
▁Michael	-10.5667
era	-10.5667
ball	-10.567
▁aim	-10.568
▁peer	-10.568
▁behaviour	-10.5685
▁requested	-10.5691
▁definitely	-10.5702
container	-10.5703
tri	-10.5705
od	-10.5719
mat	-10.5723
▁alcohol	-10.5727
▁opposite	-10.5727
mathbb	-10.573
▁extensive	-10.573
▁||	-10.5736
▁knows	-10.5744
User	-10.5747
pr	-10.5748
▁moral	-10.5753
uck	-10.5756
bash	-10.5758
▁Print	-10.5764
▁honor	-10.577
▁arrived	-10.5771
▁Com	-10.5772
▁surgery	-10.5775
▁scheme	-10.5775
win	-10.5778
▁flowers	-10.578
▁completion	-10.5781
shell	-10.5787
▁backend	-10.5787
▁Lake	-10.5789
ose	-10.579
▁Out	-10.5795
▁Master	-10.5795
▁fails	-10.5801
▁inner	-10.5806
$,	-10.5818
▁possibility	-10.5819
▁$$	-10.582
▁Dis	-10.5821
▁Asia	-10.5823
▁circuit	-10.5828
▁grown	-10.5828
▁deeper	-10.5838
▁authors	-10.5838
▁perfectly	-10.5842
▁promoting	-10.5849
▁CO	-10.5856
▁defense	-10.5858
▁concepts	-10.5859
▁passage	-10.5865
air	-10.5868
▁relations	-10.5869
▁ear	-10.5871
▁vary	-10.5871
▁sand	-10.5878
▁dump	-10.5881
▁youth	-10.5884
world	-10.5886
▁regulations	-10.5887
▁continuous	-10.5889
▁roof	-10.589
▁sides	-10.5895
site	-10.5896
▁slowly	-10.5896
▁married	-10.5897
▁Land	-10.5897
▁sheet	-10.5904
▁formation	-10.5905
▁schedule	-10.5905
MA	-10.5913
▁Number	-10.5923
▁reboot	-10.5925
▁modules	-10.5926
▁Name	-10.5932
has	-10.5936
▁assessment	-10.5937
▁hospital	-10.5937
windows	-10.5941
lim	-10.5942
▁suddenly	-10.5946
▁obvious	-10.5946
▁wealth	-10.5948
|-	-10.5949
▁discussed	-10.5949
▁queue	-10.5953
▁consumer	-10.5954
▁Server	-10.5961
▁percentage	-10.5961
▁suffering	-10.5962
▁somewhat	-10.5964
▁Ne	-10.5964
▁anywhere	-10.5967
▁plenty	-10.5971
su	-10.5973
▁Work	-10.5973
▁Du	-10.5979
err	-10.5979
▁logs	-10.5982
▁comparison	-10.5983
▁crisis	-10.5986
▁capability	-10.5986
▁Technology	-10.5989
▁registered	-10.5991
TH	-10.5994
▁dir	-10.5995
▁*.	-10.5999
▁controls	-10.6001
▁classroom	-10.6003
▁Type	-10.6004
▁strange	-10.6004
mem	-10.6006
▁consideration	-10.6006
▁issued	-10.6007
▁readers	-10.6008
▁Charles	-10.6009
▁supplied	-10.601
▁theme	-10.6012
▁facts	-10.6015
▁brown	-10.6015
▁muscle	-10.6015
microsoft	-10.6017
▁VM	-10.6018
▁knowing	-10.6019
▁cash	-10.6019
▁farm	-10.6029
▁pen	-10.6031
Your	-10.6036
verbose	-10.6038
▁resolve	-10.6039
▁columns	-10.604
ep	-10.6042
▁layout	-10.6043
▁operate	-10.6043
▁politics	-10.6043
▁lessons	-10.6045
▁rapid	-10.6047
▁Long	-10.6048
▁oxygen	-10.605
tty	-10.6051
▁border	-10.6053
ppm	-10.6053
▁centre	-10.6063
session	-10.6063
▁imagine	-10.6068
▁reverse	-10.607
▁sex	-10.6077
▁trends	-10.6081
▁feelings	-10.6085
▁Cor	-10.6092
▁pure	-10.6093
Oh	-10.6093
▁involving	-10.6093
▁du	-10.6094
▁principle	-10.6094
▁kinds	-10.6096
▁Retrieved	-10.6097
ella	-10.6101
fully	-10.6102
▁Hall	-10.6104
archive	-10.6107
▁flight	-10.6113
▁serving	-10.6115
▁struggle	-10.6116
▁meaningful	-10.6117
▁movie	-10.6122
▁park	-10.6122
())	-10.6123
▁Star	-10.6128
▁Jan	-10.6129
TA	-10.6132
▁liquid	-10.6135
quality	-10.6135
▁adds	-10.6137
▁Big	-10.6138
▁Mexico	-10.6139
▁grew	-10.614
latest	-10.6147
arch	-10.6153
cast	-10.6156
▁dental	-10.6156
▁mouse	-10.6156
phi	-10.6157
▁Python	-10.6157
▁cable	-10.6158
▁brings	-10.6159
▁Jewish	-10.6163
▁employed	-10.6165
▁artist	-10.6166
▁artists	-10.6171
ez	-10.6172
▁channels	-10.6173
branch	-10.6178
▁welcome	-10.6182
▁checking	-10.6182
▁Ver	-10.6182
GB	-10.6185
▁duty	-10.6187
▁preferred	-10.619
▁locale	-10.6193
▁Friday	-10.6194
▁classic	-10.6194
▁Brown	-10.6195
here	-10.6195
▁regularly	-10.6196
▁acts	-10.6199
▁positions	-10.6202
known	-10.6204
▁checked	-10.6205
rie	-10.6209
▁ha	-10.6209
▁caught	-10.6209
▁targets	-10.621
▁le	-10.6212
▁revealed	-10.6213
▁fashion	-10.6213
▁AI	-10.6215
option	-10.6216
▁finish	-10.6224
process	-10.6225
▁TO	-10.6227
▁listening	-10.6229
▁communicate	-10.6232
▁foundation	-10.6239
▁subjects	-10.6242
▁coffee	-10.6243
▁Lu	-10.6249
▁stores	-10.6252
▁figures	-10.6256
▁Sch	-10.6256
▁involve	-10.626
▁CD	-10.6262
▁readonly	-10.6268
▁Ad	-10.6269
Time	-10.6272
▁gene	-10.6273
qui	-10.6274
▁->	-10.6276
gi	-10.6278
▁compression	-10.628
▁Try	-10.6282
section	-10.6282
▁Display	-10.6284
▁walls	-10.6285
▁introduction	-10.6286
▁printing	-10.6286
▁spoke	-10.6287
▁cluster	-10.6293
▁integration	-10.6294
▁dropped	-10.6297
▁improving	-10.6298
▁ensures	-10.6305
▁Example	-10.6309
▁disorders	-10.631
ata	-10.6312
▁guidelines	-10.6315
zo	-10.6323
now	-10.6332
▁belief	-10.6337
false	-10.6338
▁Security	-10.6344
▁Children	-10.6346
aries	-10.6347
▁robust	-10.6357
▁checks	-10.6361
▁^	-10.6363
▁pet	-10.6364
af	-10.6366
▁subsequent	-10.6366
ast	-10.6367
uring	-10.6367
ae	-10.6368
▁dpkg	-10.6369
▁"/	-10.637
▁linear	-10.6371
reg	-10.6374
USER	-10.6375
▁enabling	-10.6375
ual	-10.6376
ssl	-10.638
▁ending	-10.6383
grep	-10.6384
▁Its	-10.6386
▁boys	-10.6388
").	-10.6388
▁Ca	-10.6388
▁roles	-10.6393
your	-10.6393
▁examination	-10.6395
isation	-10.6396
▁regional	-10.6396
▁electrical	-10.64
▁funds	-10.6403
▁exception	-10.6404
za	-10.6405
cho	-10.6406
▁cars	-10.6409
▁evolution	-10.641
▁sd	-10.641
▁partners	-10.6412
▁sessions	-10.6414
commit	-10.6417
▁Plan	-10.6418
▁laid	-10.6424
▁payment	-10.6427
google	-10.6429
▁pin	-10.6436
scan	-10.6437
▁formal	-10.6437
module	-10.6438
▁composition	-10.6439
▁applies	-10.644
▁View	-10.6442
▁Support	-10.6443
sda	-10.6444
▁interaction	-10.6448
Execute	-10.6455
sen	-10.6457
perm	-10.6461
▁def	-10.6464
▁distributed	-10.6464
lor	-10.6464
fish	-10.6467
▁graph	-10.6469
▁sale	-10.6469
▁instances	-10.6476
▁bind	-10.6479
▁computers	-10.6481
▁represented	-10.6483
▁engaged	-10.6484
ji	-10.6485
ik	-10.6486
▁dear	-10.6489
▁express	-10.6489
SS	-10.6491
ding	-10.6493
hard	-10.6493
▁collect	-10.6494
▁gift	-10.6499
play	-10.6502
▁houses	-10.6505
▁transformation	-10.6506
▁greatly	-10.6508
ify	-10.651
▁Vol	-10.6512
▁declared	-10.6514
▁framework	-10.6518
▁routine	-10.6519
zero	-10.6519
▁biggest	-10.6519
ou	-10.652
▁bigger	-10.6521
lt	-10.6525
▁Manage	-10.6529
▁mountain	-10.6532
▁illness	-10.6533
▁commits	-10.6534
▁removing	-10.6536
▁estate	-10.6539
▁breath	-10.6542
▁walking	-10.6542
▁turning	-10.6546
▁secondary	-10.6549
='	-10.655
DE	-10.6552
▁dinner	-10.6552
▁tradition	-10.6557
▁focusing	-10.6561
▁awk	-10.6566
▁boolean	-10.6566
normal	-10.6567
TO	-10.6567
▁kitchen	-10.6568
▁Christmas	-10.6571
▁markets	-10.6576
active	-10.6584
▁depression	-10.6584
▁forth	-10.6589
▁sentence	-10.6592
▁Women	-10.6592
▁agreed	-10.66
▁drives	-10.6601
night	-10.6605
control	-10.6606
▁writer	-10.6607
▁stars	-10.6609
▁sizes	-10.6611
▁fairly	-10.6615
cut	-10.6617
▁surprise	-10.6618
▁throw	-10.6621
▁alias	-10.6622
▁stick	-10.6625
▁joined	-10.6629
word	-10.664
▁Thank	-10.6642
▁tip	-10.6642
even	-10.6645
▁guidance	-10.6649
▁describes	-10.665
▁derived	-10.665
perl	-10.6653
▁ease	-10.666
▁appreciate	-10.6661
ets	-10.6675
▁Access	-10.6677
▁Love	-10.6679
▁expectations	-10.6679
▁Henry	-10.6685
ris	-10.6686
▁samples	-10.6686
▁answered	-10.6688
▁verify	-10.6688
▁replacement	-10.6689
▁shop	-10.6693
SSLeay	-10.6698
▁Win	-10.6705
ren	-10.6705
▁addressing	-10.6706
▁silver	-10.671
▁originally	-10.6712
▁developers	-10.6713
▁About	-10.6714
▁contemporary	-10.6715
tt	-10.6717
▁aimed	-10.6718
Ro	-10.6719
▁Start	-10.6719
▁lifestyle	-10.672
▁wire	-10.6725
▁vegetables	-10.6729
▁quiet	-10.6731
▁Tom	-10.6735
Please	-10.6743
▁sister	-10.6746
▁tables	-10.6747
▁Committee	-10.6747
tu	-10.6753
stream	-10.6753
har	-10.6756
▁Bill	-10.6761
SSL	-10.6762
▁libraries	-10.6762
ki	-10.6763
]]	-10.6765
▁west	-10.6768
());	-10.6771
:\	-10.6781
media	-10.6782
▁ports	-10.6788
current	-10.6788
▁wireless	-10.6793
▁OSSL	-10.6796
▁Sub	-10.6797
▁exciting	-10.6797
edge	-10.6801
▁attempts	-10.6806
▁crime	-10.6809
▁!	-10.681
▁Review	-10.6814
▁references	-10.6816
▁nine	-10.6818
mtime	-10.682
ica	-10.6827
▁periods	-10.6829
Exception	-10.683
▁£	-10.6831
▁Keep	-10.684
▁joy	-10.684
▁depend	-10.6843
▁massive	-10.6849
AR	-10.685
▁fans	-10.685
hash	-10.685
▁Wood	-10.6851
ino	-10.6852
▁evaluate	-10.6852
▁unsigned	-10.6859
med	-10.6859
▁UN	-10.686
▁owned	-10.686
▁assets	-10.6861
▁ended	-10.6864
pos	-10.6864
than	-10.6868
First	-10.6871
RA	-10.6874
under	-10.6878
▁interview	-10.6881
▁symbols	-10.6881
▁Though	-10.6883
▁configure	-10.6891
▁fly	-10.6892
▁relation	-10.6892
▁happening	-10.6893
▁lists	-10.6897
▁housing	-10.6897
▁authorities	-10.6898
▁Up	-10.6902
▁nations	-10.691
▁sky	-10.6911
▁startup	-10.6913
▁rural	-10.6914
▁facing	-10.6916
empty	-10.6916
▁op	-10.6918
▁sitting	-10.6918
model	-10.6919
▁Richard	-10.6919
him	-10.6919
▁Bible	-10.692
▁Italian	-10.6924
▁Medical	-10.6926
▁writes	-10.6926
about	-10.6928
▁flash	-10.693
▁exploring	-10.693
▁Students	-10.6934
Size	-10.6935
vert	-10.6937
▁principal	-10.6942
▁whenever	-10.6944
▁apps	-10.6946
wikipedia	-10.6947
▁ownership	-10.6948
System	-10.6949
▁eggs	-10.695
▁NOT	-10.6956
▁difficulty	-10.6956
▁achieved	-10.6957
Request	-10.6958
Convert	-10.6958
▁Martin	-10.6963
▁proxy	-10.6963
wide	-10.6965
▁reply	-10.6968
PC	-10.6969
▁bone	-10.6971
▁affects	-10.6972
▁override	-10.6973
▁hundreds	-10.6976
▁quarter	-10.6981
ag	-10.6982
▁officer	-10.6984
▁owners	-10.6984
▁performing	-10.6984
nic	-10.6992
▁demonstrate	-10.6994
▁coverage	-10.6996
Let	-10.6998
▁("	-10.6999
▁Da	-10.7001
▁indicated	-10.7001
▁logical	-10.7001
▁grass	-10.7003
▁SEE	-10.7006
▁drinking	-10.7008
▁regard	-10.7015
▁Despite	-10.7015
SET	-10.7016
▁Table	-10.702
▁threat	-10.702
gra	-10.7028
CH	-10.7029
▁Royal	-10.7029
▁JSON	-10.7032
▁electronic	-10.7033
▁transmission	-10.7033
uid	-10.7036
▁ill	-10.7044
▁temperatures	-10.7045
▁PR	-10.7048
▁thank	-10.7053
▁PID	-10.7058
▁strategic	-10.7065
▁injuries	-10.7066
▁guest	-10.7066
Make	-10.707
▁dealing	-10.7071
wait	-10.7071
▁discovery	-10.7079
▁assumed	-10.708
▁populations	-10.7083
und	-10.7087
▁signature	-10.7088
Service	-10.709
alias	-10.7091
▁Blue	-10.7093
try	-10.7094
align	-10.7105
▁vote	-10.7113
ignore	-10.7113
zip	-10.7115
▁enemy	-10.7117
▁spending	-10.7119
▁fostering	-10.7119
▁sin	-10.7125
select	-10.7126
▁largely	-10.7128
▁vehicles	-10.713
screen	-10.713
▁amounts	-10.7131
item	-10.7133
▁permanent	-10.7133
▁vector	-10.7135
▁drawn	-10.7137
ada	-10.7139
uv	-10.714
▁Select	-10.7141
▁Code	-10.7141
▁dust	-10.7148
lie	-10.7149
▁leg	-10.7153
▁Second	-10.7156
▁Next	-10.7161
▁installing	-10.7164
des	-10.7168
ular	-10.7168
▁constantly	-10.7169
pnm	-10.717
IF	-10.7172
▁reporting	-10.7178
▁Britain	-10.7181
▁decline	-10.7184
▁detection	-10.7184
▁Rights	-10.7184
▁confirm	-10.7185
▁diversity	-10.7186
▁Java	-10.7187
▁Super	-10.7188
▁tiny	-10.7189
▁bird	-10.7191
Class	-10.7193
▁Dec	-10.7195
were	-10.72
');	-10.7202
^{	-10.7202
act	-10.7202
fe	-10.7205
cm	-10.7205
▁evil	-10.7206
▁noticed	-10.7209
▁Saturday	-10.7216
▁participate	-10.7217
▁delivered	-10.7225
▁var	-10.7231
▁replied	-10.7237
▁wedding	-10.7238
▁east	-10.7238
▁pack	-10.7239
stack	-10.7241
▁USA	-10.7241
▁template	-10.7245
State	-10.7246
▁extend	-10.7248
▁pop	-10.7253
fall	-10.7255
▁Commission	-10.7257
▁mapping	-10.7264
▁era	-10.7265
▁jump	-10.7265
▁division	-10.7274
▁producing	-10.7275
systemctl	-10.7275
Item	-10.7276
▁timeout	-10.7277
▁Army	-10.7278
▁translation	-10.7278
▁optimal	-10.7279
▁NO	-10.728
▁par	-10.7281
ette	-10.7281
▁Value	-10.7284
▁ext	-10.7286
▁Latin	-10.7287
▁sh	-10.7292
▁removal	-10.7292
▁Energy	-10.7297
▁dollars	-10.7298
▁papers	-10.7298
Event	-10.7305
▁industries	-10.7307
▁university	-10.7307
▁minimize	-10.7307
Text	-10.7307
Log	-10.7312
▁significance	-10.7319
▁categories	-10.7322
▁Perl	-10.7322
▁lesson	-10.7325
().	-10.7335
▁naturally	-10.7337
action	-10.734
ala	-10.7341
▁arg	-10.7342
▁Mc	-10.7342
▁ocean	-10.7342
▁football	-10.7342
wi	-10.7346
▁officers	-10.7346
▁vol	-10.7348
▁measured	-10.735
▁OR	-10.735
▁divided	-10.7354
▁designs	-10.7358
▁realize	-10.7361
▁intervention	-10.7361
mark	-10.7361
▁Pacific	-10.7362
login	-10.7367
▁hotel	-10.7368
▁club	-10.7373
▁compliance	-10.7374
▁Click	-10.7375
▁cup	-10.7385
▁saving	-10.7389
rv	-10.739
limit	-10.7393
bu	-10.7393
▁whereas	-10.7394
▁responses	-10.7394
▁listing	-10.7403
▁diagnosis	-10.7404
▁objective	-10.7407
▁floating	-10.7411
ons	-10.7412
▁Italy	-10.7413
▁transportation	-10.7415
▁algorithms	-10.7415
SP	-10.7416
▁demands	-10.7418
▁Global	-10.7418
ini	-10.7418
Enable	-10.7419
ans	-10.7421
▁statements	-10.7421
▁faced	-10.7422
through	-10.7423
▁reaction	-10.7423
allow	-10.7423
phone	-10.7424
cpu	-10.7425
ks	-10.7427
▁southern	-10.743
▁Copyright	-10.7435
comp	-10.7437
▁scripts	-10.744
sync	-10.7443
request	-10.7447
▁websites	-10.7447
▁End	-10.7449
▁danger	-10.7451
byte	-10.7453
▁seat	-10.7458
▁friendly	-10.7459
▁ratio	-10.7459
▁meal	-10.746
▁reserved	-10.746
▁competitive	-10.7461
▁agency	-10.7465
▁ordered	-10.7471
▁bash	-10.7476
OPTIONS	-10.7479
▁Canadian	-10.7486
▁Ga	-10.7486
▁soldiers	-10.7487
▁foster	-10.7489
▁invalid	-10.75
df	-10.7502
most	-10.7502
▁ordinary	-10.7503
ade	-10.7507
Go	-10.7508
▁locally	-10.7509
▁district	-10.7512
their	-10.7517
▁recognition	-10.7519
ola	-10.7527
▁($	-10.7528
ear	-10.7535
▁advantages	-10.7538
▁pathname	-10.754
Fi	-10.7546
▁encoding	-10.7549
▁tags	-10.7552
array	-10.7556
▁functional	-10.7559
tal	-10.7564
▁implementing	-10.7565
sch	-10.7573
Windows	-10.7573
ES	-10.7578
hal	-10.7579
▁bi	-10.7581
mus	-10.7581
▁covers	-10.7588
▁visitors	-10.759
▁centuries	-10.759
export	-10.7591
▁glad	-10.7592
▁automatic	-10.7595
▁produces	-10.7596
pin	-10.7599
▁Medicine	-10.76
▁Port	-10.7601
▁rely	-10.7604
▁hosts	-10.7605
▁facility	-10.7608
▁OpenSSL	-10.7608
▁density	-10.7612
AP	-10.7613
▁logic	-10.7617
▁watching	-10.7618
▁debate	-10.7621
▁Which	-10.7623
▁mechanisms	-10.7624
▁bringing	-10.7625
▁destroy	-10.7626
▁explains	-10.7627
CC	-10.7628
pg	-10.7628
▁conventional	-10.7637
▁professor	-10.7637
▁Care	-10.764
▁newly	-10.7642
Info	-10.7643
▁Sometimes	-10.7648
▁bag	-10.7648
▁Australian	-10.7648
UN	-10.765
▁thick	-10.7651
▁farmers	-10.7656
auth	-10.7661
▁Catholic	-10.7663
ob	-10.7664
}'	-10.7664
▁decrease	-10.7666
▁promise	-10.7669
ret	-10.7672
▁integrated	-10.7673
▁ride	-10.7682
▁ma	-10.7693
▁magic	-10.7694
manual	-10.7694
▁agencies	-10.7698
▁calm	-10.7699
bytes	-10.7702
cher	-10.7704
▁mixed	-10.7705
▁detected	-10.7705
▁interactions	-10.771
ric	-10.7711
law	-10.7714
##	-10.7714
▁assess	-10.7716
▁executive	-10.7716
▁lab	-10.7717
▁Common	-10.7718
▁Live	-10.7718
▁inches	-10.7722
▁courses	-10.7725
▁concerning	-10.7726
▁suppose	-10.7728
▁Monday	-10.7729
▁destroyed	-10.7733
▁absence	-10.7734
▁Minister	-10.7735
▁interfaces	-10.7738
deb	-10.7738
iz	-10.774
ged	-10.7741
frame	-10.7742
▁Model	-10.7742
▁Best	-10.7744
▁Run	-10.7745
Table	-10.7746
▁sought	-10.7755
bound	-10.7759
▁token	-10.7764
▁western	-10.7764
▁Page	-10.7765
▁Ch	-10.7767
step	-10.7768
};	-10.777
hostname	-10.777
▁III	-10.7771
folder	-10.7771
split	-10.7777
▁presentation	-10.7778
▁./	-10.7784
static	-10.7784
▁worry	-10.7786
▁Men	-10.7789
▁:=	-10.7796
Write	-10.7796
▁Light	-10.7798
▁Civil	-10.7808
ute	-10.7809
▁troops	-10.781
▁meta	-10.7812
▁se	-10.7814
▁Times	-10.7814
▁err	-10.7818
▁gun	-10.7819
▁adopted	-10.782
▁preserve	-10.7824
ani	-10.7828
▁Hill	-10.7828
real	-10.7835
watch	-10.7835
▁hostname	-10.7838
▁arts	-10.7839
▁'/	-10.7846
▁stages	-10.7848
Co	-10.785
▁substance	-10.7854
▁paint	-10.7854
eb	-10.7855
mes	-10.786
hr	-10.7863
▁Media	-10.7863
▁Ke	-10.7863
ii	-10.7871
▁department	-10.7872
▁Gu	-10.7872
▁Community	-10.7876
▁reasonable	-10.7876
▁accuracy	-10.7877
backup	-10.7878
▁navigate	-10.7881
▁Among	-10.7881
▁aircraft	-10.7882
▁Music	-10.7882
card	-10.7884
▁trend	-10.7886
▁emotions	-10.7889
▁Rome	-10.7893
▁alike	-10.7893
▁tour	-10.7896
▁Learning	-10.7898
▁northern	-10.79
MD	-10.7905
▁compiler	-10.7908
lip	-10.7908
▁videos	-10.7909
▁fourth	-10.791
▁Middle	-10.7911
called	-10.7918
▁pan	-10.7923
ane	-10.7927
ency	-10.7928
▁Florida	-10.793
war	-10.7935
ay	-10.7936
▁concrete	-10.7937
▁Studies	-10.7938
▁mere	-10.7938
▁init	-10.7948
▁absolutely	-10.7949
▁rising	-10.7951
jo	-10.7952
▁compatibility	-10.7952
▁Bio	-10.7954
ther	-10.7955
▁RE	-10.7955
▁pollution	-10.7955
▁segment	-10.7956
iname	-10.7958
▁Ja	-10.796
ene	-10.796
▁miss	-10.7961
▁approved	-10.7961
▁Section	-10.7971
dSignal	-10.7982
including	-10.7983
alpha	-10.7983
TIME	-10.7984
then	-10.7989
▁encryption	-10.7989
▁Federal	-10.7989
EmitsCha	-10.7993
▁thou	-10.7993
▁Road	-10.7993
LS	-10.8
▁hence	-10.8004
regex	-10.8006
▁strict	-10.8006
▁swap	-10.8008
being	-10.8008
▁seeds	-10.801
cha	-10.801
two	-10.8012
▁controller	-10.8013
▁interact	-10.8014
take	-10.8014
Message	-10.8017
MAX	-10.8021
▁Southern	-10.8026
Download	-10.8027
▁thereby	-10.8029
MP	-10.8034
▁launched	-10.8035
▁chemicals	-10.8042
ct	-10.8042
ising	-10.8046
▁presents	-10.8047
ix	-10.8049
arm	-10.8059
utils	-10.806
ura	-10.8064
▁processed	-10.8065
▁Call	-10.8066
Also	-10.8068
▁loan	-10.8069
▁gained	-10.8071
▁moon	-10.8073
▁SCSI	-10.8076
▁cleaning	-10.8076
cf	-10.8079
Or	-10.8079
▁satisfaction	-10.808
▁icon	-10.8087
▁para	-10.8091
temp	-10.8091
▁repeated	-10.8094
Since	-10.8095
▁Mer	-10.8096
san	-10.8099
made	-10.81
▁Tu	-10.8102
TP	-10.8102
▁Version	-10.8103
dl	-10.8104
▁Specifies	-10.8105
ple	-10.8105
▁District	-10.8105
▁holiday	-10.8106
▁Professor	-10.8106
▁willing	-10.8106
sql	-10.8107
prune	-10.8107
▁Amazon	-10.8108
▁connecting	-10.811
▁Tri	-10.8113
▁employment	-10.8118
▁somewhere	-10.8119
tools	-10.8123
tur	-10.8131
[]	-10.8131
pool	-10.8131
ew	-10.8132
SC	-10.8133
method	-10.8136
▁expressions	-10.8139
▁Perhaps	-10.814
▁tooth	-10.8143
Source	-10.8144
▁goods	-10.8146
▁Format	-10.8155
▁Class	-10.8155
▁st	-10.8156
sel	-10.8157
▁tunnel	-10.816
▁conservation	-10.8162
▁passion	-10.8164
▁favor	-10.8169
MB	-10.8175
ky	-10.8175
▁extensions	-10.8184
▁fluid	-10.8186
interface	-10.8187
▁dev	-10.8189
▁biological	-10.8201
cent	-10.8203
release	-10.8204
▁comma	-10.8207
▁XML	-10.8209
ros	-10.8209
ON	-10.821
▁crop	-10.821
)\	-10.8213
▁treatments	-10.8216
match	-10.8218
▁corporate	-10.8218
▁reputation	-10.8219
▁copies	-10.8219
▁restart	-10.8224
▁weak	-10.8224
▁Trump	-10.8228
▁artificial	-10.8228
▁draft	-10.823
▁edition	-10.8232
ack	-10.8233
---	-10.8236
▁layers	-10.8236
tre	-10.8238
▁particles	-10.8239
▁mirror	-10.824
▁SP	-10.8243
▁relief	-10.8243
▁OPTIONS	-10.8245
▁trigger	-10.8246
▁weekend	-10.8247
▁fighting	-10.8248
▁Android	-10.8251
▁studying	-10.8253
stone	-10.8254
})	-10.8254
▁storm	-10.8259
▁equally	-10.8263
▁conference	-10.8265
▁yield	-10.8266
Output	-10.8267
▁organized	-10.8268
▁healing	-10.8268
▁proved	-10.8269
si	-10.827
▁granted	-10.8273
Node	-10.8275
▁applicable	-10.8277
▁Comp	-10.8277
▁pleasure	-10.828
its	-10.829
ties	-10.8297
itis	-10.8303
▁Virginia	-10.8305
python	-10.8311
▁integrity	-10.8313
▁repeat	-10.8313
mnt	-10.8314
▁criteria	-10.8315
▁colon	-10.8317
CS	-10.8318
▁Grand	-10.8319
▁sc	-10.832
▁peak	-10.832
lam	-10.8322
▁Change	-10.8323
▁highlights	-10.833
▁accessed	-10.8333
▁preparation	-10.8333
▁beneficial	-10.8334
▁simultaneously	-10.8336
▁Real	-10.834
▁telling	-10.8343
▁younger	-10.8343
Image	-10.8347
▁Ti	-10.8349
▁choosing	-10.8354
á	-10.8356
])	-10.8356
▁marks	-10.8359
▁converted	-10.8362
▁km	-10.8363
SA	-10.8363
▁Default	-10.8363
▁oral	-10.8366
▁incident	-10.8366
▁aims	-10.8372
▁Last	-10.8373
rick	-10.8376
▁Bra	-10.8387
oid	-10.8389
▁Cha	-10.8391
▁interior	-10.8393
▁demonstrated	-10.8396
▁expanded	-10.8397
▁Otherwise	-10.8398
▁displays	-10.8398
▁vitamin	-10.8399
▁thy	-10.84
▁ought	-10.8401
▁perf	-10.8403
▁habits	-10.8407
▁hang	-10.8411
▁bought	-10.8413
each	-10.8413
▁Lee	-10.8413
▁interval	-10.8416
ara	-10.8419
▁powers	-10.8421
▁Learn	-10.8421
▁Intel	-10.8424
▁studied	-10.8427
▁wheel	-10.8434
aka	-10.8438
▁Col	-10.8439
▁Space	-10.8439
▁www	-10.8444
▁deleted	-10.8446
▁Look	-10.8448
▁shares	-10.8448
▁stronger	-10.8448
▁specifying	-10.8448
▁sharp	-10.8448
▁identical	-10.8451
arg	-10.8458
▁fault	-10.8459
▁banks	-10.8461
▁threads	-10.8463
▁limitations	-10.8468
▁anyway	-10.847
▁universe	-10.8472
▁privacy	-10.8475
▁Year	-10.8476
▁crowd	-10.8476
rum	-10.8477
▁minimal	-10.8483
pad	-10.8484
mask	-10.8487
rich	-10.8491
RT	-10.8493
▁initially	-10.8495
▁agents	-10.8496
▁investigation	-10.8508
wing	-10.8512
stop	-10.8521
parent	-10.8527
should	-10.8528
*"	-10.8529
▁stability	-10.853
▁graphics	-10.8531
▁suit	-10.8532
▁Guide	-10.8536
▁searching	-10.854
▁applying	-10.8541
▁Ro	-10.8543
▁ingredients	-10.8543
ory	-10.8544
▁eth	-10.8545
location	-10.8555
Edit	-10.8561
▁inspired	-10.8562
▁Sp	-10.8567
▁imp	-10.8568
▁boundaries	-10.8569
▁frequent	-10.8573
▁plate	-10.8573
▁horses	-10.8573
CTX	-10.8575
berg	-10.8575
▁compiled	-10.8576
▁album	-10.8578
▁Pe	-10.858
private	-10.8584
▁plane	-10.8589
EXIT	-10.8591
DS	-10.8591
mann	-10.8591
▁Team	-10.8591
▁alongside	-10.8592
▁moves	-10.8594
▁busy	-10.8596
▁Options	-10.8596
▁Place	-10.8602
▁clone	-10.8602
▁Chi	-10.8607
fire	-10.8607
ily	-10.8611
▁transaction	-10.8613
HOME	-10.8615
Ho	-10.8619
pub	-10.8622
gal	-10.8628
®	-10.8629
▁operator	-10.8629
▁RAM	-10.8629
depth	-10.8633
▁hole	-10.8636
▁adjust	-10.8638
▁addressed	-10.8646
tan	-10.8648
▁inform	-10.8649
▁compatible	-10.8653
▁recover	-10.8654
▁Family	-10.8656
▁substantial	-10.8657
▁Cross	-10.8667
nes	-10.8667
=<	-10.8667
next	-10.8669
Code	-10.8675
▁bo	-10.8679
▁maintained	-10.8681
▁Dan	-10.8687
tab	-10.8691
IT	-10.8692
▁Mount	-10.8693
care	-10.8695
tel	-10.8696
sion	-10.8701
▁cognitive	-10.8706
ase	-10.8708
▁IT	-10.8709
context	-10.8717
▁revenue	-10.872
icon	-10.872
▁macro	-10.8722
EA	-10.8723
▁gap	-10.8729
▁feels	-10.8729
▁COVID	-10.873
▁roots	-10.873
▁implications	-10.8731
ians	-10.8734
▁maps	-10.8735
▁Jo	-10.8737
▁fe	-10.8737
Are	-10.874
▁Without	-10.8741
▁coal	-10.8743
▁movements	-10.8747
tail	-10.8751
▁(`	-10.8753
▁tailored	-10.8755
▁phrase	-10.876
▁medication	-10.8761
▁partitions	-10.8768
▁trained	-10.8768
▁worst	-10.8769
▁posts	-10.8773
Just	-10.8773
▁Nature	-10.8775
▁waves	-10.8775
▁prime	-10.8781
▁ages	-10.8782
▁Software	-10.8783
▁preferences	-10.8786
lot	-10.8789
▁PM	-10.879
▁damaged	-10.879
▁ships	-10.879
entry	-10.879
IM	-10.8792
▁suggestions	-10.8793
lon	-10.8796
full	-10.8798
▁nodes	-10.8799
▁neck	-10.8801
PI	-10.8805
▁Word	-10.8807
▁millions	-10.8808
▁ho	-10.8808
▁giant	-10.881
▁suspect	-10.8813
▁Ab	-10.8815
▁angle	-10.8818
▁DC	-10.8818
ku	-10.8819
ale	-10.8822
▁senior	-10.8822
%)	-10.8825
▁Johnson	-10.8826
▁Jews	-10.8826
▁Back	-10.8828
vin	-10.8829
illa	-10.8831
ven	-10.8832
osis	-10.8833
▁recommendations	-10.8834
Mo	-10.8834
▁AT	-10.884
▁crew	-10.884
lc	-10.884
▁username	-10.8845
▁blind	-10.8848
▁committee	-10.885
▁fee	-10.8852
▁cried	-10.8854
parse	-10.8857
La	-10.8858
img	-10.8859
▁shut	-10.8859
tech	-10.8862
rin	-10.8867
font	-10.8876
▁lo	-10.8879
▁Chicago	-10.8881
flags	-10.8882
▁association	-10.8884
▁Anti	-10.8886
▁cooking	-10.8887
times	-10.8888
▁Spain	-10.8895
▁grand	-10.8895
▁flu	-10.8895
amp	-10.8897
▁mono	-10.8904
rk	-10.891
▁implies	-10.891
▁celebrate	-10.8911
▁lie	-10.8912
program	-10.8915
▁Unfortunately	-10.8915
▁boost	-10.8916
▁mill	-10.8921
flow	-10.8922
FA	-10.893
▁rear	-10.893
▁Queen	-10.8931
▁flexibility	-10.8932
▁credentials	-10.8934
▁election	-10.8938
sign	-10.8939
CD	-10.894
"><	-10.8941
▁hook	-10.8943
▁Par	-10.8943
stdout	-10.8957
eq	-10.8971
▁Academy	-10.8973
handle	-10.8973
▁formats	-10.8976
ony	-10.8978
▁judgment	-10.8979
dc	-10.8982
▁logging	-10.8982
Format	-10.8984
▁duration	-10.8987
▁impacts	-10.8989
them	-10.8996
▁hyper	-10.8999
je	-10.8999
▁fewer	-10.9002
cite	-10.9003
▁SSH	-10.9003
▁Mi	-10.9003
bed	-10.9009
▁participation	-10.9014
▁survive	-10.9014
▁requirement	-10.9015
tin	-10.9016
▁audit	-10.9019
▁sync	-10.9021
▁analyze	-10.9024
▁sequences	-10.9026
▁Boston	-10.9026
▁"%	-10.9028
▁pthread	-10.9031
▁strike	-10.9031
▁interpretation	-10.9032
▁Jack	-10.9032
▁Wall	-10.9039
Dr	-10.904
pac	-10.9042
▁worship	-10.9043
avi	-10.9045
▁tone	-10.9046
▁blank	-10.9047
▁tall	-10.9047
▁Returns	-10.9047
▁Party	-10.9049
▁chat	-10.9051
▁Father	-10.9053
▁writers	-10.9054
MC	-10.9055
American	-10.9056
▁requiring	-10.9056
▁allocation	-10.9064
▁totally	-10.9065
▁Joseph	-10.9067
▁si	-10.9069
loop	-10.9076
▁representing	-10.9079
▁universal	-10.9079
▁complicated	-10.9081
▁serial	-10.9082
▁sick	-10.9085
▁mining	-10.9087
▁proud	-10.9089
cp	-10.909
Don	-10.9092
▁governments	-10.9092
note	-10.9093
▁lady	-10.9095
▁Fire	-10.9099
▁smile	-10.9101
▁'{	-10.9102
▁semi	-10.9103
▁differ	-10.9104
▁craft	-10.9107
▁curl	-10.9108
ich	-10.9109
ita	-10.9115
ö	-10.9118
ress	-10.912
▁excited	-10.9121
▁Bi	-10.9124
▁combat	-10.9125
▁paying	-10.9128
hour	-10.9129
resource	-10.9129
cos	-10.9135
▁logged	-10.9138
▁supplies	-10.9139
▁inspiration	-10.9139
▁tough	-10.914
▁rooms	-10.9142
offset	-10.9142
▁painting	-10.9143
St	-10.9144
gan	-10.9148
NET	-10.915
▁tube	-10.9154
high	-10.9157
▁Si	-10.9157
▁decade	-10.9159
▁trading	-10.916
ula	-10.9164
▁curious	-10.9164
▁MP	-10.9166
RS	-10.9167
CO	-10.9168
EC	-10.9173
AM	-10.9174
▁infections	-10.9174
▁buying	-10.9175
▁lens	-10.9176
gr	-10.9179
header	-10.918
▁belong	-10.9181
▁debugging	-10.9182
['	-10.9186
▁MD	-10.9186
▁Auto	-10.9187
ulation	-10.919
▁preventing	-10.9192
would	-10.9195
▁Ri	-10.9196
▁superior	-10.9196
▁com	-10.9199
▁ye	-10.9199
▁permitted	-10.9203
FF	-10.9204
▁Holy	-10.9206
▁Rock	-10.9206
round	-10.9207
Mar	-10.9212
▁persistent	-10.9212
gl	-10.9212
▁household	-10.9214
report	-10.9214
▁generations	-10.9215
▁heavily	-10.9223
▁identifying	-10.9223
▁initiatives	-10.9226
ama	-10.9234
exp	-10.9241
▁abilities	-10.9241
▁muscles	-10.9246
▁planned	-10.9246
▁Che	-10.925
▁calculate	-10.9251
mno	-10.9253
▁deeply	-10.9256
▁broader	-10.9256
▁considerable	-10.9258
▁dependency	-10.9259
▁guarantee	-10.9259
▁intellectual	-10.9261
▁Ireland	-10.9262
▁founded	-10.9263
▁curriculum	-10.9265
▁radiation	-10.9265
▁candidate	-10.9267
LI	-10.9267
▁availability	-10.9272
▁dress	-10.9274
▁concentration	-10.9278
▁duplicate	-10.9281
▁'{{	-10.9283
ming	-10.9285
fast	-10.9288
▁flexible	-10.9288
rw	-10.9288
▁nearby	-10.9293
▁Gar	-10.9299
Element	-10.93
libc	-10.9305
▁tape	-10.9306
▁Oh	-10.9307
▁poverty	-10.9308
▁focuses	-10.9308
▁legs	-10.931
▁everyday	-10.9319
▁Ac	-10.9319
▁hide	-10.932
float	-10.9322
jj	-10.9324
Another	-10.9324
▁union	-10.9326
ET	-10.9327
▁Valley	-10.933
▁registry	-10.9339
▁java	-10.9346
▁dates	-10.9346
▁revision	-10.935
▁harmful	-10.9354
Save	-10.9357
security	-10.9361
good	-10.9361
DA	-10.9361
▁cheap	-10.9364
▁inode	-10.9369
▁Justice	-10.9373
ches	-10.9375
▁gradually	-10.9375
▁Policy	-10.9375
▁prevention	-10.9379
▁charged	-10.938
▁attend	-10.9382
▁carrying	-10.9384
▁alert	-10.9386
▁Find	-10.9386
gate	-10.9387
sta	-10.9387
mel	-10.9389
▁driven	-10.9389
▁Remember	-10.939
▁vaccine	-10.9396
▁prints	-10.9396
▁faces	-10.9398
▁dependent	-10.9399
▁grant	-10.94
func	-10.9409
▁circle	-10.9409
IA	-10.9412
▁vice	-10.9413
oli	-10.9413
▁restrictions	-10.9414
▁guests	-10.9416
▁Online	-10.9417
rim	-10.9419
▁Sam	-10.9421
▁Frank	-10.9422
▁occasion	-10.9422
▁orders	-10.9427
▁HIV	-10.9428
▁Environmental	-10.943
▁processor	-10.9431
▁covering	-10.9436
▁psychological	-10.9437
▁strain	-10.9437
▁dialogue	-10.9437
apache	-10.9437
▁hurt	-10.9437
▁assert	-10.9438
▁Centre	-10.9439
▁fabric	-10.9443
!!	-10.9444
▁Tuesday	-10.9445
lines	-10.9446
openssl	-10.9448
TR	-10.9448
FC	-10.9448
▁tracking	-10.945
▁pairs	-10.9452
▁beliefs	-10.9453
▁chair	-10.9453
author	-10.9455
▁vulnerable	-10.9458
▁Republic	-10.9459
▁Special	-10.9462
▁Study	-10.9464
▁generic	-10.9468
town	-10.9469
▁submit	-10.947
▁skip	-10.947
▁constructed	-10.947
[![	-10.9471
▁estimate	-10.9474
▁sorted	-10.9478
Any	-10.9478
nbsp	-10.948
proxy	-10.948
▁Egypt	-10.9483
gu	-10.9484
close	-10.9486
▁philosophy	-10.9494
yn	-10.9497
▁editing	-10.9498
TYPE	-10.9499
▁threats	-10.9502
▁recursively	-10.9502
▁mechanical	-10.9506
▁magnetic	-10.9506
▁Lady	-10.9506
▁selling	-10.9507
bun	-10.9508
▁upload	-10.951
▁experiments	-10.9513
▁observe	-10.9515
fix	-10.9516
▁disc	-10.9516
▁plug	-10.952
According	-10.9522
ration	-10.9522
▁creativity	-10.9523
▁candidates	-10.9524
gram	-10.9531
cell	-10.9534
las	-10.954
cer	-10.9544
▁instrument	-10.9545
▁moments	-10.9547
▁enjoyed	-10.9549
▁bread	-10.9551
▁selecting	-10.9551
▁Local	-10.9552
hat	-10.9555
▁Right	-10.9558
nce	-10.956
▁bond	-10.9561
▁bath	-10.9562
▁resolved	-10.9565
Illustration	-10.9567
▁medications	-10.9576
▁vertical	-10.9576
▁plot	-10.9576
▁grid	-10.9577
▁Point	-10.9578
▁unusual	-10.958
▁exclusive	-10.9581
EL	-10.9585
csv	-10.9587
AD	-10.9588
▁├──────────	-10.9588
▁chances	-10.959
▁rid	-10.9591
vis	-10.9602
RC	-10.9604
onic	-10.9606
▁passes	-10.9608
▁Hospital	-10.9611
▁survival	-10.9611
▁agricultural	-10.9611
▁burden	-10.9611
▁alive	-10.9615
▁Bur	-10.9615
▁conflicts	-10.962
▁stem	-10.9622
▁pi	-10.9623
star	-10.9624
▁directed	-10.9624
▁remarkable	-10.9627
▁legacy	-10.9627
▁del	-10.9628
▁Bro	-10.9629
▁crops	-10.9629
vy	-10.963
ancy	-10.963
▁Pan	-10.963
Line	-10.9631
prefix	-10.9637
▁snap	-10.9637
lum	-10.9639
▁defaults	-10.9641
keys	-10.9643
▁Consider	-10.9643
away	-10.9644
fl	-10.9646
▁contributions	-10.9647
▁tap	-10.9649
TE	-10.9653
▁src	-10.9659
▁themes	-10.9662
▁sport	-10.967
Result	-10.9673
Where	-10.9674
▁MAC	-10.9674
▁num	-10.9677
▁Club	-10.9677
▁mixture	-10.9677
▁strongly	-10.9681
▁<<	-10.9683
hood	-10.9685
▁probability	-10.9685
Al	-10.9685
▁entering	-10.9688
▁heads	-10.9689
▁Mor	-10.9694
▁Gra	-10.9695
▁Three	-10.9697
▁contributing	-10.9699
▁television	-10.9699
ison	-10.9701
Build	-10.9702
ics	-10.9704
▁tank	-10.9704
enable	-10.9705
▁chart	-10.9706
▁Play	-10.9707
phy	-10.9707
▁styles	-10.9707
▁codes	-10.9711
pbm	-10.9712
ub	-10.9713
▁Northern	-10.9715
▁heaven	-10.9717
▁enhancing	-10.9721
▁colleagues	-10.9721
▁transform	-10.9728
▁adequate	-10.9728
before	-10.973
Thank	-10.973
▁dual	-10.9733
▁Force	-10.9734
▁roll	-10.9735
NS	-10.9737
ero	-10.9738
▁Field	-10.974
▁ref	-10.974
▁recording	-10.974
▁cm	-10.9741
´	-10.9743
PG	-10.9744
Field	-10.9747
ill	-10.9749
gy	-10.9753
▁Em	-10.9765
▁afraid	-10.9765
▁chicken	-10.9767
▁reaching	-10.9769
ites	-10.9775
▁Van	-10.9779
▁align	-10.9779
▁luck	-10.9779
▁Debian	-10.978
▁safely	-10.978
▁outcome	-10.9781
also	-10.9784
matic	-10.9785
Pro	-10.9789
bal	-10.9789
Net	-10.9796
▁breaking	-10.9798
▁facilitate	-10.9799
Command	-10.9801
▁Twitter	-10.9808
▁profit	-10.9808
access	-10.9809
─────────────	-10.9809
▁genes	-10.981
stdin	-10.9812
nix	-10.9813
▁suffered	-10.9814
▁falls	-10.9814
Send	-10.9815
▁newer	-10.9815
▁scenario	-10.982
▁dive	-10.9821
▁fees	-10.9824
▁unexpected	-10.9825
▁calendar	-10.9828
▁basically	-10.9836
wise	-10.9836
▁smell	-10.9837
▁judge	-10.9843
▁Ba	-10.9844
admin	-10.9845
▁beach	-10.9846
zy	-10.9849
▁afternoon	-10.9852
▁proven	-10.9853
▁emphasis	-10.9854
▁provision	-10.9855
maxdepth	-10.9856
▁furniture	-10.9856
▁childhood	-10.9857
▁county	-10.9857
▁establishment	-10.9862
▁complexity	-10.9864
▁org	-10.9868
▁vessels	-10.9868
▁Arts	-10.987
▁charges	-10.987
▁talent	-10.9872
▁nose	-10.9872
EE	-10.988
▁registration	-10.988
▁Ocean	-10.9886
▁lvm	-10.9887
PE	-10.9894
▁Fe	-10.9897
▁winning	-10.99
ME	-10.9902
▁quotes	-10.9904
learn	-10.9904
▁linux	-10.9905
▁Similarly	-10.9905
din	-10.9905
▁identifier	-10.9906
▁hardly	-10.9908
▁vg	-10.9915
▁enhanced	-10.9915
buf	-10.9915
▁Ru	-10.9918
Pre	-10.992
▁burning	-10.9921
PL	-10.9922
▁chmod	-10.9923
▁Ste	-10.9926
args	-10.9927
Copy	-10.9929
BS	-10.993
▁Should	-10.9932
fu	-10.9935
oy	-10.9937
▁lighting	-10.9942
▁songs	-10.9942
ü	-10.9944
▁essentially	-10.9946
▁sir	-10.9947
=\	-10.9948
▁Head	-10.995
▁Te	-10.995
▁containers	-10.9952
▁Cat	-10.9952
▁outer	-10.9952
▁accordingly	-10.9952
▁gather	-10.9955
face	-10.9961
▁EU	-10.9961
live	-10.9961
lat	-10.9962
sane	-10.9966
▁quantity	-10.9968
▁utilize	-10.9971
RP	-10.9972
▁arise	-10.9973
AT	-10.998
▁broke	-10.9981
▁employee	-10.9981
Context	-10.9981
ado	-10.9984
repo	-10.9987
friendly	-10.9988
ace	-10.9989
▁nutrients	-10.9989
ua	-10.9994
▁programme	-10.9997
▁burn	-11
▁noble	-11
mission	-11.0005
▁manufacturers	-11.0006
▁fetch	-11.0011
▁Figure	-11.0011
Have	-11.0012
▁territory	-11.0014
]:	-11.0017
▁reviews	-11.0019
clock	-11.0019
▁Trans	-11.0019
▁diagnostic	-11.0027
▁reform	-11.0027
OT	-11.0029
▁sane	-11.003
▁AD	-11.0035
▁Carolina	-11.0037
PARAM	-11.0037
▁copyright	-11.004
▁blow	-11.0043
ef	-11.0043
rig	-11.0045
▁fruits	-11.0045
oon	-11.0046
▁cur	-11.0047
▁succeed	-11.005
▁reduces	-11.0051
▁broadcast	-11.0051
▁musical	-11.0053
ign	-11.0053
▁FOR	-11.0054
ax	-11.0059
▁qualities	-11.006
▁stomach	-11.006
▁Help	-11.0063
▁DHCP	-11.0063
via	-11.0067
▁possess	-11.0069
▁infected	-11.007
tim	-11.007
cing	-11.0071
▁inflammation	-11.0071
▁SD	-11.0074
lp	-11.0074
▁Fort	-11.0077
RI	-11.0077
tex	-11.0078
▁Language	-11.008
usage	-11.0082
▁Interface	-11.0083
▁RAID	-11.0083
▁consent	-11.0083
Many	-11.0085
DC	-11.0092
,--	-11.0094
▁equation	-11.0097
▁wc	-11.0098
Link	-11.0099
▁historic	-11.0101
common	-11.0102
iness	-11.0103
▁extends	-11.0103
meter	-11.0104
▁legislation	-11.0106
▁emerging	-11.0106
▁Irish	-11.011
sqrt	-11.0112
▁sectors	-11.0113
▁delve	-11.0114
▁float	-11.0115
iso	-11.0117
MM	-11.0117
ces	-11.0118
▁lights	-11.0119
▁publication	-11.012
▁Louis	-11.0127
▁Still	-11.0127
lies	-11.0127
▁Ph	-11.0128
▁liver	-11.0128
▁compressed	-11.0137
xi	-11.0139
▁Edward	-11.014
▁acquired	-11.0146
lay	-11.0152
tis	-11.0153
▁prison	-11.0154
mic	-11.0154
Connect	-11.0155
save	-11.0157
▁returning	-11.0158
▁timestamp	-11.016
▁composed	-11.016
▁doctors	-11.0162
▁exercises	-11.0162
▁generating	-11.0164
▁SQL	-11.0165
\\	-11.0171
gid	-11.0171
character	-11.0171
OP	-11.0173
▁League	-11.0175
▁loading	-11.0177
▁shouldn	-11.0179
ski	-11.0184
▁wider	-11.0187
separated	-11.0194
▁reads	-11.0195
▁leaf	-11.0196
▁differently	-11.0197
▁technological	-11.0198
bs	-11.02
▁Low	-11.02
▁precision	-11.0206
▁apparently	-11.0206
foot	-11.0208
PA	-11.021
▁Did	-11.0212
▁Hol	-11.0213
▁MA	-11.0213
▁captured	-11.0214
▁alarm	-11.0215
▁respective	-11.0216
▁regarded	-11.0221
press	-11.0222
▁arrival	-11.0222
▁stakeholders	-11.0222
▁copied	-11.0222
▁Text	-11.0222
▁drain	-11.0222
bind	-11.0222
▁award	-11.0224
▁tries	-11.0224
ivity	-11.0225
mate	-11.0225
▁python	-11.0227
og	-11.0228
owner	-11.0232
▁invoked	-11.0235
ATION	-11.0238
ari	-11.0242
▁None	-11.0242
Only	-11.0244
CONFIG	-11.0245
▁reveal	-11.0249
task	-11.025
▁Early	-11.0251
ture	-11.0252
▁equipped	-11.0253
exit	-11.0256
▁sg	-11.0256
PP	-11.0259
▁collective	-11.0261
▁suffix	-11.0263
▁affecting	-11.0267
▁hexadecimal	-11.0268
▁indicating	-11.0268
▁specification	-11.027
without	-11.027
▁eliminate	-11.0272
Array	-11.0272
▁guard	-11.0272
▁difficulties	-11.0273
▁flavor	-11.0275
▁acting	-11.0277
DB	-11.0277
▁texture	-11.0278
▁Nations	-11.0278
dns	-11.0279
▁hall	-11.0281
▁hydro	-11.0283
▁timer	-11.0286
▁Son	-11.0286
▁Soviet	-11.0288
▁doors	-11.0289
*/	-11.029
▁pregnancy	-11.0292
▁bearing	-11.0297
▁managers	-11.0303
▁Mal	-11.0306
say	-11.0312
ena	-11.0313
▁reflection	-11.0316
break	-11.0316
Me	-11.0316
Map	-11.0318
edu	-11.0319
▁Sha	-11.0319
▁beneath	-11.0323
▁corn	-11.0324
...]	-11.0328
▁protocols	-11.0329
▁objectives	-11.0331
--"	-11.0332
ography	-11.0334
▁Young	-11.0334
▁instruments	-11.0335
ates	-11.0336
▁crash	-11.0337
▁labour	-11.034
hl	-11.034
▁opposed	-11.0345
▁abstract	-11.0345
▁investors	-11.0348
▁Return	-11.0348
▁independence	-11.036
van	-11.0361
▁stroke	-11.0361
▁impressive	-11.0363
▁productivity	-11.0364
FUNC	-11.0364
▁overcome	-11.0368
▁pounds	-11.0369
▁GPU	-11.037
▁effectiveness	-11.0373
▁retain	-11.0376
▁keeps	-11.0381
▁dimensions	-11.0382
sky	-11.0382
▁~/	-11.0384
▁Los	-11.0386
▁CYRILLIC	-11.0386
▁identification	-11.0386
▁Gold	-11.0386
▁Conference	-11.0386
▁visited	-11.0387
▁ca	-11.0391
▁precise	-11.0392
▁Having	-11.0392
just	-11.0392
▁honest	-11.0394
▁Wednesday	-11.0395
qua	-11.0396
▁encountered	-11.0402
▁Chief	-11.0403
scope	-11.0403
▁beat	-11.0404
▁destruction	-11.041
ening	-11.0413
pc	-11.0416
▁Hi	-11.0416
▁smoke	-11.0418
▁scheduled	-11.0418
result	-11.042
crypt	-11.0421
▁Oxford	-11.0421
▁bold	-11.0422
▁ethical	-11.0422
▁recall	-11.0423
▁defines	-11.0423
▁Ten	-11.043
send	-11.0431
▁exploration	-11.0434
▁q	-11.0434
socket	-11.0441
▁Maybe	-11.0442
▁deaths	-11.0442
▁Thursday	-11.0442
Index	-11.0447
▁introduce	-11.0448
▁sudden	-11.0449
▁attract	-11.0449
▁handler	-11.045
atory	-11.0452
commands	-11.0453
vec	-11.0455
▁cultures	-11.0455
▁ver	-11.0456
▁measurement	-11.0458
very	-11.0466
▁regulatory	-11.0466
record	-11.0468
big	-11.0468
▁transactions	-11.0471
▁accident	-11.0475
▁claimed	-11.0478
▁Natural	-11.0478
▁Case	-11.0479
▁narrative	-11.048
▁victims	-11.0481
▁incorporating	-11.0482
▁powder	-11.0482
▁coach	-11.0483
▁Cal	-11.0483
▁tight	-11.0488
More	-11.0497
click	-11.0501
▁sacrifice	-11.0505
▁SO	-11.0507
NA	-11.0508
▁clothes	-11.0509
▁cream	-11.051
▁migration	-11.0513
▁streams	-11.0513
▁Indeed	-11.0515
▁streets	-11.0521
▁BIOS	-11.0521
Most	-11.0522
▁amongst	-11.0522
▁improvements	-11.0524
▁affordable	-11.0532
nc	-11.0532
▁Reading	-11.0532
desktop	-11.0533
quire	-11.0536
Color	-11.0541
▁Building	-11.0542
▁Update	-11.0542
sim	-11.0548
▁insert	-11.0549
▁earn	-11.0549
▁expenses	-11.0551
bas	-11.0556
pw	-11.0558
▁argue	-11.0559
SD	-11.0566
ique	-11.0566
▁Asian	-11.0567
▁Rev	-11.0572
▁behaviors	-11.0575
▁belonging	-11.0577
lit	-11.0578
▁quote	-11.0581
ā	-11.0582
ination	-11.0583
obj	-11.0585
▁volumes	-11.0587
▁Gi	-11.0589
▁forever	-11.0589
▁Hence	-11.0591
▁heating	-11.0595
cb	-11.0599
ash	-11.0599
_{\	-11.06
secret	-11.06
cur	-11.0601
▁silence	-11.0602
▁smoking	-11.0602
▁cursor	-11.0602
▁divine	-11.0602
gui	-11.0603
bling	-11.0604
Number	-11.0606
▁hybrid	-11.0606
▁finds	-11.0607
rain	-11.0608
▁marine	-11.0609
▁Organization	-11.0612
nie	-11.0612
BC	-11.0615
DD	-11.0619
▁Top	-11.0625
rot	-11.0626
▁vendor	-11.0627
▁victim	-11.0627
▁zip	-11.0629
▁everywhere	-11.0633
CE	-11.0636
▁meetings	-11.0637
▁observations	-11.0638
▁egg	-11.0647
▁estimates	-11.0648
agent	-11.0648
ators	-11.065
▁illegal	-11.0651
sourceforge	-11.0651
▁Command	-11.0652
late	-11.0652
▁AC	-11.0655
buffer	-11.0658
▁modes	-11.0659
▁rent	-11.066
▁specialized	-11.0661
▁experimental	-11.0663
lab	-11.0663
▁pot	-11.0667
die	-11.0669
▁pace	-11.067
▁grave	-11.067
▁confirmed	-11.0674
▁uniform	-11.0675
▁wisdom	-11.0675
gre	-11.0676
▁matched	-11.0678
▁Georgia	-11.0679
▁lake	-11.0681
▁ranging	-11.0684
▁weapons	-11.0685
▁qualified	-11.0686
▁controlling	-11.0688
ient	-11.069
rb	-11.0697
▁aside	-11.0698
▁Source	-11.0698
▁describing	-11.07
▁sustainability	-11.07
▁odd	-11.07
▁compound	-11.0702
▁elected	-11.0708
met	-11.0711
ora	-11.0712
kind	-11.0718
▁consistently	-11.0719
▁lifetime	-11.0721
tive	-11.0724
stackexchange	-11.0724
▁wildlife	-11.0725
▁mild	-11.0725
XX	-11.0726
▁Saint	-11.0727
blob	-11.0727
▁resulted	-11.0731
▁digest	-11.0732
▁bomb	-11.0736
▁encouraged	-11.0736
▁possibilities	-11.0737
▁comp	-11.0737
▁chose	-11.0739
▁notion	-11.0739
pic	-11.0741
▁warnings	-11.0747
▁alternate	-11.0748
▁elsewhere	-11.0751
NI	-11.0752
▁exam	-11.0753
dep	-11.0754
▁fiber	-11.0755
▁embedded	-11.0757
dot	-11.0758
▁Full	-11.076
EM	-11.076
pers	-11.0762
template	-11.0764
▁unset	-11.0767
▁alternatives	-11.0769
▁institution	-11.0769
bat	-11.0773
▁experiencing	-11.0773
Ha	-11.0774
lia	-11.0774
▁Gen	-11.0775
aw	-11.0775
▁bottle	-11.0777
▁exhibit	-11.0778
▁personality	-11.0788
▁steam	-11.0788
▁delivering	-11.0788
▁adapt	-11.0789
▁clothing	-11.079
▁intake	-11.079
▁fishing	-11.0791
▁MT	-11.0791
▁${	-11.0792
▁batch	-11.0796
▁excess	-11.0797
▁Math	-11.0797
▁da	-11.0798
mov	-11.0799
▁Ohio	-11.08
▁insight	-11.08
▁bike	-11.0802
▁slave	-11.0803
▁pump	-11.0806
▁raid	-11.0808
ico	-11.0809
▁afford	-11.0809
▁Need	-11.0811
▁happiness	-11.0811
rf	-11.0813
▁intense	-11.0815
▁Little	-11.0819
▁Garden	-11.0823
▁losing	-11.0824
▁explicit	-11.0824
▁feeding	-11.0826
▁Spring	-11.0828
▁excluding	-11.083
▁entity	-11.083
▁mood	-11.0832
ask	-11.0832
▁Mars	-11.0836
▁chip	-11.084
used	-11.084
multi	-11.0841
▁murder	-11.0843
▁flower	-11.0844
▁bowl	-11.0845
▁Defaults	-11.0848
kubectl	-11.0848
merge	-11.0848
▁convenient	-11.085
else	-11.0851
▁confused	-11.0854
SL	-11.0857
▁adopt	-11.086
▁gear	-11.0862
▁prominent	-11.0863
▁interpreted	-11.0864
▁wise	-11.0866
▁trials	-11.0866
▁calculated	-11.0872
▁Administration	-11.0872
▁integral	-11.0872
▁preparing	-11.0872
▁advertising	-11.0872
▁Kingdom	-11.0873
rus	-11.0879
aff	-11.0879
Content	-11.088
▁decimal	-11.0882
▁profiles	-11.0884
ending	-11.0887
▁operational	-11.0888
inter	-11.0888
▁viewed	-11.0893
▁enforcement	-11.0898
▁Video	-11.0898
▁mountains	-11.0901
▁certificates	-11.0902
▁Jones	-11.0903
▁falling	-11.0904
ock	-11.0905
gle	-11.0909
▁printer	-11.0912
▁cook	-11.0913
▁loose	-11.0918
▁SA	-11.092
▁overhead	-11.092
▁forests	-11.0921
▁syndrome	-11.0922
▁measurements	-11.0926
ENT	-11.0927
▁ST	-11.0928
▁shadow	-11.0931
í	-11.0934
▁PV	-11.0935
▁trusted	-11.0937
▁harder	-11.0942
▁curve	-11.0946
▁partial	-11.0947
rn	-11.0947
ender	-11.0951
▁arch	-11.0953
▁Modern	-11.0953
▁literally	-11.0954
school	-11.0954
fc	-11.0955
▁BC	-11.0955
SIZE	-11.0956
may	-11.0958
SH	-11.0958
quiet	-11.096
LC	-11.0965
Sa	-11.0965
▁actively	-11.0969
▁Pass	-11.097
lambda	-11.0973
▁Constitution	-11.0976
▁associate	-11.0978
verse	-11.0981
▁combine	-11.0981
rest	-11.0984
column	-11.0985
▁Market	-11.0985
▁afterwards	-11.0985
▁targeted	-11.0986
▁True	-11.0987
ste	-11.0992
cdot	-11.0998
▁denied	-11.0998
▁Division	-11.0998
▁sig	-11.1001
▁proteins	-11.1008
▁ubuntu	-11.1008
SHA	-11.1009
▁staying	-11.101
▁Action	-11.101
Date	-11.1017
▁rarely	-11.1017
Man	-11.102
▁bell	-11.1021
▁highlight	-11.1021
▁stuck	-11.1023
▁spin	-11.1024
ln	-11.1024
▁po	-11.1025
kb	-11.1027
Compile	-11.1032
▁Unit	-11.1032
▁Digital	-11.1033
▁Mill	-11.1036
▁Scott	-11.1036
▁lowest	-11.1036
short	-11.1037
▁ob	-11.1039
download	-11.1041
▁tech	-11.1042
▁filters	-11.1043
▁Chapter	-11.1046
▁MB	-11.1047
▁definitions	-11.1047
▁agriculture	-11.1048
▁Va	-11.105
oma	-11.1054
▁assistant	-11.1058
▁keyword	-11.1061
▁alignment	-11.1063
▁Area	-11.1063
▁SHA	-11.1064
▁wet	-11.1065
GIT	-11.1068
▁Sh	-11.1068
▁shower	-11.107
dom	-11.1071
▁continuing	-11.1074
▁Pat	-11.1075
ses	-11.1075
HS	-11.1078
▁speaker	-11.1079
▁Order	-11.108
GET	-11.1082
▁contribution	-11.1082
Ra	-11.1087
▁AS	-11.1089
▁excessive	-11.1091
▁Captain	-11.1092
────┼───────────	-11.1095
machine	-11.1096
▁habit	-11.1097
xx	-11.1098
▁Photo	-11.11
!)	-11.1101
▁realm	-11.1102
▁OK	-11.1102
unix	-11.1103
▁su	-11.1105
}}:{{	-11.1105
gov	-11.1106
▁discussions	-11.1108
▁Prince	-11.1108
▁prayer	-11.1113
▁Currently	-11.1114
▁wearing	-11.1118
ptr	-11.1121
repository	-11.1123
rous	-11.1124
▁contest	-11.1124
▁memories	-11.1125
▁Understanding	-11.1125
▁compile	-11.1126
▁cave	-11.1127
▁Ed	-11.1128
journal	-11.1128
▁nano	-11.1133
▁allocated	-11.1133
ifying	-11.1134
▁fund	-11.1135
▁headers	-11.1137
▁Chrome	-11.1139
database	-11.1142
tors	-11.1145
clear	-11.1145
ese	-11.115
▁loans	-11.1151
EP	-11.1152
▁venture	-11.1152
tain	-11.1158
exclude	-11.1158
sk	-11.1158
▁distinction	-11.116
▁perl	-11.1164
▁manufacturer	-11.1164
▁TLS	-11.1167
namespace	-11.1173
▁meters	-11.1173
▁Supreme	-11.1176
▁walked	-11.1176
App	-11.1176
ural	-11.1178
▁Daniel	-11.1179
ered	-11.1179
▁routes	-11.118
▁sa	-11.118
▁Eastern	-11.1181
▁caller	-11.1183
▁Watch	-11.1186
BSD	-11.1187
token	-11.119
▁sad	-11.119
cle	-11.1192
▁Micro	-11.1199
▁RFC	-11.1201
▁nervous	-11.1202
disable	-11.1202
▁killing	-11.1202
▁defend	-11.1205
▁evident	-11.1207
window	-11.121
verify	-11.1212
ened	-11.1213
▁thorough	-11.1218
▁gathered	-11.1221
▁scores	-11.1227
▁fascinating	-11.1227
▁orange	-11.123
▁consume	-11.1232
PKEY	-11.1232
▁poetry	-11.1233
UL	-11.1234
nl	-11.1234
▁runtime	-11.1241
▁refused	-11.1243
▁poly	-11.1246
▁accompanied	-11.1248
queue	-11.1248
▁margin	-11.1249
▁missed	-11.1251
▁invention	-11.1253
mathcal	-11.1253
infty	-11.1254
▁encounter	-11.1254
▁mistake	-11.1255
seq	-11.1255
worth	-11.1257
▁assembly	-11.1261
ral	-11.1261
▁brush	-11.1264
▁Being	-11.1265
▁Native	-11.1268
▁vessel	-11.1268
▁attempting	-11.1268
▁verbose	-11.1268
▁rename	-11.127
▁render	-11.127
child	-11.1271
▁VPN	-11.1271
▁hosting	-11.1272
ERROR	-11.1272
▁holes	-11.1274
▁witness	-11.1274
▁lift	-11.1275
▁resist	-11.1276
▁Several	-11.1276
▁wake	-11.1277
▁react	-11.1278
ä	-11.1279
▁pandemic	-11.1279
▁victory	-11.1279
AUTHOR	-11.128
▁determining	-11.1282
upon	-11.1282
ops	-11.1282
▁kick	-11.1284
▁Lincoln	-11.1285
▁shapes	-11.1287
LA	-11.129
▁mini	-11.1297
▁picked	-11.1297
▁Count	-11.1304
SYS	-11.1306
Ctrl	-11.1307
▁Town	-11.1309
▁engineers	-11.1309
▁unlike	-11.131
▁rows	-11.131
▁OP	-11.1314
▁pipeline	-11.1316
▁habitat	-11.1317
▁enterprise	-11.1322
AF	-11.1327
▁violent	-11.133
▁purchased	-11.133
▁lunch	-11.1332
ink	-11.1333
▁protecting	-11.1334
▁ASCII	-11.1334
Max	-11.1341
▁assignment	-11.1345
dict	-11.1347
▁interpret	-11.1347
▁Based	-11.1347
while	-11.1349
▁Consequently	-11.1349
rad	-11.135
▁van	-11.1351
▁cord	-11.1352
▁bugs	-11.1354
▁observation	-11.1357
▁cheese	-11.1357
▁struck	-11.1358
▁treating	-11.1359
▁stat	-11.1366
▁surprised	-11.1369
▁restricted	-11.1369
▁stones	-11.137
connect	-11.1372
cus	-11.1372
bad	-11.1375
Hello	-11.1377
▁NASA	-11.1377
vers	-11.1378
mal	-11.1378
▁Cap	-11.1381
▁appointed	-11.1383
▁celebration	-11.1383
height	-11.1384
▁attractive	-11.1384
RO	-11.1385
prop	-11.1387
ters	-11.1388
OC	-11.139
▁commission	-11.1392
Group	-11.1393
▁Sign	-11.1395
▁realized	-11.1396
▁Series	-11.1399
LY	-11.1401
▁savings	-11.1402
▁Boot	-11.1404
▁thirty	-11.1406
LOG	-11.1406
▁Put	-11.1411
▁finger	-11.1411
▁:)	-11.1412
▁finance	-11.1416
▁notable	-11.1417
fmt	-11.1418
far	-11.1418
ough	-11.1418
▁regulation	-11.1418
▁variations	-11.142
▁obviously	-11.1425
tom	-11.1428
▁FILE	-11.1431
metric	-11.1431
own	-11.1431
modules	-11.1432
pip	-11.1433
vg	-11.1435
▁enormous	-11.1436
▁shelter	-11.1436
▁Nor	-11.1437
▁cpu	-11.1437
"]	-11.1438
email	-11.1442
>]	-11.1446
▁mar	-11.1446
▁matrix	-11.1446
▁transparent	-11.1448
▁Th	-11.145
tags	-11.1452
▁downloaded	-11.1452
▁Inter	-11.1453
▁visiting	-11.1454
ess	-11.1455
▁crown	-11.1456
▁LED	-11.1458
▁scheduling	-11.146
▁"\	-11.146
▁opposition	-11.1463
hole	-11.1466
passwd	-11.1467
wp	-11.1467
▁Him	-11.1476
family	-11.1478
ken	-11.1478
KEY	-11.1479
timeout	-11.148
▁payments	-11.1481
Before	-11.1482
▁Age	-11.1482
▁IV	-11.1485
loc	-11.1488
▁factory	-11.1489
▁ISBN	-11.1491
Na	-11.1492
▁solely	-11.1496
▁compact	-11.1497
▁PE	-11.1502
▁variation	-11.1505
▁publish	-11.1506
▁meals	-11.1507
▁outdoor	-11.151
tus	-11.151
▁efficiently	-11.1512
▁hate	-11.1513
Last	-11.1514
▁encouraging	-11.1515
DI	-11.1517
▁pride	-11.1518
▁fever	-11.1522
▁minds	-11.1522
▁{{/	-11.1525
gg	-11.1528
born	-11.1528
▁Search	-11.1529
mid	-11.1531
Control	-11.1534
▁permit	-11.1535
▁temp	-11.1535
band	-11.1541
▁screening	-11.1542
usb	-11.1543
▁Nov	-11.1545
▁paste	-11.1549
▁Takes	-11.1549
▁Non	-11.1553
▁Write	-11.1555
destination	-11.1557
present	-11.1559
▁partnership	-11.156
PER	-11.1563
jar	-11.1566
▁shipping	-11.157
▁GUI	-11.1573
▁barriers	-11.1574
▁hierarchy	-11.1575
thro	-11.1578
▁threshold	-11.1579
cept	-11.1581
speed	-11.1583
ju	-11.1584
▁incorporate	-11.1584
▁engines	-11.1587
▁``	-11.1591
POSIX	-11.1592
▁Examples	-11.1593
▁exceptional	-11.1593
▁Joe	-11.1595
▁arbitrary	-11.1595
▁striking	-11.1595
▁entrance	-11.1595
▁confusion	-11.1596
DW	-11.1597
join	-11.16
account	-11.1601
▁Ya	-11.1601
uf	-11.1602
▁thoroughly	-11.1605
▁br	-11.1605
▁waters	-11.1607
document	-11.1609
pen	-11.161
▁moderate	-11.1619
zi	-11.1619
▁approval	-11.1622
▁yesterday	-11.1623
▁Cloud	-11.1626
meta	-11.1627
Once	-11.163
rr	-11.1631
▁assign	-11.1638
▁Device	-11.1639
▁council	-11.1641
*'	-11.1644
▁Machine	-11.1644
keep	-11.1646
Bar	-11.1648
▁appointment	-11.1662
▁Description	-11.1663
▁ch	-11.1663
▁settled	-11.1666
volume	-11.167
LL	-11.1672
bc	-11.1673
SM	-11.1674
▁examining	-11.1676
▁diameter	-11.1676
▁attempted	-11.1679
▁seriously	-11.168
arrow	-11.1681
Dis	-11.1682
ett	-11.1689
atic	-11.1694
▁gray	-11.1695
▁episode	-11.1696
▁optimization	-11.1696
Server	-11.1697
▁encrypted	-11.1698
▁communications	-11.1698
▁rev	-11.1698
Web	-11.1698
lly	-11.1699
AA	-11.17
DP	-11.1701
push	-11.1703
▁discipline	-11.1708
▁predict	-11.1708
▁blend	-11.171
nal	-11.1711
▁thermal	-11.1712
▁opinions	-11.1713
▁honour	-11.1713
tation	-11.1713
person	-11.1716
▁encourages	-11.1717
LO	-11.1721
▁Again	-11.1723
▁Cro	-11.1728
nn	-11.1729
▁resilience	-11.173
▁Min	-11.1735
▁exhibition	-11.1736
▁isolated	-11.1741
▁dynamics	-11.1743
▁Mon	-11.1747
OK	-11.1748
▁artistic	-11.1748
bridge	-11.1754
worm	-11.1756
LIBRARY	-11.1757
▁Corporation	-11.1757
switch	-11.176
▁contributed	-11.1761
▁sockets	-11.1761
▁surrounded	-11.1762
▁Download	-11.1764
▁glance	-11.1765
▁orbit	-11.1765
shift	-11.177
▁Ku	-11.1771
▁Computer	-11.1772
▁Nu	-11.1778
▁restaurant	-11.1778
▁somehow	-11.178
▁Trust	-11.1781
▁sensor	-11.1782
▁fossil	-11.1784
▁entities	-11.1785
math	-11.1785
▁duties	-11.1785
▁emerge	-11.1785
▁Jim	-11.1785
mul	-11.1786
PD	-11.1786
▁Apache	-11.1786
▁nutrition	-11.1787
una	-11.1789
▁roughly	-11.1793
▁butter	-11.1796
Title	-11.1799
▁pm	-11.18
▁apparent	-11.1803
▁burst	-11.1804
▁snapshot	-11.1805
▁employ	-11.1805
▁neuro	-11.1806
▁rsync	-11.1808
month	-11.1809
▁Scotland	-11.181
▁royal	-11.1811
▁begun	-11.1812
▁whilst	-11.1812
▁transferred	-11.1814
hen	-11.1815
▁preserved	-11.1815
▁acquire	-11.1819
▁Log	-11.1823
sock	-11.1825
params	-11.1825
bel	-11.1826
▁Doctor	-11.1828
▁Mu	-11.1828
kh	-11.1828
wan	-11.183
▁surfaces	-11.183
▁overview	-11.1832
▁Image	-11.1833
lig	-11.1833
CR	-11.1834
tcp	-11.1835
▁Mode	-11.1838
burn	-11.1839
elle	-11.1839
▁twelve	-11.1839
▁delicate	-11.1839
▁tongue	-11.1839
▁widespread	-11.1839
▁juice	-11.184
▁spectrum	-11.184
▁submitted	-11.1841
▁mm	-11.1845
▁Unlike	-11.1849
▁EC	-11.1849
▁revolution	-11.1849
▁Link	-11.1851
▁eastern	-11.1854
▁rice	-11.1854
▁silent	-11.1855
EST	-11.1855
plan	-11.1857
rev	-11.1857
▁anymore	-11.1862
ALL	-11.1866
pv	-11.1867
▁executing	-11.1867
▁literary	-11.1867
▁preserving	-11.1867
▁omitted	-11.1867
▁Francisco	-11.1868
▁boxes	-11.1868
▁bones	-11.187
▁trick	-11.1871
front	-11.1873
▁opt	-11.1874
mond	-11.1875
▁Core	-11.1876
▁rank	-11.1876
▁dating	-11.1877
ement	-11.188
ux	-11.1881
▁Convert	-11.1882
fn	-11.1882
▁wondering	-11.1886
▁audiences	-11.1888
▁impression	-11.1891
▁tied	-11.1891
▁poem	-11.1891
▁lookup	-11.1891
▁mineral	-11.1891
▁cats	-11.1893
▁queries	-11.1894
▁copper	-11.1895
AN	-11.1895
piece	-11.1896
▁Color	-11.1896
▁arrive	-11.1898
}(	-11.1898
▁breaks	-11.1899
partial	-11.19
▁lips	-11.1902
▁helper	-11.1903
▁compute	-11.1904
cia	-11.1907
▁traditions	-11.1908
▁Has	-11.1913
▁Game	-11.1916
▁Far	-11.1917
▁initiative	-11.1918
▁ultimate	-11.192
▁separation	-11.1922
▁laboratory	-11.1922
▁Ty	-11.1922
▁rocks	-11.1922
inch	-11.1923
▁Mass	-11.1923
▁hill	-11.1924
▁Way	-11.1924
▁Shi	-11.1924
Version	-11.1926
ami	-11.1927
▁affairs	-11.1929
ister	-11.193
▁occupied	-11.1931
▁Engineering	-11.1932
OSSL	-11.1932
SO	-11.1934
▁manifest	-11.1937
FD	-11.1937
append	-11.1937
▁genuine	-11.1941
▁Site	-11.1944
▁AM	-11.1945
▁nerve	-11.1947
▁resort	-11.1948
▁complications	-11.1949
▁moisture	-11.195
▁Sur	-11.1954
▁sorry	-11.1955
▁LA	-11.1956
▁Ltd	-11.1957
▁fi	-11.1958
▁Install	-11.1961
▁adventure	-11.1964
▁spoken	-11.1971
▁opens	-11.1975
▁strengthen	-11.1976
▁mathematical	-11.1977
▁patent	-11.1978
▁personnel	-11.1979
▁Para	-11.1981
▁ranges	-11.1981
▁structural	-11.1981
▁GCC	-11.1981
ching	-11.1983
▁blame	-11.1985
MAP	-11.1988
pur	-11.1988
▁Fund	-11.199
▁perceived	-11.1992
▁scenarios	-11.1993
▁taxes	-11.1993
▁bundle	-11.1997
found	-11.1999
green	-11.1999
▁scanner	-11.2
conv	-11.2006
▁roads	-11.2008
double	-11.2012
▁Iran	-11.2012
Although	-11.2018
bury	-11.2018
policy	-11.2019
sive	-11.202
▁DE	-11.2025
mis	-11.2025
tions	-11.2026
▁descriptions	-11.2033
▁Secretary	-11.2034
▁shaping	-11.2034
enter	-11.2034
▁IO	-11.2036
til	-11.2036
▁flows	-11.2037
▁paragraph	-11.2037
▁closing	-11.2038
dest	-11.204
▁adapter	-11.2042
▁///	-11.2044
▁mod	-11.2046
▁examined	-11.2046
Who	-11.2049
▁Op	-11.2054
css	-11.2056
▁minister	-11.2061
▁Empire	-11.2061
▁promising	-11.2061
▁Error	-11.2062
▁campaigns	-11.2064
▁invest	-11.2064
▁SIGN	-11.2067
KDF	-11.2071
▁monthly	-11.2078
chain	-11.2078
▁pale	-11.208
▁mutual	-11.208
▁Ram	-11.2081
tier	-11.2083
dist	-11.2088
▁recipe	-11.2088
▁hat	-11.2089
▁extraordinary	-11.2089
▁entertainment	-11.209
▁reign	-11.2093
zone	-11.2097
▁unlikely	-11.2099
uuid	-11.21
▁pointing	-11.2102
▁directions	-11.2104
SI	-11.2105
▁lands	-11.2106
▁kid	-11.2111
mk	-11.2112
▁Fair	-11.2114
▁movies	-11.2117
▁festival	-11.2117
▁phenomenon	-11.2117
▁Agency	-11.2118
▁dentist	-11.2118
▁renewable	-11.2118
BO	-11.212
▁raising	-11.2121
▁pushing	-11.2121
▁VALUE	-11.2124
▁binding	-11.2128
▁instant	-11.2131
▁labels	-11.2131
▁Ger	-11.2132
▁domains	-11.2133
Hi	-11.2134
ended	-11.2138
▁grace	-11.2138
none	-11.2141
▁admit	-11.2146
▁versus	-11.2146
ati	-11.2146
▁laser	-11.2149
▁considerations	-11.215
▁refs	-11.215
▁Hotel	-11.2151
▁studio	-11.2152
▁investigate	-11.2154
vol	-11.2154
dimensional	-11.2155
▁precisely	-11.2156
stable	-11.2157
▁expanding	-11.2159
▁firmware	-11.2162
aria	-11.2162
▁prevents	-11.2163
▁Could	-11.2165
▁toxic	-11.2166
▁investing	-11.2166
▁proceed	-11.2167
Out	-11.2169
▁dense	-11.2171
▁optimize	-11.2171
▁earned	-11.2171
▁constraints	-11.2172
▁drew	-11.2174
▁attitude	-11.2175
▁Ge	-11.2178
▁Arab	-11.2178
▁lasting	-11.2179
instance	-11.2179
▁li	-11.218
nan	-11.218
▁breathing	-11.2181
article	-11.2182
▁Forest	-11.2182
▁characteristic	-11.2185
CB	-11.2185
▁discrimination	-11.2187
▁'\	-11.2187
▁gate	-11.2188
▁operators	-11.2191
▁membrane	-11.2191
eu	-11.2192
hy	-11.2192
ras	-11.2193
▁Card	-11.2194
▁slot	-11.2194
▁coat	-11.2196
▁possession	-11.2196
▁Spirit	-11.2199
▁Systems	-11.2202
▁Revolution	-11.2202
▁pregnant	-11.2202
▁mi	-11.2204
inc	-11.2204
▁doi	-11.2205
ici	-11.2205
▁CEO	-11.2206
▁Angeles	-11.2206
▁Williams	-11.2207
▁substances	-11.2209
▁fa	-11.2212
could	-11.2212
▁\(	-11.2212
▁tired	-11.2212
▁hearts	-11.2213
white	-11.2215
▁folders	-11.222
▁Bre	-11.2221
FE	-11.2224
▁proportion	-11.2225
"></	-11.2227
standard	-11.2228
▁Major	-11.2229
▁intelligent	-11.2231
CM	-11.2231
qu	-11.2232
▁museum	-11.2233
oph	-11.2234
▁temple	-11.2234
▁Virtual	-11.2234
▁flying	-11.2238
support	-11.2238
▁©	-11.2239
▁brands	-11.2242
▁sleeping	-11.2247
▁Further	-11.2249
▁thrown	-11.2249
hol	-11.2249
▁Fer	-11.2253
▁tcp	-11.2253
▁god	-11.2258
▁os	-11.2258
▁Safety	-11.226
hor	-11.2261
▁boundary	-11.2262
}{\	-11.2268
▁varying	-11.2269
▁Muslim	-11.2271
▁networking	-11.2272
▁characterized	-11.2274
▁errno	-11.2278
▁kit	-11.2278
▁val	-11.2278
▁pulled	-11.2279
▁mac	-11.228
grub	-11.2282
▁campus	-11.2288
▁convenience	-11.2288
▁shock	-11.2289
▁unnecessary	-11.2289
▁pursue	-11.2297
cs	-11.2299
▁armed	-11.2299
▁satisfied	-11.2301
ston	-11.2304
His	-11.2305
▁cry	-11.2308
▁cipher	-11.231
▁UUID	-11.231
▁poll	-11.231
▁documented	-11.2311
▁Plus	-11.2313
▁humanity	-11.2314
▁accomplish	-11.2315
patch	-11.2316
INFO	-11.2318
▁Cancer	-11.2318
Config	-11.2318
▁pitch	-11.2319
spi	-11.232
▁mess	-11.232
▁proposal	-11.232
Ma	-11.232
▁SIG	-11.2323
▁IS	-11.2324
▁ears	-11.233
Return	-11.2332
▁loud	-11.2332
▁BUGS	-11.2332
▁refresh	-11.2336
▁aggressive	-11.2337
▁stations	-11.234
rule	-11.2341
▁pid	-11.2343
MI	-11.2346
▁heritage	-11.2346
▁gentle	-11.2346
▁der	-11.2347
▁Andrew	-11.2347
weight	-11.2348
move	-11.235
element	-11.2356
▁hopes	-11.2359
guide	-11.2371
▁Dutch	-11.2375
▁breakfast	-11.2375
▁shopping	-11.2376
ano	-11.2377
▁Cambridge	-11.2377
▁rough	-11.2381
▁embrace	-11.2383
▁Line	-11.2385
▁shutdown	-11.2387
ille	-11.2388
Filter	-11.239
▁Sciences	-11.2391
ban	-11.2391
game	-11.2397
▁shoes	-11.2398
▁Size	-11.24
▁essays	-11.2401
▁notification	-11.2401
▁appreciation	-11.2404
▁measuring	-11.2404
lb	-11.2405
▁tons	-11.2405
▁pilot	-11.2408
nch	-11.2409
Scan	-11.241
TM	-11.2411
eo	-11.2414
=$(	-11.2416
▁desert	-11.2416
▁Child	-11.2417
▁diagnosed	-11.2419
▁trail	-11.2423
▁Sal	-11.2425
▁Thread	-11.2428
▁losses	-11.243
▁classical	-11.2431
▁struggling	-11.2433
▁hub	-11.2434
UP	-11.2435
▁divide	-11.2436
▁acknowledge	-11.2437
▁failing	-11.244
▁Store	-11.2441
▁tc	-11.2441
▁signing	-11.2444
▁Oct	-11.2444
▁concluded	-11.2445
▁gr	-11.2445
▁declaration	-11.2448
aging	-11.245
▁Multi	-11.2452
▁Meanwhile	-11.2455
▁VG	-11.2458
▁bin	-11.2458
▁promotion	-11.2459
environment	-11.2459
▁cooling	-11.246
▁pleasant	-11.2461
▁acquisition	-11.2462
▁pressing	-11.2464
application	-11.2465
Mr	-11.247
▁searched	-11.2472
lash	-11.2473
▁Tree	-11.2476
▁consisting	-11.248
▁inspire	-11.2481
AB	-11.2482
▁portable	-11.2487
▁Fi	-11.249
▁faculty	-11.2491
▁fantastic	-11.2491
▁updating	-11.2491
▁speakers	-11.2492
▁favourite	-11.2493
▁influenced	-11.2496
cargo	-11.2496
USE	-11.2496
▁convey	-11.2498
▁fatal	-11.2499
▁Indians	-11.25
lk	-11.25
▁scratch	-11.2501
▁alter	-11.2505
been	-11.2505
topic	-11.2506
analyzer	-11.2506
els	-11.2507
▁hunting	-11.2508
▁brilliant	-11.2511
sized	-11.252
▁achieving	-11.252
Ba	-11.2521
▁Cell	-11.2525
uint	-11.2528
human	-11.2529
NT	-11.2532
▁workplace	-11.2533
▁insects	-11.2534
▁edited	-11.2535
▁Plant	-11.2537
THE	-11.2538
Page	-11.2539
▁graduate	-11.2541
▁Vo	-11.2542
▁authentic	-11.2542
▁tears	-11.2542
▁viewing	-11.2545
▁Given	-11.2546
▁BPF	-11.2548
 	-11.2549
▁entitled	-11.255
▁universities	-11.255
▁intricate	-11.255
▁receiver	-11.255
ye	-11.2552
▁greenhouse	-11.2552
▁pr	-11.2554
▁Christians	-11.2556
ache	-11.2557
▁modification	-11.2557
second	-11.2561
▁Bridge	-11.2561
▁pocket	-11.2564
▁establishing	-11.2565
▁breed	-11.2567
description	-11.2568
▁numeric	-11.2569
▁...;	-11.2569
▁URI	-11.257
▁des	-11.2572
▁GREEK	-11.2573
▁learners	-11.2575
▁Ki	-11.2575
▁profession	-11.2576
▁Firstly	-11.2578
mir	-11.2578
▁Sets	-11.2578
▁earliest	-11.2579
▁replacing	-11.258
▁demonstrates	-11.258
▁Protection	-11.258
▁forecast	-11.2582
lation	-11.2582
▁exclude	-11.2585
▁Prime	-11.2587
▁golden	-11.2589
▁deals	-11.2591
▁ban	-11.2591
DL	-11.2595
uch	-11.2596
▁shed	-11.2596
=/	-11.2598
▁reactions	-11.2599
(&	-11.2599
ulate	-11.2603
▁personally	-11.2603
▁sink	-11.2604
▁delicious	-11.2609
▁terrible	-11.2609
▁bulk	-11.2609
▁distant	-11.2609
▁warming	-11.2611
Ex	-11.2613
▁confirmation	-11.2613
▁Unix	-11.2616
▁Award	-11.2617
wer	-11.2617
OUT	-11.2618
▁featured	-11.2625
▁placing	-11.2628
▁prop	-11.2629
▁Allow	-11.2632
▁Heart	-11.2634
dt	-11.2634
ines	-11.2636
▁solved	-11.2636
▁Host	-11.2637
▁probe	-11.264
▁lung	-11.2641
▁Ball	-11.2645
▁counts	-11.2645
oe	-11.2648
ail	-11.2649
▁physics	-11.2656
▁inherent	-11.2659
▁suite	-11.2662
▁cyber	-11.2669
Disable	-11.2669
▁};	-11.2672
Home	-11.2674
ean	-11.2674
qm	-11.2675
superuser	-11.2676
▁perception	-11.2679
pet	-11.268
**:	-11.2681
▁heading	-11.2681
ole	-11.2691
dar	-11.2691
▁Commands	-11.2692
▁dramatic	-11.2698
▁celebrated	-11.2698
▁compensation	-11.2698
▁doctrine	-11.2698
▁films	-11.2698
▁thrive	-11.2699
▁kingdom	-11.2699
▁filling	-11.2699
clean	-11.27
▁Duke	-11.2702
▁parse	-11.2705
RAM	-11.2706
▁Beach	-11.2706
restrict	-11.2707
eh	-11.2708
▁computing	-11.2708
▁construct	-11.2709
▁fingers	-11.2714
vid	-11.2714
▁Adam	-11.2715
▁SSD	-11.2717
▁geo	-11.2719
eck	-11.2719
▁protest	-11.272
eau	-11.2722
▁mat	-11.2723
▁shoulder	-11.2724
▁HD	-11.2727
▁incredible	-11.2728
DATA	-11.273
och	-11.2731
▁decreased	-11.2732
▁sys	-11.2733
▁Had	-11.2735
▁LC	-11.2736
▁screenshot	-11.2737
▁painful	-11.2738
▁~/.	-11.2738
ML	-11.2739
ington	-11.2742
Default	-11.2744
▁attended	-11.2752
▁Elizabeth	-11.2756
oriented	-11.2759
▁Atlantic	-11.2759
▁handled	-11.2759
▁bunch	-11.276
▁tension	-11.276
▁membership	-11.2761
ilia	-11.2761
▁readily	-11.2762
grade	-11.2762
▁GB	-11.2763
▁Four	-11.2763
users	-11.2763
▁tackle	-11.2764
▁adaptation	-11.2764
▁guys	-11.2764
acc	-11.2765
▁wing	-11.2766
▁Disease	-11.2769
▁popularity	-11.277
▁invited	-11.2771
▁routines	-11.2775
▁sends	-11.2775
ele	-11.2776
▁inclusive	-11.2776
▁centers	-11.2776
Port	-11.2779
ibility	-11.2779
iling	-11.2779
▁span	-11.2786
ria	-11.2787
▁Following	-11.2787
Script	-11.2787
▁featuring	-11.2788
▁timing	-11.2789
▁hex	-11.2791
▁pe	-11.2793
zen	-11.2794
▁avoiding	-11.2796
ira	-11.28
]);	-11.28
▁Environment	-11.2804
Call	-11.2805
▁translated	-11.2805
▁shoot	-11.2809
▁Cur	-11.2809
▁Islam	-11.2812
▁Rose	-11.2814
)).	-11.2815
▁compelling	-11.2819
too	-11.2824
Model	-11.2825
▁acceptable	-11.2827
▁upcoming	-11.2827
sig	-11.2832
iding	-11.2835
▁tri	-11.2836
variable	-11.2837
Ka	-11.2838
▁Columbia	-11.2839
party	-11.284
▁append	-11.2843
assert	-11.2844
▁Arm	-11.2844
▁DO	-11.2846
dpkg	-11.2847
▁Arch	-11.2848
▁firms	-11.2848
omega	-11.2848
▁nursing	-11.2849
▁Obama	-11.2849
pal	-11.2851
phys	-11.2851
▁grey	-11.2851
▁blocked	-11.2852
▁cgroup	-11.2853
Override	-11.286
▁Functions	-11.2862
come	-11.2864
▁routing	-11.2866
▁Den	-11.2866
▁PHP	-11.2867
▁declare	-11.2868
▁emerged	-11.2872
▁md	-11.2873
▁Very	-11.2877
▁theories	-11.2878
▁courts	-11.2883
▁watched	-11.2883
▁HP	-11.2883
Cache	-11.2884
▁Aug	-11.2885
mysql	-11.2888
BA	-11.2888
▁redirect	-11.2889
▁ski	-11.2889
▁disaster	-11.2893
▁believes	-11.2894
}"	-11.2895
▁activate	-11.2896
▁mile	-11.29
▁repositories	-11.2903
ense	-11.2908
▁wa	-11.2909
▁cattle	-11.291
▁wheat	-11.291
sur	-11.2911
ien	-11.2912
▁DEVICE	-11.2914
Dir	-11.2914
drop	-11.2916
▁fitness	-11.2917
setup	-11.2917
Host	-11.2918
▁creatures	-11.2919
▁neutral	-11.2923
▁neighborhood	-11.2923
▁valley	-11.2924
▁settlement	-11.2924
▁Form	-11.2925
▁Bob	-11.2926
▁oldest	-11.2926
▁Korea	-11.2927
Other	-11.2929
mor	-11.2929
defined	-11.2929
▁accurately	-11.2933
▁unto	-11.2934
▁guns	-11.2934
replace	-11.2934
▁metrics	-11.2936
cor	-11.2939
▁volunteer	-11.2939
pu	-11.294
α	-11.294
▁quantum	-11.294
▁callback	-11.2941
Manager	-11.2942
ws	-11.2943
▁whitespace	-11.2944
▁mg	-11.2946
ERR	-11.2948
ground	-11.2951
▁Remove	-11.2953
into	-11.2958
ere	-11.2958
ome	-11.296
▁BE	-11.2961
ftp	-11.2962
▁admitted	-11.2972
▁concert	-11.2972
ied	-11.2972
▁IDs	-11.2977
▁molecules	-11.2982
▁physically	-11.2984
▁bool	-11.2987
▁lying	-11.2987
▁truck	-11.2989
eration	-11.2993
Feature	-11.2995
▁Zealand	-11.3002
▁ignoring	-11.3002
▁Senate	-11.3002
CP	-11.3003
tldr	-11.3004
▁tender	-11.3004
▁PA	-11.3004
thread	-11.3004
nia	-11.3006
▁Za	-11.3006
cious	-11.3006
API	-11.3011
▁Drive	-11.3016
▁Dar	-11.3018
▁knee	-11.3018
craft	-11.3022
▁Fig	-11.3022
chan	-11.3023
▁participating	-11.3033
▁league	-11.3033
▁indication	-11.3033
▁consistency	-11.3033
}}/{{	-11.3034
desc	-11.3038
▁reflected	-11.304
▁rescue	-11.3041
nar	-11.3042
▁cloth	-11.3043
▁cycles	-11.3043
▁regulate	-11.3043
▁std	-11.3047
GNU	-11.3048
CT	-11.305
▁Mag	-11.305
▁worker	-11.3051
▁bow	-11.3054
dry	-11.3054
▁>=	-11.3055
▁functioning	-11.3055
five	-11.3055
▁pit	-11.3055
nr	-11.3056
▁stretch	-11.3059
▁fork	-11.3061
Resource	-11.3062
▁Object	-11.3062
▁buried	-11.3064
Ref	-11.3066
▁disability	-11.3066
▁protective	-11.3068
John	-11.3068
Client	-11.3071
▁maximize	-11.3072
history	-11.3074
###	-11.3074
PT	-11.3076
cpp	-11.3077
Move	-11.3078
▁wash	-11.3079
▁bare	-11.3081
▁sake	-11.3082
HA	-11.3083
fp	-11.3086
▁profound	-11.3087
std	-11.3089
▁consequence	-11.3092
▁compounds	-11.3092
▁founder	-11.3094
▁inclusion	-11.3095
▁cooperation	-11.3095
▁joining	-11.3098
▁accounting	-11.31
fr	-11.3101
imp	-11.3103
cmp	-11.3105
▁tutorial	-11.3109
tory	-11.3112
lf	-11.3112
▁evolving	-11.3113
Stop	-11.3117
▁favour	-11.3117
▁deck	-11.3118
▁shore	-11.3119
}_	-11.312
devices	-11.3125
Recursively	-11.3126
▁seemingly	-11.3126
same	-11.3126
▁scenes	-11.3127
▁"*	-11.3128
▁chocolate	-11.3135
▁wooden	-11.3136
▁grounds	-11.3136
IL	-11.3138
logical	-11.3142
▁shooting	-11.3147
▁bucket	-11.3149
▁governor	-11.3151
iest	-11.3152
bre	-11.3155
▁tract	-11.3156
responsibilities	-11.3157
▁administrative	-11.3157
OD	-11.3158
▁bandwidth	-11.3158
▁sunlight	-11.3159
▁Generate	-11.3159
▁hip	-11.316
▁Christianity	-11.3163
▁influences	-11.3163
▁Due	-11.3165
still	-11.3167
▁magnet	-11.3169
▁Lastly	-11.3169
▁wound	-11.317
tes	-11.3175
Dump	-11.3175
Ch	-11.3176
─┼──────────────	-11.3177
Next	-11.3182
ifier	-11.3184
ei	-11.3185
▁Moon	-11.3187
leg	-11.3192
▁admin	-11.3192
▁belongs	-11.3193
▁worn	-11.3195
skip	-11.3196
▁Main	-11.3197
▁Gal	-11.3198
register	-11.3202
▁flood	-11.3203
▁hoping	-11.3203
▁(!	-11.3205
▁Range	-11.3206
▁tower	-11.3207
ages	-11.3207
▁repo	-11.3207
▁Ser	-11.3207
rel	-11.3209
eval	-11.3209
▁intensity	-11.321
▁offices	-11.3211
▁consumed	-11.3213
▁breeding	-11.3215
▁nest	-11.3218
▁pleased	-11.3219
tch	-11.3219
ude	-11.322
▁analyzing	-11.322
▁leather	-11.322
▁hypothesis	-11.322
Bus	-11.322
ked	-11.322
▁hydrogen	-11.322
wall	-11.3223
Unit	-11.3226
▁worthy	-11.3227
▁threatened	-11.3228
week	-11.3232
▁Date	-11.3232
▁coastal	-11.3233
small	-11.3235
May	-11.3237
▁pam	-11.3237
sey	-11.3238
▁motivation	-11.3239
rian	-11.324
Does	-11.324
▁Besides	-11.3241
itch	-11.3241
SR	-11.3244
▁Ali	-11.3244
▁Analysis	-11.3246
▁Pen	-11.3248
ISO	-11.3252
▁referring	-11.3253
fold	-11.3253
▁Nevertheless	-11.3253
MIN	-11.3253
▁caution	-11.3254
▁pa	-11.3255
▁asks	-11.3257
Enter	-11.3257
PR	-11.3257
▁slight	-11.3257
Free	-11.3258
▁Ob	-11.3258
▁assuming	-11.3259
▁reveals	-11.3259
▁edges	-11.3261
gel	-11.3262
▁designated	-11.3262
NC	-11.3263
▁·	-11.3264
Address	-11.3266
▁consist	-11.3266
ago	-11.3267
▁companion	-11.3272
pop	-11.3273
mont	-11.3274
comment	-11.3277
bt	-11.3278
dia	-11.3279
▁grows	-11.328
▁grasp	-11.3283
▁amidst	-11.3284
▁calories	-11.3285
▁dose	-11.3285
▁minerals	-11.3288
Good	-11.329
▁gifts	-11.329
>&	-11.329
▁dr	-11.3294
▁aged	-11.3295
▁province	-11.3296
▁fallen	-11.3298
▁subsequently	-11.3301
▁Excel	-11.3302
▁physician	-11.3304
▁newspaper	-11.3304
▁representative	-11.3305
eur	-11.3306
effective	-11.3306
▁retail	-11.3309
thing	-11.3309
delta	-11.3312
HO	-11.3312
Up	-11.3313
▁premium	-11.3315
▁sacred	-11.3315
Point	-11.3315
▁Enter	-11.3316
▁towns	-11.3317
▁fed	-11.3319
▁exp	-11.3319
rand	-11.3322
▁trap	-11.3328
▁Massachusetts	-11.333
▁stops	-11.3332
▁poet	-11.3333
▁accomplished	-11.3333
Part	-11.3336
▁Memory	-11.3337
▁intention	-11.3338
wind	-11.3339
people	-11.3342
▁conversations	-11.3343
DO	-11.3343
▁babies	-11.3347
▁Temple	-11.3347
▁criticism	-11.3347
▁Je	-11.3347
▁designing	-11.3349
▁Trade	-11.3349
▁Ju	-11.3352
▁Smart	-11.3356
▁Hand	-11.3356
▁parking	-11.3357
▁disappear	-11.3361
▁perspectives	-11.3363
▁verb	-11.3364
DR	-11.3364
▁Convention	-11.3367
▁unity	-11.3369
ically	-11.337
pod	-11.3371
▁reward	-11.3372
▁forming	-11.3372
▁ping	-11.3372
▁behalf	-11.3375
▁Path	-11.3375
types	-11.3376
▁switching	-11.3377
DEBUG	-11.3378
▁subtle	-11.3382
▁Jackson	-11.3383
▁occasionally	-11.3384
Ca	-11.3385
awk	-11.3387
▁integrate	-11.339
▁Max	-11.3395
TD	-11.3395
mas	-11.3397
▁fur	-11.3398
▁Battle	-11.3399
▁uint	-11.3399
▁photographs	-11.34
▁contributes	-11.34
Sub	-11.3401
▁spots	-11.3402
▁extracted	-11.3403
▁shorter	-11.3403
▁lease	-11.3405
▁Mol	-11.3406
▁NOTES	-11.3408
▁fd	-11.3409
▁embracing	-11.3411
▁phenomena	-11.3411
▁transparency	-11.3411
▁batteries	-11.3411
Step	-11.3411
▁precious	-11.3412
▁friendship	-11.3413
Stream	-11.3415
▁consultation	-11.3415
UT	-11.3417
▁SM	-11.342
ttle	-11.342
${	-11.3424
ident	-11.3428
▁texts	-11.3429
▁Volume	-11.343
+\	-11.343
Initialize	-11.3432
▁diagram	-11.3434
▁modifications	-11.3435
▁inch	-11.3439
{}	-11.344
beta	-11.344
▁attending	-11.3441
though	-11.3442
▁Festival	-11.3443
iti	-11.3444
▁reminder	-11.3444
ded	-11.3446
▁attach	-11.3448
▁rational	-11.3449
kar	-11.3453
tun	-11.3453
▁cholesterol	-11.3459
▁'*	-11.3461
·	-11.3462
▁rail	-11.3463
▁reflects	-11.3464
▁pushed	-11.3467
▁Resources	-11.3468
URL	-11.3473
▁mathematics	-11.3475
▁societies	-11.3475
/\	-11.3477
ave	-11.3478
Base	-11.3479
▁tune	-11.348
▁crack	-11.3482
General	-11.3485
▁patches	-11.3486
▁Bal	-11.3488
NG	-11.3489
▁Cup	-11.3489
xe	-11.3491
▁dreams	-11.3493
▁Price	-11.3499
▁equity	-11.3508
except	-11.3508
▁iPhone	-11.3508
▁islands	-11.3508
▁Documentation	-11.3509
coming	-11.3509
▁jar	-11.3509
▁PAM	-11.3516
▁dish	-11.3516
cloud	-11.3516
▁surely	-11.3518
▁sensitivity	-11.3518
▁magazine	-11.352
▁Advanced	-11.3521
▁actors	-11.3524
▁Ethernet	-11.3526
▁cure	-11.3527
▁###	-11.3528
Safe	-11.3528
▁females	-11.3531
▁Ask	-11.3533
▁Han	-11.3535
Select	-11.3536
sample	-11.3537
▁trauma	-11.3539
▁Ministry	-11.354
▁currency	-11.354
▁incredibly	-11.354
▁chest	-11.3541
▁captain	-11.3541
▁involvement	-11.3542
▁activated	-11.3542
▁Often	-11.3543
▁settle	-11.3543
▁unused	-11.3545
▁varied	-11.3546
▁mice	-11.3547
▁segments	-11.3547
▁Yu	-11.3547
▁equality	-11.3553
▁contracts	-11.3556
▁asset	-11.3559
▁lovely	-11.3559
▁sup	-11.356
▁peers	-11.3561
response	-11.3561
▁landing	-11.3562
GE	-11.3564
▁chips	-11.3565
▁guy	-11.3566
▁quoted	-11.3569
Bo	-11.3572
▁bid	-11.3572
▁dedication	-11.3572
mathbf	-11.3572
▁SANE	-11.3573
▁verification	-11.3573
rid	-11.3575
▁`$	-11.3575
▁anger	-11.3576
▁illustrate	-11.3578
▁evaluated	-11.358
condition	-11.358
▁Jacob	-11.358
▁Later	-11.3581
▁mold	-11.3583
▁generates	-11.3583
▁retreat	-11.3583
▁gl	-11.3583
▁liberal	-11.3586
^{-	-11.3586
random	-11.3587
track	-11.3587
▁rays	-11.3588
▁Sound	-11.359
▁panels	-11.3593
▁>>	-11.3594
shire	-11.3594
▁passphrase	-11.3595
▁spare	-11.3596
▁developments	-11.3601
▁Del	-11.3603
▁independently	-11.3604
▁ceremony	-11.3605
▁enemies	-11.3605
▁conjunction	-11.3605
century	-11.3606
▁anxious	-11.3606
▁Camp	-11.3608
▁racial	-11.3609
▁adoption	-11.3609
▁Grant	-11.361
▁pink	-11.3611
▁Within	-11.3612
because	-11.3614
▁fleet	-11.3616
wick	-11.3616
▁formatting	-11.3618
▁satellite	-11.362
▁Alex	-11.362
▁gods	-11.362
▁PS	-11.3621
▁Contact	-11.3624
LM	-11.3624
look	-11.3626
▁Michigan	-11.3626
▁plates	-11.3626
vim	-11.3627
▁confident	-11.3628
Device	-11.3629
something	-11.3629
alt	-11.3631
▁ecosystem	-11.3632
▁winner	-11.3635
▁suggestion	-11.3638
▁pricing	-11.3638
▁Colorado	-11.3638
yard	-11.3641
NF	-11.3644
▁scholars	-11.3646
TC	-11.3646
▁Mother	-11.3647
Po	-11.3647
little	-11.3649
▁Third	-11.3654
▁mistakes	-11.3656
hn	-11.3659
▁Private	-11.366
▁ticket	-11.3661
▁Philip	-11.3661
▁palm	-11.3662
▁delight	-11.3663
▁Map	-11.3664
Book	-11.3666
▁crystal	-11.3666
ION	-11.3673
▁Coast	-11.3673
▁Station	-11.3674
▁intent	-11.3678
▁Would	-11.3685
▁provisions	-11.3688
▁developer	-11.369
▁acids	-11.3691
▁incoming	-11.3692
mc	-11.3693
▁warrant	-11.3694
▁filesystems	-11.3694
End	-11.3694
▁theoretical	-11.3695
ima	-11.3696
utter	-11.37
▁tracks	-11.3702
▁mandatory	-11.3704
▁decay	-11.3704
▁residential	-11.3704
▁consciousness	-11.3705
dig	-11.3706
askubuntu	-11.3706
▁velocity	-11.3707
▁pur	-11.3708
bid	-11.3711
Take	-11.3715
complete	-11.3716
▁brothers	-11.3717
▁separately	-11.3717
mun	-11.3718
eal	-11.3718
nam	-11.3723
MAN	-11.3726
Input	-11.3726
lac	-11.3727
▁radical	-11.3728
▁existed	-11.373
▁designers	-11.373
▁hero	-11.3732
▁Ham	-11.3734
▁collaborative	-11.3737
Mode	-11.3738
SELECT	-11.3738
▁axis	-11.3739
▁unlock	-11.374
LD	-11.3741
pot	-11.3743
MAC	-11.3745
dan	-11.3748
▁drinks	-11.3748
custom	-11.3748
▁Stone	-11.375
INT	-11.3751
▁Send	-11.3751
ologist	-11.3751
▁ethnic	-11.3752
strip	-11.3755
locale	-11.3755
▁Quality	-11.3756
▁displaying	-11.3759
^\	-11.376
secure	-11.3761
▁col	-11.3763
notify	-11.3765
▁nurse	-11.3766
▁frames	-11.3769
о	-11.377
▁dioxide	-11.377
▁situated	-11.377
super	-11.377
emia	-11.3772
▁civilization	-11.3772
dal	-11.3774
conda	-11.3775
lee	-11.3776
▁Bell	-11.3777
los	-11.3779
▁filenames	-11.3781
▁pharmaceutical	-11.3781
▁fortune	-11.3787
▁yards	-11.3787
driver	-11.3787
▁google	-11.3792
▁adapted	-11.3793
▁fraction	-11.3797
ids	-11.3797
sheet	-11.3798
yo	-11.3799
IV	-11.3801
▁privileges	-11.3802
Options	-11.3805
bot	-11.3805
library	-11.3806
▁dishes	-11.3808
▁strive	-11.3809
▁Lab	-11.3809
▁tickets	-11.381
▁SC	-11.3811
perf	-11.3811
Each	-11.3812
▁Cu	-11.3815
▁cameras	-11.3816
▁Article	-11.3822
▁locked	-11.3823
CI	-11.3824
ire	-11.3825
▁Pakistan	-11.3825
hill	-11.3828
▁Brazil	-11.3835
▁outline	-11.3835
▁varieties	-11.3837
▁rigorous	-11.3838
Even	-11.3842
▁Mil	-11.3845
Builder	-11.3845
▁rotation	-11.3847
▁inspect	-11.3851
▁relate	-11.3853
▁traveling	-11.3858
debian	-11.3859
▁traits	-11.386
special	-11.3861
▁Content	-11.3861
▁uninstall	-11.3862
cam	-11.3862
pat	-11.3862
fat	-11.3863
▁slaves	-11.3869
ike	-11.3869
IVE	-11.387
▁certification	-11.387
▁bra	-11.3871
▁hunt	-11.3871
▁dining	-11.3873
sym	-11.3874
IR	-11.3878
▁Hebrew	-11.3879
▁Geo	-11.388
▁specialist	-11.3881
aa	-11.3881
▁linker	-11.3881
BB	-11.3883
▁evolved	-11.3886
arr	-11.3887
▁AP	-11.3888
▁fake	-11.3888
▁therapeutic	-11.3893
rpm	-11.3895
▁awarded	-11.3895
ml	-11.3898
▁accommodate	-11.3904
▁comparing	-11.3904
Length	-11.3904
▁molecular	-11.3904
▁Games	-11.3904
▁jewelry	-11.3905
▁arrangement	-11.3905
▁march	-11.3905
gif	-11.3905
▁organize	-11.3905
▁dying	-11.3907
▁injured	-11.3907
tho	-11.3908
▁Firefox	-11.3908
ight	-11.3908
ched	-11.391
binary	-11.3911
wards	-11.3911
ctor	-11.3912
▁tele	-11.3913
logy	-11.3916
▁yard	-11.392
daemon	-11.3923
▁dig	-11.3928
▁releases	-11.3929
elli	-11.393
▁locate	-11.3931
▁flesh	-11.3938
fields	-11.3941
▁achievement	-11.3942
▁apple	-11.3944
▁deployment	-11.3944
▁skilled	-11.3946
abs	-11.3946
▁Essay	-11.3947
▁balanced	-11.3948
vic	-11.3949
NE	-11.395
Using	-11.3951
gs	-11.3954
IE	-11.3956
▁particle	-11.3956
▁bpf	-11.3957
FT	-11.3957
PM	-11.3957
▁luxury	-11.3959
storage	-11.3959
▁occurring	-11.396
duc	-11.396
▁Treatment	-11.3963
OL	-11.3963
▁Attribute	-11.3964
extra	-11.3965
▁Cy	-11.3967
▁cater	-11.3969
▁Scholar	-11.3971
▁jurisdiction	-11.3972
▁likelihood	-11.3972
▁insulin	-11.3972
▁Governor	-11.3972
▁sauce	-11.3972
▁disabilities	-11.3972
▁tends	-11.3972
mini	-11.3973
▁fought	-11.3974
▁carries	-11.3974
▁Tim	-11.3978
▁passwords	-11.398
▁biology	-11.3981
memory	-11.3982
phe	-11.3982
▁laugh	-11.3987
Query	-11.3987
Box	-11.3988
LINE	-11.3992
▁Upon	-11.3992
uni	-11.3992
▁belt	-11.3993
▁Bor	-11.3993
▁gut	-11.3993
▁discount	-11.3993
▁asthma	-11.3994
──┼─────────────	-11.3995
▁Santa	-11.3995
▁Off	-11.4002
▁spatial	-11.4003
ges	-11.4005
▁Oregon	-11.4006
▁Jersey	-11.4006
▁contrary	-11.4006
▁receives	-11.4006
▁attorney	-11.4006
▁Was	-11.4006
minute	-11.4007
Limit	-11.4007
EX	-11.4008
eng	-11.4011
▁rivers	-11.4011
great	-11.4014
▁Wil	-11.4015
coreutils	-11.4017
▁elections	-11.4018
▁promises	-11.402
fetch	-11.4022
monitor	-11.4025
▁Berlin	-11.4025
generic	-11.4025
▁Application	-11.4032
settings	-11.4033
▁absorb	-11.4033
▁rep	-11.4035
▁Pri	-11.4035
▁conform	-11.4039
▁hosted	-11.404
▁obesity	-11.404
▁residence	-11.404
▁imaging	-11.404
▁bedroom	-11.4042
iva	-11.4043
▁promised	-11.4044
==	-11.4045
▁Marine	-11.4048
▁appreciated	-11.4048
▁resume	-11.4055
▁grain	-11.4057
▁Angel	-11.4058
plain	-11.4059
reset	-11.406
Li	-11.4063
▁Give	-11.4065
▁incorrect	-11.4065
roll	-11.4067
tte	-11.4068
▁Carl	-11.4069
▁Week	-11.407
▁discussing	-11.4071
▁Physical	-11.4072
▁curiosity	-11.4074
▁integrating	-11.4074
▁purchasing	-11.4074
sol	-11.4075
▁organisation	-11.4076
```	-11.4077
TION	-11.4077
anti	-11.4077
lower	-11.4077
EDIT	-11.4078
▁clicking	-11.4079
bro	-11.4079
▁photography	-11.4081
]*	-11.4082
rated	-11.4083
▁Conclusion	-11.4083
▁associations	-11.4085
▁viruses	-11.4086
▁plugins	-11.4087
▁fifth	-11.4088
▁globe	-11.4089
▁Taylor	-11.4093
▁Down	-11.4093
▁tissues	-11.4095
▁arc	-11.4096
▁sing	-11.4097
▁boards	-11.4098
Two	-11.4099
▁formatted	-11.41
▁harvest	-11.4103
▁btrfs	-11.4103
▁len	-11.4106
▁peculiar	-11.4107
▁patience	-11.4107
ona	-11.4107
▁pepper	-11.4109
Instance	-11.4109
▁productive	-11.4109
▁blockchain	-11.411
pho	-11.411
▁accessibility	-11.4111
▁drops	-11.4112
▁scroll	-11.4113
▁optical	-11.4114
▁passive	-11.4114
▁courage	-11.4119
}}'	-11.412
▁fate	-11.4123
▁packed	-11.4124
▁deprecated	-11.4124
course	-11.4124
▁Char	-11.4128
gv	-11.413
▁quota	-11.4132
▁succeeded	-11.4134
▁sentiment	-11.4134
▁Pope	-11.4136
▁highlighting	-11.4136
Pa	-11.4136
bits	-11.4141
summary	-11.4142
▁PowerShell	-11.4143
▁acute	-11.4145
▁administrator	-11.4146
▁Navy	-11.4146
▁CR	-11.4147
▁desk	-11.4147
BE	-11.4148
▁inspection	-11.4148
▁cancel	-11.4149
▁Chris	-11.415
▁showcase	-11.4151
metadata	-11.4153
Click	-11.4154
▁scar	-11.4154
property	-11.4155
----	-11.4158
▁SE	-11.4158
▁sword	-11.4158
▁arranged	-11.4159
▁organ	-11.416
Mon	-11.416
▁bags	-11.4161
▁reserve	-11.4163
▁disks	-11.4163
ert	-11.4163
▁partly	-11.4166
bil	-11.4166
▁Mike	-11.4169
▁Matt	-11.417
END	-11.4171
▁dominant	-11.4171
▁investments	-11.4173
▁democracy	-11.4178
▁glucose	-11.4178
▁utilities	-11.4178
▁inhabitants	-11.4178
rip	-11.4178
▁bathroom	-11.4178
sure	-11.4179
Google	-11.418
▁cor	-11.418
▁relating	-11.418
▁dietary	-11.4181
region	-11.4183
▁apartment	-11.4184
▁outstanding	-11.4185
▁twin	-11.4187
Process	-11.4188
NP	-11.4191
▁lu	-11.4191
▁subset	-11.4192
LT	-11.4193
▁males	-11.4193
▁leap	-11.4195
▁pupils	-11.4198
}^	-11.4198
Header	-11.4202
▁doc	-11.4204
FI	-11.4208
▁democratic	-11.4211
▁flush	-11.4211
▁restoration	-11.4212
▁drought	-11.4212
Factory	-11.4212
center	-11.4213
▁continent	-11.4213
did	-11.4215
▁expense	-11.4217
▁verse	-11.4217
▁Fall	-11.4217
platform	-11.4217
▁exec	-11.4218
▁forty	-11.4219
books	-11.4219
▁Mountain	-11.4219
▁graphic	-11.422
▁Er	-11.4222
cross	-11.4223
▁Come	-11.4224
looking	-11.4227
clone	-11.4233
▁wrap	-11.4234
Try	-11.4235
▁athletes	-11.4235
▁forgotten	-11.4236
▁Stephen	-11.4238
GS	-11.4239
****************	-11.4239
▁airport	-11.424
▁usb	-11.4241
zz	-11.4242
once	-11.4242
▁Setting	-11.4246
():	-11.4247
а	-11.4247
е	-11.4247
manager	-11.4248
▁AL	-11.4249
▁prize	-11.4249
▁firewall	-11.425
▁Reg	-11.4251
Br	-11.4253
▁Ultimately	-11.4253
▁databases	-11.4254
both	-11.4254
Action	-11.4254
final	-11.4255
▁distinguish	-11.4256
▁honey	-11.4257
▁preference	-11.426
During	-11.4261
▁Record	-11.4261
▁distinguished	-11.4264
ologists	-11.4269
▁Parliament	-11.427
▁trailing	-11.4271
rsync	-11.4272
▁besides	-11.4273
▁visibility	-11.4275
▁Current	-11.4275
guard	-11.4275
▁Feb	-11.4275
▁Sports	-11.4275
Car	-11.4281
yer	-11.4283
▁screw	-11.4284
▁hint	-11.4285
bing	-11.4287
▁aligned	-11.4287
▁Alexander	-11.4288
cfg	-11.4288
equal	-11.4293
▁drag	-11.4293
cluster	-11.4296
▁ON	-11.4297
▁Connect	-11.4299
blue	-11.43
▁arrest	-11.4301
▁restored	-11.4302
..."	-11.4304
---------------	-11.4304
readable	-11.4307
ester	-11.4309
UNIT	-11.4311
yan	-11.4311
PO	-11.4312
cost	-11.4312
▁coding	-11.4312
▁EINVAL	-11.4312
▁gravity	-11.4313
▁engineer	-11.4314
snap	-11.4314
▁acc	-11.4316
▁cookies	-11.4317
▁gaming	-11.4318
▁certified	-11.4319
▁grab	-11.4321
east	-11.4323
trans	-11.4323
▁pl	-11.4324
▁gen	-11.4324
▁restaurants	-11.4325
▁url	-11.4326
▁globally	-11.4326
global	-11.4329
▁suggesting	-11.433
▁Tech	-11.4332
▁holy	-11.4333
▁HEAD	-11.4334
▁Wa	-11.4335
▁Total	-11.4335
sea	-11.4337
▁Zo	-11.4341
▁highlighted	-11.4341
▁remembered	-11.4346
▁McC	-11.4347
soft	-11.4348
▁wage	-11.4348
▁Hard	-11.4349
gro	-11.4349
▁triggers	-11.435
▁gateway	-11.435
▁climb	-11.4351
![	-11.4351
▁eligible	-11.4352
▁stunning	-11.4352
▁welfare	-11.4352
▁packaging	-11.4353
▁tin	-11.4353
gon	-11.4353
▁gathering	-11.4355
sy	-11.4356
stage	-11.4357
tp	-11.4358
▁Economic	-11.4359
▁exploit	-11.436
▁abandoned	-11.4361
▁sail	-11.4362
eller	-11.4362
Program	-11.4363
▁implements	-11.4366
En	-11.4368
▁praise	-11.4369
inner	-11.4372
pha	-11.4374
bio	-11.4374
video	-11.4379
▁Future	-11.4381
▁brick	-11.4382
▁connector	-11.4383
▁Cook	-11.4383
▁abroad	-11.4385
▁idle	-11.4385
▁compete	-11.4388
▁Executive	-11.4388
▁Enable	-11.4388
▁transmitted	-11.4388
SYSTEMD	-11.4391
▁Avoid	-11.4391
▁Oil	-11.4391
▁substitute	-11.4396
▁ALL	-11.4397
arn	-11.4398
▁practitioners	-11.4399
▁Bu	-11.44
▁validation	-11.44
ved	-11.4401
▁distribute	-11.4403
TV	-11.4403
▁allocate	-11.4404
rill	-11.4405
▁folks	-11.4408
▁fiction	-11.4409
fit	-11.4409
▁sheets	-11.441
▁workshop	-11.4411
cra	-11.4412
▁talked	-11.4414
▁fold	-11.4414
button	-11.4417
▁mom	-11.4418
▁Valid	-11.4419
pem	-11.442
▁fo	-11.4421
bert	-11.4422
▁essence	-11.4423
oh	-11.4424
▁addiction	-11.4425
does	-11.4428
▁Personal	-11.443
menu	-11.443
▁shade	-11.4432
▁bull	-11.4432
▁interrupt	-11.4433
▁horizontal	-11.4433
▁toys	-11.4435
▁CC	-11.4436
walk	-11.4439
▁painted	-11.444
▁hack	-11.444
▁dimension	-11.4441
HTTP	-11.4442
▁nobody	-11.4443
efi	-11.4446
▁Collection	-11.4447
Work	-11.4448
▁speaks	-11.445
connection	-11.4451
chy	-11.4454
cycle	-11.4454
DF	-11.4455
Load	-11.4458
mile	-11.4458
▁</	-11.4458
▁Minnesota	-11.4459
▁YouTube	-11.4459
▁steep	-11.4459
▁distress	-11.4459
▁admission	-11.4459
▁ladies	-11.446
wal	-11.446
▁corruption	-11.446
GO	-11.4465
Gen	-11.4471
bf	-11.4472
dicate	-11.4477
Right	-11.448
Did	-11.4482
▁UNIX	-11.4484
▁Survey	-11.4485
dr	-11.4487
([	-11.4487
▁Professional	-11.4487
▁Studio	-11.4487
▁designer	-11.4488
equation	-11.4491
▁positively	-11.4491
rac	-11.4492
rey	-11.4494
▁intimate	-11.4495
▁'{}'	-11.4495
▁altogether	-11.4495
▁queen	-11.4499
▁HDD	-11.4502
▁exceed	-11.4503
lex	-11.4504
▁occurrence	-11.4504
▁elevated	-11.4505
▁metals	-11.4505
▁literal	-11.4506
▁hasn	-11.4506
▁shortcut	-11.4507
▁Paper	-11.4507
EF	-11.4509
▁retrieve	-11.451
▁invoke	-11.451
▁sentences	-11.451
▁rejected	-11.4511
▁compilation	-11.4512
▁Writing	-11.4514
black	-11.452
strong	-11.4523
▁shaped	-11.4524
▁electro	-11.4525
▁Mat	-11.4525
ital	-11.4526
▁Ever	-11.4528
▁correction	-11.4529
▁fifteen	-11.453
▁imagination	-11.453
▁necessity	-11.453
▁Address	-11.453
▁combining	-11.453
dhcp	-11.453
Column	-11.453
▁implied	-11.453
▁Explorer	-11.4533
hw	-11.4534
▁Drug	-11.4534
▁classification	-11.4536
ups	-11.4538
▁nil	-11.4538
▁solving	-11.4539
AV	-11.4539
▁retired	-11.454
▁carrier	-11.4541
▁digits	-11.4541
sched	-11.4544
▁chemistry	-11.4544
UI	-11.4546
▁Between	-11.4546
▁virtually	-11.4547
Over	-11.4547
Match	-11.4551
finite	-11.4551
▁organisms	-11.4552
kel	-11.4552
ACT	-11.4554
▁undefined	-11.4555
▁pulse	-11.4557
▁activation	-11.4558
proto	-11.4561
bug	-11.4561
▁logo	-11.4562
nova	-11.4564
▁Pay	-11.4564
▁Mel	-11.4566
▁fifty	-11.4566
▁fatigue	-11.4566
▁psychology	-11.4566
▁excitement	-11.4567
▁mortality	-11.4567
eta	-11.457
Char	-11.4571
▁mature	-11.4572
▁Process	-11.4577
▁Pennsylvania	-11.4577
▁wrapper	-11.4577
▁Rep	-11.4578
▁educators	-11.4579
▁photograph	-11.4581
▁Jerusalem	-11.4586
FP	-11.4586
glob	-11.4587
▁Turn	-11.4589
▁circular	-11.459
lm	-11.4591
▁reaches	-11.4592
▁infinite	-11.4592
▁inserted	-11.4593
RD	-11.4595
▁phones	-11.4595
▁consult	-11.4596
▁conservative	-11.4596
kins	-11.4596
▁guaranteed	-11.4601
▁vibrant	-11.4602
▁tobacco	-11.4602
▁surgical	-11.4605
IX	-11.4605
)=	-11.4605
▁guilty	-11.4607
▁dollar	-11.4609
▁wings	-11.4609
▁Books	-11.4609
Users	-11.4611
▁Wild	-11.4612
bla	-11.4612
pan	-11.4613
▁governing	-11.4614
ó	-11.4614
▁namely	-11.4621
▁dozen	-11.4624
▁voices	-11.4624
nav	-11.4625
▁defeat	-11.4625
▁reject	-11.4626
▁interventions	-11.4627
▁em	-11.4628
gt	-11.4632
▁argued	-11.4636
▁mortgage	-11.4639
▁mobility	-11.4639
▁recycling	-11.4639
▁tu	-11.464
▁ft	-11.4641
▁Mail	-11.4644
▁Base	-11.4645
augh	-11.4646
▁\)	-11.4646
tem	-11.465
Because	-11.4651
▁Wikipedia	-11.4651
▁operated	-11.4651
sleep	-11.4651
▁Author	-11.4652
▁quit	-11.4652
"),	-11.4653
ality	-11.4654
▁Fu	-11.4655
oz	-11.4656
▁employer	-11.4661
dale	-11.4663
)^	-11.4664
▁Cla	-11.4666
▁Qu	-11.4666
▁statistical	-11.4668
grad	-11.467
these	-11.4671
▁Silver	-11.4673
Socket	-11.4675
▁tracing	-11.4675
▁organs	-11.4676
});	-11.4679
Figure	-11.4681
▁hospitals	-11.4681
▁varies	-11.4682
iter	-11.4686
job	-11.4686
Status	-11.4687
▁kidney	-11.4688
)?	-11.4688
▁sons	-11.4689
▁Bad	-11.469
ERS	-11.469
kan	-11.4692
PDF	-11.4692
channel	-11.4693
▁regime	-11.4694
▁Level	-11.4695
▁navigation	-11.4695
▁swing	-11.4697
El	-11.4699
▁ii	-11.47
▁+=	-11.47
done	-11.4701
sent	-11.4702
ith	-11.4702
ath	-11.4704
▁Visual	-11.471
Local	-11.471
▁sphere	-11.4711
▁sole	-11.4711
▁Arizona	-11.4711
▁sophisticated	-11.4711
▁swimming	-11.4712
▁storing	-11.4712
▁glory	-11.4712
▁prescription	-11.4712
ARE	-11.4714
PORT	-11.4716
never	-11.4717
▁bands	-11.4718
▁Story	-11.4719
cv	-11.4719
▁wellbeing	-11.4721
▁stake	-11.4722
▁Cape	-11.4723
.--	-11.4724
zu	-11.4725
▁sheep	-11.4726
▁thesis	-11.4729
DT	-11.4729
▁Daily	-11.4731
▁glob	-11.4732
por	-11.4732
▁Think	-11.4732
stan	-11.4733
▁Francis	-11.4738
▁seats	-11.4739
bie	-11.474
▁Historical	-11.4741
▁Anne	-11.4742
nel	-11.4743
▁EXAMPLES	-11.4745
▁officially	-11.4747
▁quantities	-11.4748
▁cotton	-11.4748
▁loving	-11.4748
Sec	-11.4749
DEFAULT	-11.4749
▁slavery	-11.475
▁tear	-11.475
fstab	-11.475
▁CH	-11.4751
Report	-11.4752
▁cd	-11.4755
xz	-11.4755
gent	-11.4756
▁countless	-11.4756
▁Ken	-11.4757
▁DVD	-11.4758
enc	-11.476
▁talks	-11.4761
▁beside	-11.4762
▁strip	-11.4764
rp	-11.4764
▁prompted	-11.4764
pair	-11.4765
▁LUKS	-11.4765
dm	-11.4767
lands	-11.477
▁Brand	-11.4771
▁workflow	-11.4774
▁Fish	-11.4774
▁variant	-11.4775
▁hire	-11.4778
▁expedition	-11.4785
Sort	-11.4785
▁assault	-11.4785
▁cow	-11.4786
▁punishment	-11.4786
....	-11.4787
zer	-11.4788
wc	-11.4789
▁spite	-11.4789
▁pod	-11.479
▁everybody	-11.4792
sam	-11.4795
▁collecting	-11.4795
▁Film	-11.4795
▁buttons	-11.4796
aud	-11.4796
▁grub	-11.4796
VE	-11.4802
▁Never	-11.4802
tls	-11.4803
▁Fast	-11.4804
▁specifications	-11.4804
▁peaceful	-11.4805
route	-11.4806
▁bars	-11.4806
fo	-11.4806
["	-11.481
lice	-11.4813
▁bonds	-11.4815
▁offensive	-11.4816
▁clinic	-11.4817
▁Kan	-11.4819
paper	-11.4822
▁Account	-11.4822
▁intermediate	-11.4822
▁Police	-11.4822
▁tropical	-11.4824
▁cp	-11.4828
answer	-11.4829
Buffer	-11.483
▁descriptors	-11.483
sight	-11.4831
▁NetworkManager	-11.4833
▁Tra	-11.4834
▁chi	-11.4834
▁rec	-11.4837
dh	-11.4838
▁freely	-11.4843
▁Dog	-11.4843
▁puts	-11.4843
▁heal	-11.4844
▁chains	-11.4845
▁limiting	-11.4846
▁deb	-11.4846
▁visits	-11.4848
▁insensitive	-11.485
NR	-11.4851
ida	-11.4853
safe	-11.4853
▁translate	-11.4853
large	-11.4854
izer	-11.4855
▁Array	-11.4856
UD	-11.4857
▁mystery	-11.4859
▁Financial	-11.4859
▁distinctive	-11.4861
CL	-11.4863
Int	-11.4864
▁scanners	-11.4866
▁Mid	-11.4867
▁rating	-11.4868
▁heap	-11.4871
▁Task	-11.4872
TI	-11.4875
▁Small	-11.4875
▁raises	-11.4876
▁Tell	-11.4877
▁arrested	-11.4877
▁UTF	-11.4879
rit	-11.4882
▁Bri	-11.4883
bble	-11.4891
▁Officer	-11.4895
▁meditation	-11.4896
aki	-11.4896
▁Testament	-11.4896
▁rap	-11.4896
▁implant	-11.4896
▁traces	-11.4897
▁keen	-11.4898
signal	-11.4899
▁Settings	-11.4899
abi	-11.49
▁slower	-11.49
▁bullet	-11.49
iff	-11.4901
▁Ash	-11.4901
▁injection	-11.4902
▁winds	-11.4903
▁intend	-11.4904
▁gardens	-11.4905
▁refuse	-11.4909
▁Unless	-11.4911
▁lawyer	-11.4914
▁somebody	-11.4916
Replace	-11.4921
▁Fr	-11.4921
▁enjoying	-11.4921
▁Cho	-11.4922
amd	-11.4923
▁Files	-11.4924
▁shots	-11.4926
Look	-11.4928
KE	-11.4929
▁Ze	-11.4929
▁powered	-11.493
▁Farm	-11.493
▁Bear	-11.4932
▁complement	-11.4932
▁portfolio	-11.4933
▁throat	-11.4933
▁straightforward	-11.4934
▁angry	-11.4934
▁(*	-11.4934
Min	-11.4935
serv	-11.4938
rat	-11.4939
▁Student	-11.494
Her	-11.4946
▁farming	-11.4949
▁Iraq	-11.495
▁msg	-11.4951
member	-11.4952
Com	-11.4953
▁encoded	-11.4953
▁<(	-11.4954
▁Philadelphia	-11.4955
▁env	-11.4955
▁liked	-11.4957
▁excel	-11.4959
▁Med	-11.4959
▁bills	-11.496
▁bite	-11.4961
▁awesome	-11.4961
▁restrict	-11.4963
▁deposit	-11.4963
▁nvidia	-11.4964
▁Death	-11.4965
▁rolling	-11.4968
▁compress	-11.4969
▁attitudes	-11.497
▁tactics	-11.4971
▁Dun	-11.4971
▁calcium	-11.4971
▁Nothing	-11.4971
▁drama	-11.4971
▁arrangements	-11.4973
▁Edition	-11.4974
▁placement	-11.4974
▁borders	-11.4976
rust	-11.4976
hold	-11.4978
▁slip	-11.498
Launch	-11.4982
▁Hope	-11.4982
▁lean	-11.4983
▁Pin	-11.4983
▁'%	-11.4984
fill	-11.4984
ject	-11.4988
▁expose	-11.4989
▁Summer	-11.499
▁brave	-11.499
amine	-11.4991
▁wounded	-11.4991
▁altered	-11.4993
▁Credit	-11.4993
storm	-11.4994
▁mv	-11.4996
▁newline	-11.4996
▁burned	-11.4999
▁collapse	-11.5003
Split	-11.5004
Application	-11.5007
▁aging	-11.5007
▁adjacent	-11.5008
▁elaborate	-11.5008
▁evaluating	-11.5008
▁magnitude	-11.5008
▁utilizing	-11.5008
▁harsh	-11.5008
▁isolation	-11.5009
▁deer	-11.501
▁Room	-11.5012
▁Tips	-11.5014
TT	-11.5015
▁charm	-11.5018
▁Tor	-11.5022
▁followers	-11.5022
▁posting	-11.5023
anda	-11.5024
▁advise	-11.5025
▁Working	-11.5026
▁discharge	-11.5026
tern	-11.5028
▁dialog	-11.5032
GA	-11.5034
▁defining	-11.5035
▁Au	-11.5038
▁Ly	-11.5043
ports	-11.5043
▁Ontario	-11.5046
▁analytics	-11.5048
!!!	-11.5048
▁tourism	-11.5049
rem	-11.5052
▁rental	-11.5052
▁VI	-11.5056
Sha	-11.5058
standing	-11.506
▁letting	-11.5061
▁loads	-11.5061
▁weekly	-11.5062
▁sensors	-11.5063
▁propose	-11.5064
license	-11.5065
FL	-11.5067
office	-11.5067
▁spell	-11.5068
▁removes	-11.5069
▁determination	-11.5072
▁fool	-11.5074
▁backed	-11.5074
▁crossing	-11.5079
layer	-11.508
▁progressive	-11.5082
▁empire	-11.5084
▁Trace	-11.5085
mand	-11.5085
Force	-11.5087
▁shallow	-11.5087
▁Multiple	-11.5088
▁interviews	-11.5089
▁Harry	-11.5097
▁AR	-11.5099
Pi	-11.5101
▁pose	-11.5101
▁alien	-11.5102
▁strictly	-11.5102
▁attachment	-11.5103
▁registers	-11.5105
▁Mad	-11.5106
▁continuously	-11.5107
▁conducting	-11.5111
groups	-11.5113
▁outputs	-11.5116
weak	-11.5118
req	-11.5122
▁telephone	-11.5122
[=	-11.5123
total	-11.5127
Entry	-11.513
▁Hindu	-11.513
▁darkness	-11.5131
▁Exchange	-11.5136
▁crossed	-11.5136
▁zones	-11.5141
▁spray	-11.5142
CODE	-11.5143
▁submodule	-11.5147
▁shield	-11.5148
▁immense	-11.5151
GL	-11.5152
▁grades	-11.5153
Method	-11.5154
Interactive	-11.5158
flag	-11.5159
$\	-11.5159
▁orientation	-11.5159
▁CHAPTER	-11.516
à	-11.516
▁Harvard	-11.516
▁assumption	-11.5161
▁submission	-11.5162
▁charging	-11.5164
▁accused	-11.5164
▁realistic	-11.5166
▁Build	-11.5166
▁automated	-11.5167
iya	-11.5172
▁secured	-11.5173
▁chill	-11.5179
▁aesthetic	-11.5179
convert	-11.5179
▁slide	-11.5179
▁tee	-11.518
▁drill	-11.518
▁lets	-11.518
▁resident	-11.5182
▁determines	-11.5182
▁wishes	-11.5183
CU	-11.5184
hot	-11.5186
▁importantly	-11.5189
▁workshops	-11.519
▁Pop	-11.519
▁Basic	-11.5191
psi	-11.5193
▁triggered	-11.5194
MT	-11.5198
▁Specifically	-11.5199
Hu	-11.5199
▁pray	-11.5199
Alias	-11.5201
▁WA	-11.5202
▁Climate	-11.5203
▁spinal	-11.5205
WS	-11.5206
restore	-11.5208
ark	-11.5208
▁den	-11.5209
▁Jean	-11.5211
▁ME	-11.5212
▁fires	-11.5214
▁gentleman	-11.5216
RM	-11.5216
▁fits	-11.5216
▁emotion	-11.5217
▁Save	-11.5217
▁Self	-11.522
▁Radio	-11.5222
▁Gas	-11.5224
shadow	-11.5226
HI	-11.5227
▁annually	-11.5228
▁te	-11.5228
▁ranking	-11.5229
mut	-11.523
▁clarify	-11.5237
▁accordance	-11.5237
LIST	-11.5238
▁leverage	-11.5239
ICE	-11.5248
▁FROM	-11.525
▁farms	-11.525
▁cleared	-11.5251
▁partially	-11.5251
xxx	-11.5252
▁warn	-11.5254
▁Used	-11.5257
Ah	-11.5257
vor	-11.526
▁weapon	-11.5262
▁tribes	-11.5265
▁pressed	-11.5265
▁purple	-11.5267
▁accessing	-11.5267
upgrade	-11.527
▁calculations	-11.527
Response	-11.5271
▁Choose	-11.5275
▁intervals	-11.5275
▁recognizing	-11.5276
▁steady	-11.5276
provider	-11.5277
▁railway	-11.5278
▁lord	-11.5279
▁Different	-11.5279
▁birthday	-11.528
▁atomic	-11.5281
▁Rather	-11.5281
▁overwhelming	-11.5282
───────────────┤	-11.5282
▁chamber	-11.5284
▁devoted	-11.5284
rib	-11.5285
▁researcher	-11.5288
▁meets	-11.5289
▁united	-11.5289
letter	-11.5289
▁relay	-11.5291
▁exclusively	-11.5292
▁conscious	-11.5293
▁citizen	-11.5295
▁Hay	-11.5299
▁reg	-11.5299
VER	-11.53
▁UID	-11.5302
bra	-11.5304
uzz	-11.5305
gun	-11.5305
▁Cold	-11.531
▁reliability	-11.5314
▁Creek	-11.5314
▁severity	-11.5314
▁inflation	-11.5314
▁supplement	-11.5315
▁castle	-11.5316
▁voters	-11.5316
BI	-11.5317
rine	-11.5318
▁keyring	-11.5318
▁grip	-11.5318
▁timely	-11.532
▁Tour	-11.532
▁sha	-11.5321
▁Travel	-11.5321
ready	-11.5324
▁partnerships	-11.5328
▁Box	-11.5331
▁rhythm	-11.5331
▁upstream	-11.5332
▁indigenous	-11.5332
▁spec	-11.5333
oom	-11.5333
▁XP	-11.5334
]{	-11.5334
▁Clear	-11.5335
▁churches	-11.5335
▁twist	-11.5336
Temp	-11.5339
ways	-11.5342
▁carriage	-11.5343
▁Val	-11.5344
▁pause	-11.5346
▁recovered	-11.5348
pf	-11.5351
▁UI	-11.5353
▁respiratory	-11.5353
▁vegetation	-11.5353
▁correlation	-11.5353
▁priorities	-11.5355
▁cabinet	-11.5356
▁stamp	-11.5357
▁Block	-11.5357
▁announcement	-11.5357
▁classified	-11.536
ander	-11.5361
cipher	-11.5361
dirname	-11.5364
▁speeds	-11.5366
▁Package	-11.5367
▁schemes	-11.5368
tone	-11.537
▁searches	-11.5371
aver	-11.5372
▁relax	-11.5373
tl	-11.5377
Post	-11.5377
quant	-11.5379
▁combinations	-11.5379
▁fl	-11.5381
progress	-11.5382
Per	-11.5385
berry	-11.5386
▁Kim	-11.5387
Render	-11.5391
▁worried	-11.5392
▁empathy	-11.5392
iate	-11.5393
▁Ford	-11.5395
▁Maryland	-11.5395
▁funded	-11.5395
▁readable	-11.5395
▁Wales	-11.5396
ought	-11.5397
▁Ter	-11.5397
hp	-11.5397
▁Short	-11.5398
▁TB	-11.5398
▁keywords	-11.5401
language	-11.5401
forward	-11.5401
────────────┤	-11.5402
▁dot	-11.5403
must	-11.5403
▁counsel	-11.5405
▁generator	-11.5406
▁representatives	-11.5406
▁prey	-11.5407
▁competitors	-11.5408
▁hits	-11.5408
▁Tar	-11.5411
▁Practice	-11.5412
draw	-11.5412
dies	-11.5413
▁smallest	-11.5415
▁beam	-11.5415
DM	-11.5417
vf	-11.5419
Every	-11.542
▁Client	-11.5423
▁accepts	-11.5424
city	-11.5424
Compress	-11.5426
upload	-11.5426
▁regex	-11.5428
▁individually	-11.5429
Record	-11.5429
▁legitimate	-11.5431
▁literacy	-11.5431
▁Peace	-11.5432
theta	-11.5433
▁Pra	-11.5433
CPU	-11.5433
mass	-11.5434
▁marry	-11.5434
Ignore	-11.5434
▁CT	-11.5438
▁Protocol	-11.5439
dec	-11.544
▁GIT	-11.5444
unsigned	-11.5445
▁supplements	-11.5446
▁progression	-11.5449
▁res	-11.5449
TER	-11.545
▁spreading	-11.545
▁Share	-11.5451
▁equations	-11.5451
▁Large	-11.5452
know	-11.5453
lets	-11.5455
▁buf	-11.5456
▁diagnose	-11.5457
▁rendered	-11.5457
Today	-11.5458
▁Ag	-11.546
Reset	-11.5461
mix	-11.5462
▁Provide	-11.5462
VERSION	-11.5463
wr	-11.5464
CK	-11.5465
▁Abraham	-11.5467
ering	-11.547
▁Bel	-11.547
▁bleeding	-11.5471
▁horror	-11.5471
▁sampling	-11.5471
▁Democratic	-11.5471
crane	-11.5473
mol	-11.5476
▁performs	-11.5477
▁Reference	-11.548
Access	-11.5481
▁mem	-11.5481
▁<=	-11.5483
▁faithful	-11.5483
▁freeze	-11.5483
High	-11.5487
▁"${	-11.5487
▁sorts	-11.5487
rep	-11.5489
▁Index	-11.5489
▁emit	-11.549
▁targeting	-11.5491
yr	-11.5492
_\	-11.5492
▁advances	-11.5493
▁bore	-11.5496
▁cuts	-11.5496
▁Islands	-11.5497
unt	-11.5501
arian	-11.5501
shared	-11.5501
either	-11.5503
▁attributed	-11.5505
▁UV	-11.5505
▁ceiling	-11.551
▁invasion	-11.551
▁ethics	-11.5511
▁surprising	-11.5512
oul	-11.5514
generator	-11.5517
▁tomorrow	-11.5517
▁cre	-11.5518
gin	-11.552
every	-11.552
▁Release	-11.552
▁eu	-11.5521
▁beloved	-11.5523
▁Gri	-11.5524
▁safer	-11.5524
trust	-11.5524
▁permits	-11.5525
HC	-11.5526
optional	-11.5526
REG	-11.5526
Pe	-11.5531
gas	-11.5533
endif	-11.5534
▁governance	-11.5536
▁SSE	-11.5537
▁villages	-11.5537
▁poster	-11.5537
TB	-11.5538
▁IBM	-11.5539
▁mad	-11.554
lio	-11.5541
bottom	-11.5543
Button	-11.5545
maker	-11.5547
wine	-11.5547
ila	-11.5547
▁AF	-11.5548
▁creature	-11.5548
▁Phil	-11.5548
cop	-11.5549
umb	-11.5552
▁Country	-11.5552
▁counting	-11.5554
ore	-11.5557
▁ample	-11.5557
▁gauge	-11.5561
▁races	-11.5563
▁pseudo	-11.5564
▁Simple	-11.5565
Verify	-11.557
ipp	-11.5571
gpg	-11.5575
Ubuntu	-11.5575
▁switches	-11.5577
Compare	-11.5578
VM	-11.5579
▁escaped	-11.5582
▁lungs	-11.5582
▁flour	-11.559
▁interfere	-11.559
▁Greece	-11.559
▁gently	-11.559
Calculate	-11.5591
▁operates	-11.5592
▁prisoners	-11.5593
▁obtaining	-11.5596
▁departments	-11.5598
alloc	-11.5599
BUS	-11.5599
▁spirits	-11.5601
▁spine	-11.5603
▁Jr	-11.5603
▁prefixed	-11.5605
Lo	-11.5605
mine	-11.5606
▁adjustments	-11.5608
▁assignments	-11.561
▁perceive	-11.5611
argv	-11.5613
enabled	-11.5613
hosts	-11.5614
▁lit	-11.5614
▁Easy	-11.5615
Vi	-11.5618
▁Everything	-11.562
▁Kar	-11.5621
▁infant	-11.5621
abc	-11.5623
usually	-11.5625
stein	-11.5627
▁Sy	-11.5627
▁clarity	-11.563
▁navigating	-11.563
▁gum	-11.563
▁Night	-11.5632
▁prince	-11.5634
▁Culture	-11.5635
▁marking	-11.5636
▁Cam	-11.5637
product	-11.5648
handler	-11.5653
science	-11.5656
▁Panel	-11.566
▁Eric	-11.5662
▁stayed	-11.5664
fusion	-11.5668
▁preceding	-11.567
▁vulnerability	-11.567
▁ACUTE	-11.567
▁pipes	-11.567
▁endless	-11.5673
three	-11.5673
▁subdirectories	-11.5674
bl	-11.5675
apple	-11.5676
▁relies	-11.5676
owl	-11.5679
▁soldier	-11.5679
prio	-11.5681
▁pending	-11.5682
▁guides	-11.5686
▁coupled	-11.5686
got	-11.5686
▁Performance	-11.5687
▁Direct	-11.5695
mother	-11.5698
sse	-11.5699
▁Impact	-11.5699
▁notation	-11.57
▁Know	-11.5701
▁transformed	-11.5701
▁analyses	-11.5701
issue	-11.5702
▁buyers	-11.5702
Block	-11.5703
▁Turkey	-11.5704
Form	-11.5704
Row	-11.5705
▁Arthur	-11.571
▁Stra	-11.571
tric	-11.571
▁societal	-11.571
▁palace	-11.5711
▁Say	-11.5711
▁UEFI	-11.5711
▁discard	-11.5713
blo	-11.5715
▁stopping	-11.5715
sect	-11.5716
drive	-11.5718
▁hills	-11.5718
▁simpler	-11.572
lyn	-11.5724
swap	-11.5724
iction	-11.5725
▁Register	-11.5726
▁Korean	-11.5728
){	-11.5729
rush	-11.5733
▁beer	-11.5736
True	-11.5736
▁colored	-11.5738
TL	-11.5739
▁finite	-11.5742
Am	-11.5743
▁scientist	-11.5743
poetry	-11.5744
rock	-11.5746
▁yields	-11.5747
▁Lewis	-11.5747
cred	-11.5749
fil	-11.575
▁vacation	-11.5751
▁reception	-11.5754
▁statue	-11.5754
phil	-11.5754
outs	-11.5756
About	-11.5757
vt	-11.5762
▁Follow	-11.5763
ante	-11.5763
CAP	-11.5764
▁mapped	-11.5764
player	-11.5766
stra	-11.5769
▁exits	-11.5769
LP	-11.577
▁archives	-11.5771
▁printf	-11.5774
ANT	-11.5775
▁Node	-11.5778
nas	-11.5778
rho	-11.5778
▁pane	-11.5779
working	-11.578
▁collections	-11.578
▁Ap	-11.5781
▁slice	-11.5782
▁Additional	-11.5782
▁touched	-11.5782
▁seasonal	-11.5783
▁Ban	-11.5785
localhost	-11.5785
▁geographical	-11.5785
mouth	-11.5787
always	-11.5787
▁grains	-11.579
▁woods	-11.5791
▁concentrations	-11.5791
▁Illinois	-11.5792
▁bloom	-11.5792
angle	-11.5792
▁scanning	-11.5793
▁acceptance	-11.5795
▁beef	-11.5798
those	-11.5799
UID	-11.58
▁barrier	-11.5802
hook	-11.5804
ees	-11.5809
▁},	-11.5811
fort	-11.5812
▁anybody	-11.5813
▁wifi	-11.582
Col	-11.5822
▁Cut	-11.5823
lint	-11.5824
▁oven	-11.5825
dic	-11.5827
▁MI	-11.5829
▁spur	-11.5829
scape	-11.583
▁transit	-11.5831
lier	-11.5831
▁abundant	-11.5832
▁dairy	-11.5832
mathrm	-11.5833
▁MO	-11.5833
generation	-11.5834
figure	-11.5836
ascii	-11.5837
Microsoft	-11.5838
▁clip	-11.5841
mv	-11.5842
SU	-11.5843
▁Davis	-11.5844
▁fingerprint	-11.5844
gue	-11.5848
▁households	-11.5848
▁passionate	-11.5849
▁hi	-11.5849
▁shops	-11.5851
▁subscription	-11.5851
Th	-11.5853
▁Capital	-11.5857
vel	-11.5858
Sh	-11.5863
▁PT	-11.5863
thought	-11.5866
chen	-11.5867
kit	-11.5868
sound	-11.5869
vc	-11.5869
▁Usually	-11.587
▁Mis	-11.587
▁terminated	-11.5872
ingly	-11.5873
▁tremendous	-11.5873
▁immigration	-11.5873
▁yoga	-11.5874
▁scholarship	-11.5874
ctrl	-11.5874
▁directive	-11.5874
▁tabs	-11.5877
▁underground	-11.5879
PID	-11.5881
▁Bru	-11.5881
phon	-11.5884
▁gay	-11.5885
olo	-11.5888
▁deny	-11.5888
vent	-11.589
▁Beyond	-11.5894
▁Ci	-11.5897
nation	-11.5897
fig	-11.5898
Wno	-11.5898
▁seasons	-11.5903
▁grateful	-11.5905
▁rendering	-11.5906
sci	-11.5906
▁leak	-11.5907
Arg	-11.5909
▁Republican	-11.5909
▁wages	-11.5909
curl	-11.5913
▁planets	-11.5913
▁Eli	-11.5914
▁mitigate	-11.5914
▁romantic	-11.5914
▁temporarily	-11.5914
▁mysterious	-11.5915
▁vocal	-11.5915
▁ecological	-11.5915
▁recipes	-11.5916
omic	-11.5916
▁regards	-11.5917
erry	-11.5918
▁syn	-11.5919
▁cont	-11.592
gamma	-11.5921
▁assessments	-11.5922
▁Nat	-11.5923
▁inhibit	-11.5923
▁slash	-11.5923
▁Sta	-11.5924
▁instantly	-11.5928
▁py	-11.593
Equal	-11.5931
comm	-11.5934
▁Making	-11.5935
▁manipulate	-11.5935
▁Front	-11.5939
Win	-11.594
▁===	-11.5941
▁cellular	-11.5941
purpose	-11.5944
Fig	-11.5947
MODE	-11.5948
▁acres	-11.595
news	-11.5952
▁weigh	-11.5952
give	-11.5952
▁Douglas	-11.5954
▁clause	-11.5956
▁tolerance	-11.5956
▁Bishop	-11.5956
▁coordination	-11.5956
▁typing	-11.5956
▁substitution	-11.5956
▁loyalty	-11.5957
▁fitting	-11.5957
▁conviction	-11.5958
▁cement	-11.596
▁paintings	-11.5961
factor	-11.5962
▁tale	-11.5962
VI	-11.5963
▁Disable	-11.5966
▁Training	-11.5966
▁Boy	-11.5967
▁Islamic	-11.5967
udi	-11.5968
itz	-11.5971
▁animation	-11.5976
▁satisfy	-11.5976
▁avoided	-11.5976
▁pine	-11.5979
Extract	-11.598
▁Matthew	-11.5981
▁titles	-11.5981
door	-11.5985
turn	-11.5986
translation	-11.5986
Package	-11.5986
uz	-11.5988
▁employers	-11.5988
▁Qui	-11.5988
▁dash	-11.5989
▁overflow	-11.5991
▁collaborate	-11.5997
▁innocent	-11.5997
▁auth	-11.5999
▁Depending	-11.6001
▁Yo	-11.6002
▁symlinks	-11.6002
▁Ber	-11.6002
ika	-11.6002
▁footprint	-11.6004
▁specialists	-11.6006
▁anchor	-11.6006
▁cheer	-11.6008
▁dim	-11.6011
▁Prior	-11.6013
▁/**	-11.6014
rows	-11.6017
▁medicines	-11.6021
▁stdout	-11.6025
▁handles	-11.6027
▁fears	-11.6031
People	-11.6032
dx	-11.6035
tac	-11.6035
emb	-11.6036
▁manufacture	-11.6038
▁horizon	-11.6039
▁liberty	-11.6039
▁Heritage	-11.6039
bol	-11.6039
▁uncertainty	-11.604
▁silk	-11.604
▁eternal	-11.604
▁proposition	-11.6041
▁olive	-11.6041
▁Mobile	-11.6041
four	-11.6041
rank	-11.6042
wave	-11.6043
smith	-11.6044
▁fancy	-11.6045
▁unfortunately	-11.6046
▁physicians	-11.6053
hang	-11.6055
blog	-11.6055
▁sore	-11.6057
anna	-11.606
▁presenting	-11.606
between	-11.6061
▁districts	-11.6062
Har	-11.6064
▁Answer	-11.6064
▁CAP	-11.6067
▁owe	-11.6068
▁Golden	-11.6068
▁Luc	-11.607
▁Hyper	-11.607
ook	-11.6074
▁addr	-11.6075
seed	-11.6077
▁latency	-11.6079
▁Buy	-11.6079
np	-11.6081
▁ARABIC	-11.6081
▁minimizing	-11.6081
▁Bureau	-11.6081
▁bump	-11.6081
gnome	-11.6082
rist	-11.6085
▁nurses	-11.6085
▁Maria	-11.6087
▁excuse	-11.6087
Directory	-11.6088
▁sweat	-11.6088
RY	-11.609
▁beast	-11.6091
seconds	-11.6092
adi	-11.6094
cht	-11.6095
Label	-11.6096
God	-11.6098
UM	-11.6098
▁Solar	-11.6102
▁meter	-11.6103
▁ok	-11.6104
Power	-11.6104
▁planting	-11.6106
▁agreements	-11.6106
rsa	-11.6109
▁singing	-11.6109
osa	-11.6114
▁Def	-11.6114
bank	-11.6115
aya	-11.6115
▁forum	-11.6115
▁symlink	-11.6116
è	-11.6117
Store	-11.6121
▁pad	-11.6121
MO	-11.6122
▁completing	-11.6123
▁desirable	-11.6123
▁prioritize	-11.6123
▁rubber	-11.6123
▁viral	-11.6124
▁liability	-11.6124
▁Prevention	-11.6124
▁Wilson	-11.6124
▁colonies	-11.6125
▁Things	-11.6126
▁cart	-11.6128
▁correspond	-11.6128
▁consuming	-11.6129
▁prescribed	-11.6132
mind	-11.6132
▁Sand	-11.6134
hex	-11.6134
▁terror	-11.6136
▁inherited	-11.614
EB	-11.6141
cum	-11.6144
▁Same	-11.6145
▁obstacles	-11.6145
++)	-11.6145
cas	-11.6147
▁Seven	-11.6148
fail	-11.6154
▁ju	-11.6156
team	-11.6157
mg	-11.6157
├───────────────	-11.6159
▁fonts	-11.616
▁utilized	-11.6161
▁champion	-11.6165
▁priest	-11.6165
▁confusing	-11.6165
▁Annual	-11.6165
▁overridden	-11.6167
▁sodium	-11.6167
stead	-11.617
▁accountability	-11.617
▁indicator	-11.6174
ception	-11.6175
▁strengths	-11.6176
▁Editor	-11.6179
▁drum	-11.618
▁seeks	-11.6181
IAL	-11.6181
▁referenced	-11.6181
▁convention	-11.6181
▁[]	-11.6183
loss	-11.6183
▁Mission	-11.6183
▁tie	-11.6183
sia	-11.6184
▁continually	-11.6184
fore	-11.6186
▁UDP	-11.6187
▁locks	-11.619
▁tokens	-11.619
▁cited	-11.6191
ech	-11.6192
▁incidents	-11.6197
ault	-11.6197
WA	-11.6199
launch	-11.62
▁Meta	-11.6204
lav	-11.6205
▁weakness	-11.6207
hit	-11.6207
▁hormone	-11.6207
▁Mexican	-11.6207
−	-11.6207
▁Bitcoin	-11.6207
▁agenda	-11.6207
▁outdated	-11.6208
▁bonus	-11.6208
miss	-11.6208
▁tumor	-11.6209
▁puzzle	-11.6209
▁exclaimed	-11.621
▁Edit	-11.621
ND	-11.6211
stats	-11.6212
best	-11.6212
plugin	-11.6213
▁structured	-11.6213
Token	-11.6215
Which	-11.6215
▁resistor	-11.6216
Auto	-11.622
▁approaching	-11.6221
▁});	-11.6221
▁Hat	-11.6222
Lock	-11.6223
▁internally	-11.6225
▁constitution	-11.6228
▁disappeared	-11.623
▁Alternatively	-11.623
▁behave	-11.6231
▁Bush	-11.6232
pve	-11.6232
▁gaining	-11.6234
wn	-11.6238
PRE	-11.6239
pon	-11.624
CF	-11.6241
II	-11.6243
▁failures	-11.6244
▁Anna	-11.6245
ois	-11.6246
▁dictionary	-11.6247
▁Too	-11.6247
▁bat	-11.6247
▁vacuum	-11.6248
▁variants	-11.6249
™	-11.625
▁Grade	-11.6252
▁relaxation	-11.6252
children	-11.6253
▁Throughout	-11.6253
▁borrow	-11.6256
▁Clean	-11.6258
utf	-11.6259
▁healthier	-11.626
▁Stop	-11.626
mkdir	-11.6262
cla	-11.6262
▁defendant	-11.6262
proof	-11.6264
▁LVM	-11.6265
half	-11.6265
▁mixing	-11.6271
▁Donald	-11.6275
UTF	-11.6276
None	-11.6277
ord	-11.6277
rent	-11.628
▁advancements	-11.628
att	-11.6283
ij	-11.6284
tile	-11.6288
▁origins	-11.6289
▁occasions	-11.6289
▁penalty	-11.6293
▁prevalence	-11.6293
▁ruling	-11.6293
▁Tre	-11.6293
makers	-11.6293
GC	-11.6294
▁defence	-11.6295
▁legend	-11.6295
\"	-11.6296
▁offense	-11.6297
Container	-11.63
▁throws	-11.6303
▁crimes	-11.6303
▁Applications	-11.6304
ried	-11.6305
▁Cost	-11.6306
▁offerings	-11.6308
online	-11.6308
▁scales	-11.6308
▁boats	-11.6308
▁Pu	-11.6309
uro	-11.6309
▁assumptions	-11.6312
nor	-11.6313
▁implementations	-11.6313
▁volunteers	-11.6315
▁stimulate	-11.6315
TLS	-11.6315
HER	-11.6318
ben	-11.632
GR	-11.632
lid	-11.6321
HTML	-11.6323
▁Syn	-11.6323
▁Steve	-11.6324
▁ACL	-11.6328
▁Similar	-11.6329
▁fuels	-11.6329
WR	-11.6329
Pr	-11.633
▁Sen	-11.6331
think	-11.6332
▁synthetic	-11.6333
building	-11.6333
▁IPC	-11.6333
gio	-11.6335
▁vocabulary	-11.6336
▁podcast	-11.6336
ROM	-11.6338
▁hanging	-11.6338
▁Express	-11.6341
▁mounting	-11.6344
▁surge	-11.6344
internal	-11.6346
Ne	-11.6346
corn	-11.6347
▁faint	-11.635
▁beta	-11.6351
▁hoped	-11.6352
▁shine	-11.6353
▁outbreak	-11.6354
love	-11.6356
▁interrupted	-11.6356
▁excluded	-11.6357
>(	-11.6358
▁bears	-11.636
▁Reserve	-11.636
TEST	-11.6361
▁LAN	-11.6363
▁canal	-11.6363
▁Much	-11.6364
said	-11.6368
▁performances	-11.6369
Mac	-11.6371
▁trips	-11.6372
▁subnet	-11.6372
wel	-11.6373
wo	-11.6377
▁CI	-11.6377
▁PERF	-11.6378
▁Alzheimer	-11.6379
▁elevation	-11.6379
▁Missouri	-11.6379
▁absent	-11.6379
▁inequality	-11.6379
▁Judge	-11.638
▁promotes	-11.638
aux	-11.6381
▁accidents	-11.6382
▁thickness	-11.6383
▁demanded	-11.6383
photo	-11.6383
▁passengers	-11.6384
une	-11.6385
)]	-11.6385
▁Always	-11.6386
▁Protect	-11.6386
priv	-11.6387
svn	-11.6387
hon	-11.639
▁viable	-11.6393
▁Extension	-11.6393
oper	-11.6394
▁coll	-11.6394
▁Motor	-11.6395
pipe	-11.6395
▁privilege	-11.6395
▁PATH	-11.6398
▁([	-11.6399
▁glasses	-11.6399
FR	-11.6399
driven	-11.64
▁reporter	-11.64
ility	-11.6401
▁Simon	-11.6401
uda	-11.6402
Function	-11.6403
▁Emperor	-11.6405
Cl	-11.6407
▁coil	-11.6409
▁inherit	-11.641
friend	-11.6413
efficient	-11.6414
▁adjusted	-11.6415
shot	-11.6417
rec	-11.6417
▁hazards	-11.6422
)}	-11.6422
▁Instagram	-11.6422
▁suicide	-11.6422
WRITE	-11.6422
▁discomfort	-11.6422
▁Arctic	-11.6422
ATTRIBUTES	-11.6423
▁Scottish	-11.6423
touch	-11.6425
▁PCR	-11.6427
feature	-11.643
▁formerly	-11.643
▁Samuel	-11.6431
▁neo	-11.6436
NUM	-11.6436
▁encrypt	-11.6437
profit	-11.6437
console	-11.6437
▁teaches	-11.6438
▁reviewed	-11.6439
different	-11.644
▁constitutional	-11.6445
BT	-11.6445
Ext	-11.6446
iel	-11.6447
▁Band	-11.6447
▁briefly	-11.6449
tx	-11.645
expression	-11.645
ides	-11.6452
gene	-11.6453
▁Fl	-11.6453
▁outlined	-11.6456
▁coating	-11.6461
▁Sin	-11.6461
oil	-11.6462
▁nutrient	-11.6462
▁sched	-11.6463
▁-->	-11.6463
MU	-11.6466
▁Deep	-11.6467
▁compost	-11.6468
Footnote	-11.6468
▁reload	-11.6468
▁similarly	-11.6469
▁simulation	-11.647
ule	-11.647
▁mal	-11.6471
bool	-11.6473
mur	-11.6474
▁petition	-11.6476
▁Experience	-11.6476
▁panic	-11.6482
generated	-11.6484
▁macros	-11.6484
ode	-11.6485
▁imply	-11.6486
▁gaps	-11.6486
RU	-11.6486
▁relieve	-11.6489
▁hung	-11.6492
"--	-11.6492
▁rot	-11.6492
graphic	-11.6505
▁seal	-11.6505
▁BY	-11.6505
snapshot	-11.6505
GROUP	-11.6508
▁Vietnam	-11.6509
▁deficiency	-11.6509
▁automation	-11.6509
▁grammar	-11.6509
▁connectivity	-11.651
▁corresponds	-11.651
▁spark	-11.6512
▁sem	-11.6514
▁vegetable	-11.6515
▁dirty	-11.6519
▁nearest	-11.652
SB	-11.6521
▁Var	-11.6521
▁arrays	-11.6521
▁cleaner	-11.6523
vision	-11.6526
▁Product	-11.6528
dynamic	-11.6529
insert	-11.6533
▁canvas	-11.6533
▁Miller	-11.6533
▁evolve	-11.6533
▁advised	-11.6533
Hz	-11.6533
▁await	-11.6537
▁indoor	-11.6539
▁ancestors	-11.6541
ios	-11.6541
configuration	-11.6542
▁inputs	-11.6542
gua	-11.6546
▁Document	-11.6546
quit	-11.6546
tell	-11.6551
▁Guidelines	-11.6551
▁obligations	-11.6551
▁abnormal	-11.6553
▁ro	-11.6553
▁explosion	-11.6553
▁genome	-11.6553
▁spoil	-11.6553
▁baking	-11.6553
▁conditional	-11.6555
▁cr	-11.6556
▁Castle	-11.6556
urge	-11.6558
▁virtue	-11.6559
▁calculation	-11.6559
LV	-11.6563
etic	-11.6563
▁scrap	-11.6566
▁costly	-11.6567
▁Available	-11.6568
browser	-11.6569
pel	-11.6569
dog	-11.6572
▁Bla	-11.6573
================	-11.6573
▁weren	-11.6574
▁licensed	-11.6574
▁laughed	-11.6575
▁Introduction	-11.6575
▁reflecting	-11.6576
▁permanently	-11.6576
ulated	-11.6579
direct	-11.6583
▁Deb	-11.6584
▁Talk	-11.6586
▁pixels	-11.6587
RR	-11.6587
▁combines	-11.6587
▁invocation	-11.6589
▁polar	-11.659
subject	-11.659
▁washing	-11.6591
▁holidays	-11.6596
▁immigrants	-11.6596
▁analyzed	-11.6597
æ	-11.6597
▁fraud	-11.6597
▁salary	-11.6598
para	-11.6598
▁unchanged	-11.6598
▁dried	-11.6599
▁Victoria	-11.6601
▁minority	-11.6603
inger	-11.6605
▁gpg	-11.6606
▁Macro	-11.6606
ONE	-11.6609
▁Pur	-11.6609
▁assured	-11.661
▁Vitamin	-11.661
activate	-11.6611
▁Risk	-11.6612
posed	-11.6614
▁sur	-11.6615
▁contacts	-11.6617
▁disables	-11.6618
▁repeatedly	-11.6618
▁arrange	-11.662
▁spelling	-11.6621
TU	-11.6622
▁ruled	-11.6623
▁pdf	-11.6626
▁Jon	-11.6627
▁el	-11.6628
▁VR	-11.6628
▁prevented	-11.6629
WP	-11.6631
▁Cover	-11.6635
▁cookie	-11.6635
▁NY	-11.6636
▁numerical	-11.6638
и	-11.6641
▁CHARACTER	-11.6641
▁frozen	-11.6641
▁Certain	-11.6641
▁interference	-11.6642
▁Works	-11.6643
▁iconic	-11.6646
▁fond	-11.6647
▁disruption	-11.6649
leq	-11.6652
▁sec	-11.6653
lou	-11.6654
▁improves	-11.6654
BD	-11.6655
]+	-11.6656
▁Found	-11.6657
▁shortly	-11.6657
AE	-11.6661
although	-11.6664
▁Tools	-11.6665
=$	-11.6665
variant	-11.6667
bon	-11.6667
▁copying	-11.6669
▁ads	-11.6669
atur	-11.667
▁Tax	-11.6673
▁transmit	-11.6675
▁Bit	-11.6675
▁Load	-11.6676
▁stays	-11.6676
AI	-11.6677
▁suppress	-11.6677
▁Stay	-11.6679
bd	-11.668
▁guitar	-11.668
CON	-11.6681
▁mothers	-11.6682
▁Sleep	-11.6683
▁struggles	-11.6684
doi	-11.6684
LR	-11.6684
▁Insurance	-11.6686
▁Sydney	-11.6686
▁manipulation	-11.6686
▁renowned	-11.6686
▁Toronto	-11.6686
▁precedence	-11.6686
▁utilization	-11.6686
▁weird	-11.6687
▁retirement	-11.6687
▁attacked	-11.6688
pwd	-11.6693
▁checkout	-11.6694
BR	-11.6694
ffer	-11.6695
accept	-11.6695
eye	-11.6695
rules	-11.6696
observ	-11.6697
lem	-11.6699
▁Eve	-11.6699
heat	-11.6699
▁lucky	-11.67
ulator	-11.6702
▁anonymous	-11.6705
▁negotiations	-11.6705
▁toggle	-11.6707
▁Roll	-11.6707
▁announce	-11.6708
▁fence	-11.6709
▁Ray	-11.671
▁filed	-11.6712
▁bay	-11.6713
Example	-11.6714
operation	-11.6715
scsi	-11.6717
tee	-11.6718
▁Bus	-11.6718
ival	-11.6719
▁indirect	-11.672
▁reasoning	-11.672
▁exceptions	-11.672
▁Tro	-11.6725
▁Eu	-11.6725
▁deploy	-11.6725
▁organisations	-11.6728
bn	-11.6729
▁Square	-11.673
▁telescope	-11.6731
▁instinct	-11.6731
▁ioctl	-11.6731
▁naming	-11.6732
interactive	-11.6732
market	-11.6732
vector	-11.6733
▁educated	-11.6734
DNS	-11.6734
▁revert	-11.6735
ime	-11.6737
▁chunk	-11.6737
▁wished	-11.6738
▁linking	-11.6738
engine	-11.6739
▁cabin	-11.6739
▁forwarding	-11.674
ipv	-11.674
▁convinced	-11.6744
▁cake	-11.6745
▁cheaper	-11.6746
▁Blood	-11.6747
▁colony	-11.6748
▁hypo	-11.6748
Comp	-11.6749
▁subscribe	-11.6749
inline	-11.6751
▁`\	-11.6751
▁KEY	-11.6752
▁ordering	-11.6752
htm	-11.6752
▁derive	-11.6753
▁Steven	-11.6754
voice	-11.6754
▁streaming	-11.6754
▁jo	-11.6754
ava	-11.6755
plus	-11.6759
▁Allen	-11.676
▁trash	-11.676
▁graphical	-11.6761
Target	-11.6763
logic	-11.6763
▁incorporated	-11.6764
▁wheels	-11.6765
▁fired	-11.6766
English	-11.6767
impl	-11.6768
mash	-11.677
Op	-11.6771
▁compassion	-11.6772
▁Cl	-11.6773
brew	-11.6773
syn	-11.6775
â	-11.6775
▁debris	-11.6776
▁Normally	-11.6778
▁boasts	-11.6779
HEAD	-11.6781
▁rings	-11.6782
▁surgeon	-11.6783
▁fame	-11.6785
▁pursuit	-11.6785
stock	-11.6787
▁Close	-11.6788
▁Ye	-11.6793
▁sudoers	-11.6795
▁comic	-11.68
▁suited	-11.68
▁spa	-11.68
▁shifting	-11.6802
▁predicted	-11.6803
▁responding	-11.6804
▁ram	-11.6805
spot	-11.6805
▁Limit	-11.6806
▁Sum	-11.6809
▁geometry	-11.6809
▁authorized	-11.6809
▁syslog	-11.681
spire	-11.6811
▁interactively	-11.6813
tine	-11.6814
writing	-11.6817
STANDARDS	-11.6817
▁separator	-11.6818
▁bias	-11.6819
camp	-11.682
▁GitHub	-11.682
FAILURE	-11.682
▁anniversary	-11.682
▁elegant	-11.682
▁practicing	-11.682
▁versatile	-11.682
▁pulling	-11.6821
▁pretend	-11.6822
▁Authority	-11.6823
▁Dy	-11.6824
▁careers	-11.6824
▁ne	-11.6826
▁moist	-11.6827
▁accepting	-11.6828
rou	-11.6828
AND	-11.683
quick	-11.683
▁Desktop	-11.6831
▁Nazi	-11.6831
▁sustained	-11.6836
▁DA	-11.6838
▁producers	-11.6838
SIG	-11.684
▁closest	-11.6841
aven	-11.6841
▁imported	-11.6842
▁bacterial	-11.6843
▁lawn	-11.6843
OPEN	-11.6846
▁supportive	-11.6848
Gra	-11.6849
▁MARK	-11.685
▁profits	-11.6852
▁adverse	-11.6857
▁Rob	-11.6858
▁Shell	-11.6859
much	-11.686
▁Lock	-11.686
quad	-11.6862
▁Active	-11.6863
lite	-11.6863
shed	-11.6864
▁Dictionary	-11.6864
▁riding	-11.6864
ffmpeg	-11.6866
▁Jordan	-11.6866
▁financing	-11.6866
▁architectural	-11.6866
▁modifier	-11.6866
OM	-11.6866
prompt	-11.6866
▁newest	-11.6866
▁emails	-11.6866
▁bark	-11.6867
▁adhere	-11.6867
▁clay	-11.6869
dependent	-11.6869
▁inventory	-11.687
Photo	-11.687
Document	-11.6871
▁colleges	-11.6871
▁Forum	-11.6872
└────────	-11.6872
Di	-11.6873
▁elderly	-11.6873
borne	-11.6875
▁Poly	-11.6875
▁singular	-11.6875
rator	-11.6876
▁trunk	-11.6877
▁clouds	-11.6877
▁Screen	-11.6879
rah	-11.6879
▁Egyptian	-11.6879
▁machinery	-11.688
▁extraction	-11.6881
▁rocket	-11.6881
▁comply	-11.6883
aro	-11.6883
vas	-11.6884
ATE	-11.6885
dra	-11.6886
listen	-11.6886
Level	-11.6887
UR	-11.6889
▁beans	-11.6889
▁nutritional	-11.6891
▁Eye	-11.6893
▁digit	-11.6894
SON	-11.6899
▁generous	-11.6902
▁assessed	-11.6907
owned	-11.6908
▁suspend	-11.6908
▁pets	-11.691
▁triumph	-11.691
▁consensus	-11.6911
▁crazy	-11.6911
▁summarize	-11.6911
▁Sweden	-11.6911
▁Conservation	-11.6911
Network	-11.6912
Handler	-11.6912
▁WiFi	-11.6912
Task	-11.6912
▁Fox	-11.6913
▁banking	-11.6914
▁funny	-11.6915
▁remainder	-11.6915
▁hitting	-11.6916
▁elementary	-11.6917
▁nuts	-11.6919
RAND	-11.692
Layout	-11.692
▁SEO	-11.6922
▁Mediterranean	-11.6924
▁publicly	-11.6926
▁Bull	-11.6926
▁Pet	-11.6926
cookie	-11.6928
▁gains	-11.6928
▁iptables	-11.693
dine	-11.6931
▁suppliers	-11.6931
rav	-11.6931
Allow	-11.6932
<!--	-11.6934
ories	-11.6938
▁secrets	-11.6938
activity	-11.694
attach	-11.6942
▁attracted	-11.6943
▁Neuro	-11.6943
▁Living	-11.6944
▁colours	-11.6945
▁Mont	-11.6945
Ti	-11.6945
▁wires	-11.6947
images	-11.6949
rangle	-11.6952
▁blocking	-11.6953
notes	-11.6954
▁explored	-11.6954
▁Winter	-11.6954
▁lacking	-11.6955
▁circles	-11.6956
▁circulation	-11.6957
▁divorce	-11.6957
▁fracture	-11.6957
▁okay	-11.6957
▁verified	-11.6957
▁voting	-11.6958
▁deadly	-11.6959
▁infer	-11.6964
▁explaining	-11.6964
sdb	-11.6965
kes	-11.6966
xf	-11.6968
▁earthquake	-11.697
itt	-11.6972
▁Channel	-11.6972
▁epi	-11.6974
ali	-11.6975
EG	-11.6975
▁optionally	-11.6979
▁und	-11.6981
vir	-11.6982
uma	-11.6982
▁pest	-11.6982
nis	-11.6984
zing	-11.6985
▁CLI	-11.6989
▁planted	-11.6991
▁Hy	-11.6992
▁sees	-11.6992
▁Root	-11.6994
▁installer	-11.6995
▁advocate	-11.6996
partition	-11.6996
▁Picture	-11.6998
CMD	-11.7
UC	-11.7002
▁grief	-11.7003
▁retention	-11.7003
▁multiply	-11.7003
▁comparable	-11.7003
▁franchise	-11.7003
▁Gallery	-11.7003
prof	-11.7005
▁achievements	-11.7005
many	-11.7005
▁PhD	-11.701
▁centered	-11.7011
▁systematic	-11.7011
▁coaches	-11.7011
▁builtin	-11.7011
▁breathe	-11.7011
chin	-11.7013
erson	-11.7014
▁ingredient	-11.7017
▁Colonel	-11.7017
▁surveys	-11.7017
▁sensation	-11.7018
KB	-11.7018
▁Hal	-11.702
▁Bas	-11.7021
pgm	-11.7022
▁joke	-11.7023
▁guided	-11.7025
▁insufficient	-11.7025
▁angles	-11.7026
▁receipt	-11.7027
▁publications	-11.7027
World	-11.7027
▁Gil	-11.7031
▁syscall	-11.7034
▁upgraded	-11.7034
pick	-11.7035
▁sufficiently	-11.7036
nate	-11.7039
▁occupation	-11.704
BL	-11.7041
▁tens	-11.7041
▁Wisconsin	-11.7042
▁urine	-11.7045
Tu	-11.7046
▁Month	-11.7046
GI	-11.7047
glass	-11.7048
▁Agreement	-11.7049
▁abundance	-11.7049
▁memorable	-11.7049
▁sediment	-11.7049
▁Fo	-11.7049
probe	-11.7053
Second	-11.7055
▁eco	-11.7055
Parser	-11.7057
▁Gene	-11.7057
▁momentum	-11.7058
powershell	-11.7058
talk	-11.7062
▁drove	-11.7063
holder	-11.7063
cker	-11.7065
Connection	-11.7066
▁jaw	-11.7069
▁Albert	-11.7069
▁Res	-11.7071
▁appealing	-11.7072
PU	-11.7073
▁warned	-11.7073
▁tablet	-11.7074
▁remind	-11.7074
udge	-11.7077
Spec	-11.7077
▁ms	-11.7077
▁metric	-11.7077
▁Burn	-11.7077
events	-11.7079
lis	-11.7082
calc	-11.7085
▁primitive	-11.7085
▁eager	-11.7085
▁dressed	-11.7086
▁Sep	-11.709
▁monitors	-11.7092
▁votes	-11.7093
awa	-11.7094
▁Ukraine	-11.7095
▁hygiene	-11.7095
▁inquiry	-11.7095
▁surrender	-11.7095
zsh	-11.7095
▁Together	-11.7096
▁rooted	-11.7098
~\	-11.7098
Like	-11.7098
RSA	-11.7099
▁Docker	-11.7099
▁norms	-11.7102
▁prospects	-11.7103
CN	-11.7103
▁atoms	-11.7104
shaped	-11.7104
▁hell	-11.7105
▁aggregate	-11.7105
▁ret	-11.711
sbin	-11.711
▁catalog	-11.7115
▁scored	-11.7115
▁Title	-11.7116
▁colonial	-11.7117
cover	-11.7119
▁coordinate	-11.7119
KS	-11.7119
▁mandate	-11.712
▁Tur	-11.712
▁masses	-11.7122
▁shoulders	-11.7124
virt	-11.7124
wl	-11.7126
bur	-11.7128
▁induce	-11.7128
▁figured	-11.7129
fin	-11.713
▁deserve	-11.7131
▁checksum	-11.7131
▁»	-11.7133
▁Sol	-11.7135
▁lamp	-11.7141
▁electronics	-11.7141
▁cardiovascular	-11.7141
uel	-11.7141
▁amendment	-11.7144
RES	-11.7145
Merge	-11.7147
▁handy	-11.7148
▁enters	-11.7149
▁ecosystems	-11.7149
///	-11.7152
risk	-11.7153
especially	-11.7154
▁Py	-11.7155
ced	-11.7156
▁ranks	-11.7157
▁Clinical	-11.7158
lean	-11.7159
▁Custom	-11.716
▁Kids	-11.716
▁wherever	-11.7162
▁customized	-11.7162
▁markers	-11.7162
▁imagery	-11.7164
▁cmd	-11.7164
▁GPT	-11.7164
HOST	-11.7165
Sign	-11.7166
PF	-11.7167
ancing	-11.7168
▁dad	-11.7168
▁blast	-11.717
▁magical	-11.7171
▁Senior	-11.7174
BM	-11.7175
▁Ana	-11.7176
▁Definition	-11.7177
▁backward	-11.7177
▁Happy	-11.7178
▁seamless	-11.718
lating	-11.7183
▁SH	-11.7185
▁Indiana	-11.7185
:{{	-11.7186
▁Hot	-11.7186
▁absorption	-11.7188
▁capacitor	-11.7188
▁easiest	-11.7188
▁identifies	-11.7188
▁manuscript	-11.7188
▁NTFS	-11.7188
▁Typically	-11.7189
▁insist	-11.7189
aster	-11.7191
▁dynamically	-11.7192
▁Quick	-11.7193
cup	-11.7193
▁deemed	-11.7193
▁Tool	-11.7194
agon	-11.7197
▁politicians	-11.7198
▁touching	-11.7199
Ta	-11.72
Folder	-11.7201
pol	-11.7202
why	-11.7203
▁Role	-11.7206
digit	-11.7213
ela	-11.7214
mean	-11.7214
▁Ann	-11.7215
▁Others	-11.7216
carbon	-11.7218
▁portions	-11.7218
follow	-11.7219
▁sizeof	-11.7219
▁bent	-11.722
VA	-11.722
Based	-11.722
digest	-11.7221
▁vitamins	-11.7223
rite	-11.7224
RB	-11.7225
▁Five	-11.7226
hub	-11.723
▁cope	-11.7231
mirror	-11.7232
▁Singapore	-11.7235
▁relevance	-11.7235
▁hints	-11.7235
▁Gulf	-11.7235
▁Ce	-11.7236
Empty	-11.7236
▁NS	-11.7237
regular	-11.7237
jur	-11.7237
▁bolt	-11.724
▁HISTORY	-11.7241
burg	-11.7241
▁behavioral	-11.7241
▁mate	-11.7243
emp	-11.7243
▁Generally	-11.7246
▁uncle	-11.7247
▁fitted	-11.7247
▁Assembly	-11.7252
▁RETURN	-11.7252
VC	-11.7253
▁rewards	-11.7254
▁disconnect	-11.7255
escent	-11.7259
HD	-11.7259
START	-11.726
▁tick	-11.7262
tical	-11.7263
Fa	-11.7264
going	-11.7265
▁Resource	-11.7267
▁Steel	-11.7269
▁Stat	-11.7269
uce	-11.7272
single	-11.7275
▁homo	-11.728
▁defensive	-11.7282
▁demonstrating	-11.7282
▁threw	-11.7282
▁backslash	-11.7282
▁garbage	-11.7283
▁prospective	-11.7283
Clear	-11.7283
▁Season	-11.7286
links	-11.7288
motion	-11.7289
▁relying	-11.7289
sigma	-11.729
Back	-11.729
▁hop	-11.729
▁shifts	-11.7295
Admin	-11.7298
pie	-11.7299
▁rush	-11.73
▁suspended	-11.73
hur	-11.7301
▁builds	-11.7303
Mark	-11.7305
▁servants	-11.7305
▁deposits	-11.7307
▁shame	-11.7308
▁portrait	-11.7309
▁compromise	-11.7309
▁cu	-11.731
▁cha	-11.731
▁casting	-11.731
Tree	-11.7311
▁induced	-11.7312
▁converting	-11.7315
▁ec	-11.7315
logger	-11.7317
EXT	-11.7317
▁neighbors	-11.7317
▁Len	-11.7318
▁highway	-11.7318
▁erase	-11.7319
▁gases	-11.7319
▁Clark	-11.7319
▁plasma	-11.7321
HISTORY	-11.7324
bow	-11.7325
dat	-11.7325
Prints	-11.7326
eri	-11.7328
quote	-11.7329
▁competing	-11.733
▁influential	-11.733
▁tragedy	-11.733
▁Requirements	-11.733
▁antenna	-11.733
▁genius	-11.733
▁Brook	-11.733
▁bees	-11.7333
▁processors	-11.7334
▁Sarah	-11.7335
▁intensive	-11.7335
▁decent	-11.7335
▁Hart	-11.7336
▁overrides	-11.7338
EQ	-11.7338
macros	-11.7339
lore	-11.7342
▁Wor	-11.7342
LIB	-11.7345
Str	-11.7346
▁approached	-11.7348
▁jet	-11.7349
▁eaten	-11.7349
pes	-11.7349
▁prototype	-11.7352
resp	-11.7353
▁demanding	-11.7356
basename	-11.7358
raid	-11.7358
upper	-11.7359
lapse	-11.7361
▁Sar	-11.7362
▁landed	-11.7363
▁Mus	-11.7365
▁filtering	-11.7369
▁lane	-11.737
▁coaching	-11.737
▁knife	-11.737
resolv	-11.7371
▁Records	-11.7372
▁Brain	-11.7375
▁builder	-11.7375
Cha	-11.7376
bia	-11.7377
▁urgent	-11.7378
▁wavelength	-11.7378
▁lemon	-11.7379
▁accessories	-11.7379
▁Heaven	-11.7381
▁CE	-11.7383
country	-11.7384
▁sustain	-11.7385
bg	-11.7385
▁gotten	-11.7385
▁justify	-11.7387
pit	-11.7387
▁connects	-11.7387
▁charity	-11.7389
FB	-11.7389
NOTES	-11.7391
Location	-11.7396
▁switched	-11.7398
physical	-11.7398
paste	-11.7402
▁comm	-11.7403
dos	-11.7403
nut	-11.7403
▁browse	-11.7405
▁sooner	-11.7406
rag	-11.7406
rob	-11.7408
▁Below	-11.7409
gie	-11.7411
▁stems	-11.7412
▁possessed	-11.7413
▁publishing	-11.7414
Current	-11.7414
projects	-11.7417
▁cousin	-11.7419
▁Move	-11.7419
▁monitored	-11.7419
▁Foreign	-11.7419
▁theater	-11.7421
▁Caribbean	-11.7425
▁undoubtedly	-11.7425
▁dirt	-11.7425
▁Unicode	-11.7426
▁invented	-11.7426
rightarrow	-11.7426
▁humble	-11.7427
▁CS	-11.7427
Style	-11.743
gus	-11.7431
▁Body	-11.7434
▁coral	-11.7436
----------	-11.7438
▁desires	-11.7442
▁proceedings	-11.7443
▁modeling	-11.7445
▁homework	-11.7445
road	-11.7446
▁phrases	-11.7447
charge	-11.7449
race	-11.745
boy	-11.745
▁DS	-11.745
leave	-11.745
iber	-11.7451
▁validate	-11.7453
Module	-11.7453
bag	-11.7453
▁appended	-11.7454
Pass	-11.7457
ulo	-11.746
▁Song	-11.746
▁Starting	-11.7466
▁constitute	-11.7466
ILL	-11.7469
thi	-11.747
general	-11.747
zar	-11.747
▁Muslims	-11.7471
▁lecture	-11.7471
▁autumn	-11.7473
▁dementia	-11.7473
▁simplicity	-11.7473
▁susceptible	-11.7473
}^{	-11.7473
▁garage	-11.7474
▁visually	-11.7474
▁niche	-11.7474
▁ultra	-11.7474
▁baseball	-11.7476
▁conclude	-11.7476
={	-11.7477
Cor	-11.7477
▁pH	-11.7478
▁func	-11.7478
sie	-11.7485
callback	-11.7486
▁Legal	-11.7487
▁artwork	-11.7488
arily	-11.7488
▁lighter	-11.7488
taking	-11.7488
▁lad	-11.749
bell	-11.7494
▁Engine	-11.7494
▁folk	-11.7496
ifies	-11.7496
▁EPA	-11.7496
▁awards	-11.7498
objects	-11.7503
Component	-11.7503
▁clubs	-11.7506
success	-11.7508
Reference	-11.7511
unk	-11.7518
▁endo	-11.752
▁privileged	-11.7521
LICENSE	-11.7521
▁economies	-11.7521
▁stupid	-11.7521
▁incidence	-11.7522
▁Christopher	-11.7522
CTRL	-11.7523
▁dropping	-11.7525
▁wanting	-11.7526
▁invite	-11.7526
▁Guard	-11.7526
▁flowing	-11.7528
▁poems	-11.7529
▁extending	-11.7531
cel	-11.7532
Apply	-11.7534
aire	-11.7534
▁dock	-11.7535
Receive	-11.7535
▁aliases	-11.7536
▁modem	-11.7536
scribed	-11.7539
▁enthusiasm	-11.7541
▁Break	-11.7542
Fact	-11.7542
▁Row	-11.7544
shore	-11.7544
▁dare	-11.7544
▁periodic	-11.7544
▁NC	-11.7547
▁viewer	-11.7549
▁proto	-11.755
▁"[	-11.755
▁Fan	-11.755
▁landscapes	-11.755
ARC	-11.7551
hum	-11.7551
▁RNA	-11.7552
▁waited	-11.7552
▁repairs	-11.7552
▁udev	-11.7555
thy	-11.7556
▁Spi	-11.7558
=[	-11.7559
▁Euro	-11.756
▁randomly	-11.7562
▁advisor	-11.7563
Perform	-11.7564
Play	-11.757
▁excellence	-11.757
▁Scripture	-11.757
▁nevertheless	-11.757
▁holistic	-11.757
▁Laboratory	-11.757
▁sculpture	-11.7571
▁Sk	-11.7571
▁[[	-11.7571
▁"__	-11.7571
▁indicators	-11.7572
▁demo	-11.7573
▁distances	-11.7573
▁considerably	-11.7574
▁Define	-11.7576
▁thinks	-11.7579
▁farmer	-11.7579
/#	-11.7579
▁Disk	-11.7581
computer	-11.7582
dress	-11.7582
Learn	-11.7589
▁Mississippi	-11.759
▁trailer	-11.759
▁Kn	-11.7591
audio	-11.7593
▁Communication	-11.7595
youtube	-11.7595
▁encounters	-11.7597
▁mock	-11.7597
Ar	-11.7597
▁cease	-11.76
▁illustrated	-11.76
receive	-11.7603
wrap	-11.7605
▁retained	-11.7606
plant	-11.7607
▁promptly	-11.7608
Im	-11.7608
▁NAME	-11.761
▁forcing	-11.761
▁thoughtful	-11.7611
ema	-11.7612
▁vaccines	-11.7614
▁reserves	-11.7614
lied	-11.7614
▁corporations	-11.7615
strict	-11.7616
▁Copy	-11.7618
ect	-11.7619
▁casual	-11.7619
▁frequencies	-11.7619
▁introducing	-11.7619
▁tournament	-11.7619
▁Kansas	-11.7619
▁pizza	-11.7619
▁Wildlife	-11.7619
▁Disorder	-11.762
▁Event	-11.7622
▁constants	-11.7623
▁organizational	-11.7623
▁loves	-11.7625
▁counties	-11.7626
▁theatre	-11.7627
▁declined	-11.7628
▁BSD	-11.7629
▁Dark	-11.7629
▁offline	-11.7631
▁gallery	-11.7631
tics	-11.7631
cgi	-11.7635
▁NE	-11.7636
tron	-11.7637
_*	-11.7637
▁horn	-11.7638
interest	-11.7639
▁tan	-11.7639
▁tomb	-11.7641
extract	-11.7642
caption	-11.7642
tens	-11.7644
▁ghost	-11.7645
▁php	-11.7645
▁Join	-11.7648
▁Kit	-11.7648
▁coins	-11.7649
▁exc	-11.765
▁von	-11.7652
LAN	-11.7656
IST	-11.7658
ART	-11.7659
▁Track	-11.766
▁badly	-11.7662
construct	-11.7663
ddle	-11.7665
▁odds	-11.7667
","	-11.7668
▁Magazine	-11.7668
▁Tennessee	-11.7668
▁disposal	-11.7668
▁shake	-11.7668
oni	-11.7669
▁iPad	-11.7669
[[	-11.7673
Upgrade	-11.7673
ELL	-11.7674
▁headed	-11.7675
chemical	-11.7676
▁configurations	-11.7678
component	-11.768
▁boom	-11.768
▁sensory	-11.7681
▁coin	-11.7682
▁Rate	-11.7684
CG	-11.7685
eff	-11.7691
Skip	-11.7692
fsck	-11.7693
▁→	-11.7693
▁halt	-11.7693
▁PCI	-11.7694
Child	-11.7694
▁arrow	-11.7695
Import	-11.7695
▁teens	-11.7697
▁confess	-11.7699
Symbol	-11.7701
NN	-11.7702
cnt	-11.7702
▁Ur	-11.7702
terminal	-11.7703
▁`--	-11.7703
unless	-11.7704
▁servant	-11.7705
▁[<	-11.7708
west	-11.771
▁Jun	-11.7711
▁cylinder	-11.7711
Day	-11.7713
▁Harris	-11.7716
▁nitrogen	-11.7717
▁biodiversity	-11.7717
▁Darwin	-11.7718
delay	-11.7718
▁adaptive	-11.7719
▁Objective	-11.772
▁endpoint	-11.772
▁foundations	-11.7721
teen	-11.7723
sphere	-11.7725
written	-11.7725
▁prone	-11.7725
▁Sat	-11.7725
▁exported	-11.7728
TRACE	-11.7728
▁saves	-11.7733
▁shortage	-11.7733
mos	-11.7734
▁Single	-11.7735
▁Effective	-11.7738
▁PI	-11.7741
▁"""	-11.7743
question	-11.7746
km	-11.7746
▁harness	-11.7746
aba	-11.7747
▁adjustment	-11.7748
▁asleep	-11.775
virus	-11.7752
▁innovations	-11.7752
DOS	-11.7753
▁camps	-11.7755
▁terrorist	-11.7755
▁brightness	-11.7756
boat	-11.7757
AH	-11.7757
}$.	-11.7757
▁soup	-11.7757
chrome	-11.7758
▁Mind	-11.7759
▁predictions	-11.776
▁disagree	-11.776
▁CPUs	-11.776
olic	-11.7762
bri	-11.7762
developer	-11.7766
GP	-11.7766
▁Technical	-11.7766
▁Bluetooth	-11.7767
▁consecutive	-11.7767
▁philosopher	-11.7767
pulumi	-11.7767
CHECK	-11.7767
nginx	-11.7767
▁Alaska	-11.7767
▁YOU	-11.7767
▁alliance	-11.7767
▁dip	-11.7767
▁Outlook	-11.7767
▁throne	-11.7767
▁patron	-11.7767
▁Disney	-11.7768
protocol	-11.7768
▁Ancient	-11.7768
Finally	-11.7768
▁farther	-11.7771
▁lion	-11.7772
VAL	-11.7776
rud	-11.7778
▁traced	-11.7782
▁flock	-11.7783
▁EM	-11.7785
pound	-11.7787
▁Agriculture	-11.7788
▁substantially	-11.7789
▁Raspberry	-11.7794
▁psycho	-11.7795
▁differential	-11.7797
|\	-11.7798
▁Theory	-11.7799
▁END	-11.78
(*	-11.7803
inate	-11.7805
▁sciences	-11.7808
illo	-11.7808
▁beds	-11.781
▁controversial	-11.7816
▁medieval	-11.7816
▁sorrow	-11.7816
bud	-11.7817
▁discourse	-11.7817
▁hiring	-11.7818
Ver	-11.7818
EVENT	-11.7819
▁relates	-11.782
Pattern	-11.782
wheel	-11.7822
ADDR	-11.7822
▁Mini	-11.7824
>"	-11.7825
▁actor	-11.7827
▁insect	-11.7827
▁resistant	-11.7827
▁Rod	-11.7829
▁neurons	-11.783
"`	-11.7832
▁boss	-11.7832
▁Either	-11.7833
▁Apr	-11.7836
▁timestamps	-11.7837
▁Regular	-11.7837
▁Focus	-11.7839
Description	-11.7841
STR	-11.7842
;&	-11.7844
▁toilet	-11.7844
cad	-11.7845
▁concentrate	-11.7846
▁poorly	-11.7846
▁pour	-11.7849
▁preview	-11.785
tau	-11.7853
▁efficacy	-11.7858
▁upset	-11.7859
helm	-11.7859
▁\\	-11.7859
▁bottles	-11.786
wire	-11.7861
▁corners	-11.7861
Frame	-11.7864
gc	-11.7865
thin	-11.7866
apptainer	-11.7866
▁cliff	-11.7867
chrom	-11.7867
▁unlimited	-11.7868
▁parsing	-11.7868
▁hungry	-11.7868
▁knight	-11.7869
▁picking	-11.7869
▁mainstream	-11.7871
▁punch	-11.7871
▁Schools	-11.7872
▁wars	-11.7872
idae	-11.7873
────────────	-11.7873
▁unclear	-11.7873
alter	-11.7873
natural	-11.7874
▁LTS	-11.7874
▁screens	-11.7874
▁Labor	-11.7875
▁reinstall	-11.7875
▁intersection	-11.7876
▁fastest	-11.7876
▁Results	-11.7878
Thread	-11.7879
hyp	-11.7879
▁Method	-11.7879
▁surroundings	-11.788
▁illnesses	-11.788
inal	-11.7883
Num	-11.7884
▁cruel	-11.7885
▁wealthy	-11.7891
USB	-11.7895
}]	-11.7896
gna	-11.7896
▁elect	-11.7897
▁pointers	-11.7897
▁Ol	-11.7897
xcode	-11.7897
▁prompts	-11.7897
▁Enterprise	-11.79
▁Assessment	-11.7901
▁investigated	-11.7902
▁strengthening	-11.7904
▁rolled	-11.7905
▁workspace	-11.7906
uous	-11.7906
▁PO	-11.7911
UX	-11.7911
▁rope	-11.7913
SYSTEM	-11.7913
▁parsed	-11.7913
mpl	-11.7914
▁parish	-11.7914
▁dressing	-11.7915
esteem	-11.7916
▁Houston	-11.7917
▁athletic	-11.7917
▁ministry	-11.7917
▁clever	-11.7917
▁discern	-11.7917
▁tendency	-11.7918
▁salad	-11.7918
▁Final	-11.7918
gil	-11.7918
|...}}	-11.7918
tie	-11.7921
expire	-11.7922
blank	-11.7923
▁Member	-11.7924
▁Regional	-11.7926
▁Rain	-11.7926
ACK	-11.7927
Tri	-11.7929
▁seized	-11.793
pio	-11.7932
plex	-11.7932
▁silently	-11.7933
signed	-11.7934
▁likewise	-11.7934
pun	-11.7935
▁ABI	-11.7935
▁bitter	-11.7936
▁Jul	-11.7936
▁wrapped	-11.7938
▁legally	-11.7939
fect	-11.7939
ease	-11.7941
▁systemctl	-11.7941
▁myth	-11.7942
▁Secure	-11.7943
▁quietly	-11.7945
▁HR	-11.7947
▁GL	-11.7951
▁initialize	-11.7953
VP	-11.7956
Mount	-11.7957
▁specially	-11.7958
▁scalar	-11.7959
▁Hor	-11.796
bear	-11.7961
Doc	-11.7965
▁enforce	-11.7965
)))	-11.7967
▁basket	-11.7967
dow	-11.7967
ν	-11.7967
▁hesitate	-11.7967
ree	-11.7968
▁Malaysia	-11.7969
▁handed	-11.7969
▁Awards	-11.7971
▁fatty	-11.7971
cil	-11.7972
hello	-11.7973
attribute	-11.7975
inet	-11.7975
▁nights	-11.7978
▁contexts	-11.7982
▁replicate	-11.7987
▁Request	-11.7988
eight	-11.7989
▁Trail	-11.7989
Range	-11.799
sar	-11.7991
▁Fla	-11.7992
lick	-11.7994
heart	-11.7995
hd	-11.7996
▁Everyone	-11.7999
Off	-11.8
▁demonstration	-11.8
might	-11.8001
▁neglect	-11.8002
Non	-11.8004
▁Character	-11.8004
▁Visit	-11.8005
hoe	-11.8007
nk	-11.8009
▁Scientific	-11.801
▁Mun	-11.8012
gno	-11.8013
▁Century	-11.8015
▁imposed	-11.8017
▁irregular	-11.8017
▁Kennedy	-11.8018
▁advancing	-11.8018
▁confined	-11.8018
▁hormones	-11.8018
▁Defense	-11.8018
▁Turkish	-11.8018
▁Palace	-11.8019
▁spill	-11.8019
▁Planning	-11.8019
▁paramount	-11.8019
▁torture	-11.802
▁Political	-11.802
Flags	-11.8021
▁pond	-11.8021
▁potatoes	-11.8021
certificate	-11.8022
▁narratives	-11.8022
▁Jane	-11.8023
▁Response	-11.8024
▁wore	-11.8025
▁BA	-11.8029
dol	-11.803
▁ka	-11.803
TOR	-11.8032
▁dye	-11.8032
lop	-11.8033
▁Village	-11.8033
▁tide	-11.8033
spice	-11.8035
tam	-11.8037
▁cal	-11.8038
ote	-11.8039
▁ES	-11.8039
▁molecule	-11.804
▁hath	-11.8041
▁RT	-11.8042
RED	-11.8042
▁disrupt	-11.8042
existing	-11.8044
[...]
