<pad>	0
</s>	0
<unk>	0
<extra_id_0>	0
<extra_id_1>	0
<extra_id_2>	0
<extra_id_3>	0
<extra_id_4>	0
<extra_id_5>	0
<extra_id_6>	0
<extra_id_7>	0
<extra_id_8>	0
<extra_id_9>	0
<extra_id_10>	0
<extra_id_11>	0
<extra_id_12>	0
<extra_id_13>	0
<extra_id_14>	0
<extra_id_15>	0
<extra_id_16>	0
<extra_id_17>	0
<extra_id_18>	0
<extra_id_19>	0
<extra_id_20>	0
<extra_id_21>	0
<extra_id_22>	0
<extra_id_23>	0
<extra_id_24>	0
<extra_id_25>	0
<extra_id_26>	0
<extra_id_27>	0
<extra_id_28>	0
<extra_id_29>	0
<extra_id_30>	0
<extra_id_31>	0
<extra_id_32>	0
<extra_id_33>	0
<extra_id_34>	0
<extra_id_35>	0
<extra_id_36>	0
<extra_id_37>	0
<extra_id_38>	0
<extra_id_39>	0
<extra_id_40>	0
<extra_id_41>	0
<extra_id_42>	0
<extra_id_43>	0
<extra_id_44>	0
<extra_id_45>	0
<extra_id_46>	0
<extra_id_47>	0
<extra_id_48>	0
<extra_id_49>	0
<extra_id_50>	0
<extra_id_51>	0
<extra_id_52>	0
<extra_id_53>	0
<extra_id_54>	0
<extra_id_55>	0
<extra_id_56>	0
<extra_id_57>	0
<extra_id_58>	0
<extra_id_59>	0
<extra_id_60>	0
<extra_id_61>	0
<extra_id_62>	0
<extra_id_63>	0
<extra_id_64>	0
<extra_id_65>	0
<extra_id_66>	0
<extra_id_67>	0
<extra_id_68>	0
<extra_id_69>	0
<extra_id_70>	0
<extra_id_71>	0
<extra_id_72>	0
<extra_id_73>	0
<extra_id_74>	0
<extra_id_75>	0
<extra_id_76>	0
<extra_id_77>	0
<extra_id_78>	0
<extra_id_79>	0
<extra_id_80>	0
<extra_id_81>	0
<extra_id_82>	0
<extra_id_83>	0
<extra_id_84>	0
<extra_id_85>	0
<extra_id_86>	0
<extra_id_87>	0
<extra_id_88>	0
<extra_id_89>	0
<extra_id_90>	0
<extra_id_91>	0
<extra_id_92>	0
<extra_id_93>	0
<extra_id_94>	0
<extra_id_95>	0
<extra_id_96>	0
<extra_id_97>	0
<extra_id_98>	0
<extra_id_99>	0
<extra_id_100>	0
<extra_id_101>	0
<extra_id_102>	0
<extra_id_103>	0
<extra_id_104>	0
<extra_id_105>	0
<extra_id_106>	0
<extra_id_107>	0
<extra_id_108>	0
<extra_id_109>	0
<extra_id_110>	0
<extra_id_111>	0
<extra_id_112>	0
<extra_id_113>	0
<extra_id_114>	0
<extra_id_115>	0
<extra_id_116>	0
<extra_id_117>	0
<extra_id_118>	0
<extra_id_119>	0
<extra_id_120>	0
<extra_id_121>	0
<extra_id_122>	0
<extra_id_123>	0
<extra_id_124>	0
<extra_id_125>	0
<extra_id_126>	0
<extra_id_127>	0
<extra_id_128>	0
<extra_id_129>	0
<extra_id_130>	0
<extra_id_131>	0
<extra_id_132>	0
<extra_id_133>	0
<extra_id_134>	0
<extra_id_135>	0
<extra_id_136>	0
<extra_id_137>	0
<extra_id_138>	0
<extra_id_139>	0
<extra_id_140>	0
<extra_id_141>	0
<extra_id_142>	0
<extra_id_143>	0
<extra_id_144>	0
<extra_id_145>	0
<extra_id_146>	0
<extra_id_147>	0
<extra_id_148>	0
<extra_id_149>	0
<extra_id_150>	0
<extra_id_151>	0
<extra_id_152>	0
<extra_id_153>	0
<extra_id_154>	0
<extra_id_155>	0
<extra_id_156>	0
<extra_id_157>	0
<extra_id_158>	0
<extra_id_159>	0
<extra_id_160>	0
<extra_id_161>	0
<extra_id_162>	0
<extra_id_163>	0
<extra_id_164>	0
<extra_id_165>	0
<extra_id_166>	0
<extra_id_167>	0
<extra_id_168>	0
<extra_id_169>	0
<extra_id_170>	0
<extra_id_171>	0
<extra_id_172>	0
<extra_id_173>	0
<extra_id_174>	0
<extra_id_175>	0
<extra_id_176>	0
<extra_id_177>	0
<extra_id_178>	0
<extra_id_179>	0
<extra_id_180>	0
<extra_id_181>	0
<extra_id_182>	0
<extra_id_183>	0
<extra_id_184>	0
<extra_id_185>	0
<extra_id_186>	0
<extra_id_187>	0
<extra_id_188>	0
<extra_id_189>	0
<extra_id_190>	0
<extra_id_191>	0
<extra_id_192>	0
<extra_id_193>	0
<extra_id_194>	0
<extra_id_195>	0
<extra_id_196>	0
<extra_id_197>	0
<extra_id_198>	0
<extra_id_199>	0
<extra_id_200>	0
<extra_id_201>	0
<extra_id_202>	0
<extra_id_203>	0
<extra_id_204>	0
<extra_id_205>	0
<extra_id_206>	0
<extra_id_207>	0
<extra_id_208>	0
<extra_id_209>	0
<extra_id_210>	0
<extra_id_211>	0
<extra_id_212>	0
<extra_id_213>	0
<extra_id_214>	0
<extra_id_215>	0
<extra_id_216>	0
<extra_id_217>	0
<extra_id_218>	0
<extra_id_219>	0
<extra_id_220>	0
<extra_id_221>	0
<extra_id_222>	0
<extra_id_223>	0
<extra_id_224>	0
<extra_id_225>	0
<extra_id_226>	0
<extra_id_227>	0
<extra_id_228>	0
<extra_id_229>	0
<extra_id_230>	0
<extra_id_231>	0
<extra_id_232>	0
<extra_id_233>	0
<extra_id_234>	0
<extra_id_235>	0
<extra_id_236>	0
<extra_id_237>	0
<extra_id_238>	0
<extra_id_239>	0
<extra_id_240>	0
<extra_id_241>	0
<extra_id_242>	0
<extra_id_243>	0
<extra_id_244>	0
<extra_id_245>	0
<extra_id_246>	0
<extra_id_247>	0
<extra_id_248>	0
<extra_id_249>	0
<extra_id_250>	0
<extra_id_251>	0
<extra_id_252>	0
<extra_id_253>	0
<extra_id_254>	0
<extra_id_255>	0
[R]	0
[X]	0
[S]	0
<style:grammar>	0
<style:concise>	0
<style:elaborate>	0
<style:professional>	0
<style:friendly>	0
<style:assertive>	0
<style:empathetic>	0
<style:fluent>	0
<style:formal>	0
<style:paraphrase>	0
<style:polite>	0
<style:simplify>	0
<text_to_rewrite>	0
</text_to_rewrite>	0
<reserved_0>	0
<reserved_1>	0
<reserved_2>	0
<reserved_3>	0
<reserved_4>	0
<reserved_5>	0
<reserved_6>	0
<reserved_7>	0
<reserved_8>	0
<reserved_9>	0
<reserved_10>	0
<reserved_11>	0
<reserved_12>	0
<reserved_13>	0
<reserved_14>	0
<reserved_15>	0
<reserved_16>	0
<reserved_17>	0
<reserved_18>	0
<reserved_19>	0
<reserved_20>	0
<reserved_21>	0
<reserved_22>	0
<reserved_23>	0
<reserved_24>	0
<reserved_25>	0
<reserved_26>	0
<reserved_27>	0
<reserved_28>	0
<reserved_29>	0
<reserved_30>	0
<reserved_31>	0
<reserved_32>	0
<reserved_33>	0
<reserved_34>	0
<reserved_35>	0
<0x00>	0
<0x01>	0
<0x02>	0
<0x03>	0
<0x04>	0
<0x05>	0
<0x06>	0
<0x07>	0
<0x08>	0
<0x09>	0
<0x0A>	0
<0x0B>	0
<0x0C>	0
<0x0D>	0
<0x0E>	0
<0x0F>	0
<0x10>	0
<0x11>	0
<0x12>	0
<0x13>	0
<0x14>	0
<0x15>	0
<0x16>	0
<0x17>	0
<0x18>	0
<0x19>	0
<0x1A>	0
<0x1B>	0
<0x1C>	0
<0x1D>	0
<0x1E>	0
<0x1F>	0
<0x20>	0
<0x21>	0
<0x22>	0
<0x23>	0
<0x24>	0
<0x25>	0
<0x26>	0
<0x27>	0
<0x28>	0
<0x29>	0
<0x2A>	0
<0x2B>	0
<0x2C>	0
<0x2D>	0
<0x2E>	0
<0x2F>	0
<0x30>	0
<0x31>	0
<0x32>	0
<0x33>	0
<0x34>	0
<0x35>	0
<0x36>	0
<0x37>	0
<0x38>	0
<0x39>	0
<0x3A>	0
<0x3B>	0
<0x3C>	0
<0x3D>	0
<0x3E>	0
<0x3F>	0
<0x40>	0
<0x41>	0
<0x42>	0
<0x43>	0
<0x44>	0
<0x45>	0
<0x46>	0
<0x47>	0
<0x48>	0
<0x49>	0
<0x4A>	0
<0x4B>	0
<0x4C>	0
<0x4D>	0
<0x4E>	0
<0x4F>	0
<0x50>	0
<0x51>	0
<0x52>	0
<0x53>	0
<0x54>	0
<0x55>	0
<0x56>	0
<0x57>	0
<0x58>	0
<0x59>	0
<0x5A>	0
<0x5B>	0
<0x5C>	0
<0x5D>	0
<0x5E>	0
<0x5F>	0
<0x60>	0
<0x61>	0
<0x62>	0
<0x63>	0
<0x64>	0
<0x65>	0
<0x66>	0
<0x67>	0
<0x68>	0
<0x69>	0
<0x6A>	0
<0x6B>	0
<0x6C>	0
<0x6D>	0
<0x6E>	0
<0x6F>	0
<0x70>	0
<0x71>	0
<0x72>	0
<0x73>	0
<0x74>	0
<0x75>	0
<0x76>	0
<0x77>	0
<0x78>	0
<0x79>	0
<0x7A>	0
<0x7B>	0
<0x7C>	0
<0x7D>	0
<0x7E>	0
<0x7F>	0
<0x80>	0
<0x81>	0
<0x82>	0
<0x83>	0
<0x84>	0
<0x85>	0
<0x86>	0
<0x87>	0
<0x88>	0
<0x89>	0
<0x8A>	0
<0x8B>	0
<0x8C>	0
<0x8D>	0
<0x8E>	0
<0x8F>	0
<0x90>	0
<0x91>	0
<0x92>	0
<0x93>	0
<0x94>	0
<0x95>	0
<0x96>	0
<0x97>	0
<0x98>	0
<0x99>	0
<0x9A>	0
<0x9B>	0
<0x9C>	0
<0x9D>	0
<0x9E>	0
<0x9F>	0
<0xA0>	0
<0xA1>	0
<0xA2>	0
<0xA3>	0
<0xA4>	0
<0xA5>	0
<0xA6>	0
<0xA7>	0
<0xA8>	0
<0xA9>	0
<0xAA>	0
<0xAB>	0
<0xAC>	0
<0xAD>	0
<0xAE>	0
<0xAF>	0
<0xB0>	0
<0xB1>	0
<0xB2>	0
<0xB3>	0
<0xB4>	0
<0xB5>	0
<0xB6>	0
<0xB7>	0
<0xB8>	0
<0xB9>	0
<0xBA>	0
<0xBB>	0
<0xBC>	0
<0xBD>	0
<0xBE>	0
<0xBF>	0
<0xC0>	0
<0xC1>	0
<0xC2>	0
<0xC3>	0
<0xC4>	0
<0xC5>	0
<0xC6>	0
<0xC7>	0
<0xC8>	0
<0xC9>	0
<0xCA>	0
<0xCB>	0
<0xCC>	0
<0xCD>	0
<0xCE>	0
<0xCF>	0
<0xD0>	0
<0xD1>	0
<0xD2>	0
<0xD3>	0
<0xD4>	0
<0xD5>	0
<0xD6>	0
<0xD7>	0
<0xD8>	0
<0xD9>	0
<0xDA>	0
<0xDB>	0
<0xDC>	0
<0xDD>	0
<0xDE>	0
<0xDF>	0
<0xE0>	0
<0xE1>	0
<0xE2>	0
<0xE3>	0
<0xE4>	0
<0xE5>	0
<0xE6>	0
<0xE7>	0
<0xE8>	0
<0xE9>	0
<0xEA>	0
<0xEB>	0
<0xEC>	0
<0xED>	0
<0xEE>	0
<0xEF>	0
<0xF0>	0
<0xF1>	0
<0xF2>	0
<0xF3>	0
<0xF4>	0
<0xF5>	0
<0xF6>	0
<0xF7>	0
<0xF8>	0
<0xF9>	0
<0xFA>	0
<0xFB>	0
<0xFC>	0
<0xFD>	0
<0xFE>	0
<0xFF>	0
,	-3.18358
.	-3.26735
▁the	-3.32546
▁of	-3.87377
s	-3.9052
▁and	-3.90646
▁to	-3.95857
▁	-4.09713
▁a	-4.19195
▁in	-4.40779
▁is	-4.7857
-	-4.82652
▁that	-4.93521
1	-5.00448
0	-5.06467
▁for	-5.07956
'	-5.1555
▁it	-5.26269
▁with	-5.30131
2	-5.32291
▁I	-5.36451
▁you	-5.38969
▁on	-5.43928
▁be	-5.46571
▁as	-5.46946
▁are	-5.53969
▁was	-5.61888
▁or	-5.63188
▁(	-5.66986
▁The	-5.73219
t	-5.76421
▁by	-5.7682
:	-5.80509
▁from	-5.82765
▁have	-5.82917
’	-5.82963
▁not	-5.84243
▁this	-5.84902
▁at	-5.90429
3	-5.93051
▁can	-5.94464
ing	-5.95235
)	-5.96905
5	-6.00923
9	-6.01661
▁an	-6.02559
▁"	-6.04158
▁your	-6.07325
4	-6.11085
;	-6.12631
8	-6.17141
▁he	-6.17471
/	-6.1844
▁but	-6.18789
ed	-6.18799
▁his	-6.19401
▁which	-6.19986
▁their	-6.20691
▁they	-6.2148
"	-6.22543
▁will	-6.25917
6	-6.26372
7	-6.32441
?	-6.33025
d	-6.34997
▁all	-6.36817
▁one	-6.37784
▁we	-6.39844
▁more	-6.40797
▁has	-6.44452
▁had	-6.49033
_	-6.56144
▁were	-6.57599
▁so	-6.58724
▁would	-6.62377
▁about	-6.62487
ly	-6.68637
e	-6.70673
▁if	-6.71562
▁other	-6.73742
▁them	-6.73829
▁when	-6.74372
▁there	-6.74879
▁her	-6.74963
▁A	-6.75264
▁who	-6.76165
▁also	-6.77576
▁It	-6.77582
▁time	-6.77607
▁out	-6.77983
I	-6.7923
▁my	-6.79542
▁been	-6.79607
▁up	-6.80414
▁into	-6.81027
a	-6.82384
▁In	-6.82407
The	-6.84769
▁“	-6.84781
▁do	-6.85188
▁like	-6.85798
▁some	-6.8659
▁what	-6.86699
▁than	-6.87231
▁our	-6.88608
!	-6.92546
▁no	-6.95195
▁may	-6.96474
▁This	-6.97281
re	-6.98651
▁its	-6.98696
er	-6.98758
▁these	-6.99409
m	-7.00168
▁_	-7.00681
the	-7.01496
▁-	-7.03011
▁any	-7.03728
▁only	-7.05725
in	-7.05739
▁me	-7.06068
).	-7.09376
y	-7.09445
▁such	-7.1082
▁him	-7.12425
▁could	-7.13522
▁how	-7.13659
▁people	-7.15579
▁over	-7.164
▁use	-7.17588
▁she	-7.18094
▁first	-7.20813
▁two	-7.21141
▁most	-7.21869
▁just	-7.23188
▁said	-7.24198
▁make	-7.2529
▁very	-7.27617
▁should	-7.29983
▁then	-7.31113
▁new	-7.31283
▁many	-7.32274
▁well	-7.3343
."	-7.33476
▁way	-7.34063
▁through	-7.35745
▁where	-7.3615
A	-7.36925
▁get	-7.37253
▁He	-7.37324
▁work	-7.38339
▁used	-7.39409
and	-7.39901
S	-7.4154
▁even	-7.42998
--	-7.44681
n	-7.45947
▁much	-7.45957
▁[	-7.4753
▁after	-7.48103
to	-7.48464
▁see	-7.48713
▁know	-7.49385
▁If	-7.49592
▁us	-7.49943
>	-7.50071
▁between	-7.50597
”	-7.51254
▁those	-7.51928
▁being	-7.51999
▁need	-7.52218
▁good	-7.52298
://	-7.53109
▁But	-7.53344
al	-7.53844
or	-7.5449
i	-7.54971
es	-7.5509
▁because	-7.55618
▁before	-7.55712
▁now	-7.55886
▁years	-7.56212
),	-7.56387
▁made	-7.56871
%	-7.57741
r	-7.58166
▁while	-7.58872
▁We	-7.60457
▁same	-7.61085
th	-7.61258
▁–	-7.62779
▁might	-7.65094
▁help	-7.65112
ve	-7.6551
▁long	-7.66034
▁don	-7.6607
▁take	-7.66928
▁You	-7.67589
▁both	-7.67773
▁back	-7.67913
▁each	-7.68543
▁life	-7.69176
▁S	-7.69195
▁And	-7.69785
▁think	-7.70618
▁water	-7.70652
ll	-7.70907
▁day	-7.72085
▁different	-7.72474
com	-7.72787
▁down	-7.72862
▁world	-7.73062
▁For	-7.73151
▁own	-7.73728
,"	-7.74185
▁must	-7.74459
▁▁▁	-7.75793
en	-7.76194
o	-7.76725
▁They	-7.77361
▁go	-7.78066
▁part	-7.78296
▁here	-7.79209
]	-7.79451
▁did	-7.79553
▁still	-7.80611
▁great	-7.81644
of	-7.83563
▁right	-7.84447
▁find	-7.84469
▁'	-7.84633
▁As	-7.84693
▁high	-7.8477
g	-7.85708
*	-7.85723
▁found	-7.85959
▁under	-7.86106
**	-7.86283
▁want	-7.86315
▁say	-7.86484
▁does	-7.87053
](	-7.87296
▁during	-7.87598
▁C	-7.87871
▁little	-7.88103
▁too	-7.89232
▁man	-7.8976
▁without	-7.90097
▁every	-7.92079
▁using	-7.92892
▁year	-7.93136
▁There	-7.9331
▁around	-7.93446
▁information	-7.94121
on	-7.94298
ers	-7.94567
▁come	-7.95549
▁best	-7.95746
▁place	-7.95791
▁B	-7.95794
In	-7.95923
▁system	-7.96614
▁*	-7.97985
C	-7.98713
▁To	-7.99417
▁something	-7.99452
▁off	-7.99689
▁often	-7.9984
▁another	-8.00258
▁three	-8.01725
B	-8.02283
c	-8.02735
▁better	-8.03663
▁example	-8.03879
▁home	-8.03946
▁un	-8.04276
▁question	-8.04727
▁data	-8.06156
▁upon	-8.064
▁E	-8.06801
▁few	-8.0711
▁last	-8.07374
▁important	-8.07435
▁within	-8.07559
▁So	-8.07607
▁M	-8.08215
▁number	-8.08961
—	-8.09502
=	-8.09806
D	-8.09953
▁never	-8.10718
▁look	-8.10993
▁am	-8.11441
▁things	-8.11516
it	-8.11673
▁re	-8.11715
▁**	-8.11794
▁power	-8.11815
an	-8.12404
▁end	-8.13088
▁de	-8.13272
▁When	-8.13321
▁children	-8.13527
https	-8.14333
is	-8.15095
@	-8.15139
▁small	-8.15433
.”	-8.15554
▁&	-8.15668
▁P	-8.16004
▁set	-8.16701
▁old	-8.17225
▁against	-8.17854
b	-8.18302
▁always	-8.18685
▁case	-8.18741
▁D	-8.19135
▁going	-8.19341
(	-8.19662
▁These	-8.19813
l	-8.20626
able	-8.2085
▁What	-8.21209
▁health	-8.21352
▁since	-8.2158
▁point	-8.22023
▁really	-8.2274
It	-8.23291
▁means	-8.23491
▁including	-8.23592
▁less	-8.24324
man	-8.2501
▁called	-8.25662
us	-8.25666
▁body	-8.25798
▁hand	-8.25983
p	-8.26024
as	-8.26308
▁large	-8.27212
▁form	-8.27253
▁give	-8.27508
▁answer	-8.27563
▁However	-8.2832
▁away	-8.28384
▁process	-8.28398
This	-8.28514
k	-8.28673
▁men	-8.29488
▁T	-8.29875
▁again	-8.30109
▁students	-8.30163
ness	-8.30416
▁G	-8.30515
▁change	-8.308
▁possible	-8.31341
▁New	-8.31555
▁▁▁▁	-8.31629
|	-8.31834
▁God	-8.32098
▁name	-8.32183
▁why	-8.3227
ation	-8.32568
▁able	-8.32705
▁order	-8.32744
▁By	-8.32768
▁person	-8.32992
▁provide	-8.33266
▁though	-8.3329
▁put	-8.34205
▁human	-8.3438
▁enough	-8.34419
▁far	-8.34714
▁F	-8.35448
▁state	-8.3563
▁course	-8.35632
▁sure	-8.35728
▁light	-8.35922
▁experience	-8.36008
▁known	-8.36215
▁She	-8.36228
▁several	-8.36884
▁business	-8.36979
▁word	-8.37041
?"	-8.37085
▁become	-8.3725
▁‘	-8.37592
▁That	-8.37611
▁side	-8.37644
▁having	-8.38393
▁support	-8.38496
▁came	-8.38731
,”	-8.38785
▁research	-8.39283
▁food	-8.39423
▁among	-8.39731
▁common	-8.39801
▁keep	-8.40037
ic	-8.40684
▁left	-8.41206
ity	-8.41443
▁$	-8.42101
▁family	-8.42103
▁let	-8.42172
▁thing	-8.42292
▁per	-8.42351
▁making	-8.43071
▁thought	-8.4313
▁school	-8.43209
▁One	-8.43227
▁until	-8.43458
▁U	-8.43955
▁J	-8.44382
▁study	-8.44383
▁next	-8.44415
▁free	-8.44522
▁p	-8.44541
▁R	-8.44629
E	-8.44644
▁book	-8.44662
▁various	-8.44787
▁second	-8.45164
▁days	-8.4531
▁love	-8.45388
▁once	-8.45977
▁full	-8.45982
▁others	-8.46527
▁level	-8.46636
▁At	-8.46808
▁L	-8.47292
▁area	-8.4733
▁English	-8.47975
▁available	-8.48218
▁fact	-8.48787
▁care	-8.48943
▁country	-8.49198
▁given	-8.49598
▁yet	-8.49636
T	-8.50039
▁H	-8.50119
▁include	-8.50163
▁child	-8.50391
▁public	-8.50402
▁development	-8.50561
F	-8.51116
▁social	-8.51224
P	-8.51379
▁words	-8.51425
▁together	-8.51471
at	-8.51524
▁play	-8.51617
▁rather	-8.51715
▁due	-8.51904
h	-8.51929
G	-8.5217
x	-8.5267
▁done	-8.52866
▁following	-8.53122
▁read	-8.53341
▁house	-8.53441
▁based	-8.5356
▁across	-8.53637
▁least	-8.54052
▁understand	-8.54055
▁early	-8.5417
▁ever	-8.54482
▁young	-8.54618
▁present	-8.55109
▁head	-8.5518
▁open	-8.55388
▁times	-8.55442
&	-8.55698
You	-8.55785
▁energy	-8.56133
▁real	-8.56279
▁above	-8.5668
▁says	-8.5682
f	-8.5688
▁air	-8.56951
that	-8.56975
▁already	-8.57033
▁whether	-8.57085
K	-8.57375
▁lot	-8.57429
▁mind	-8.5785
www	-8.58052
▁American	-8.58183
If	-8.58206
▁seen	-8.58268
▁mean	-8.5832
▁however	-8.58367
▁O	-8.58857
▁Mr	-8.59001
▁group	-8.59367
▁local	-8.59856
▁along	-8.5986
▁create	-8.59877
▁whole	-8.60541
▁With	-8.60595
▁heart	-8.60604
▁certain	-8.60643
▁non	-8.61047
▁doesn	-8.61127
▁either	-8.6115
▁feel	-8.61437
▁problem	-8.61535
ion	-8.61823
▁No	-8.6188
org	-8.62183
▁control	-8.62417
We	-8.62766
[	-8.62815
▁show	-8.63292
▁makes	-8.63386
▁women	-8.63484
▁low	-8.63752
▁got	-8.63756
v	-8.63941
▁needs	-8.64033
▁future	-8.6408
▁looking	-8.64233
▁W	-8.64555
▁company	-8.6465
▁short	-8.64663
▁further	-8.64901
▁went	-8.64964
▁working	-8.65007
▁|	-8.65568
▁face	-8.6586
▁K	-8.65873
▁himself	-8.65907
▁top	-8.65958
▁kind	-8.66106
▁line	-8.66123
he	-8.66437
▁game	-8.66468
w	-8.66504
▁history	-8.66717
▁story	-8.66718
▁service	-8.6718
▁On	-8.67229
▁hard	-8.67254
▁past	-8.67798
le	-8.67988
▁▁▁▁▁▁▁▁▁▁▁▁▁▁▁▁	-8.68042
▁cause	-8.68743
▁space	-8.68862
▁potential	-8.6887
▁four	-8.68984
▁type	-8.69112
ism	-8.69366
▁specific	-8.69394
▁result	-8.6941
▁likely	-8.69447
▁team	-8.69546
▁actually	-8.69656
▁government	-8.69856
▁took	-8.69958
▁natural	-8.70047
de	-8.70221
▁design	-8.7034
▁money	-8.70544
st	-8.70577
▁How	-8.7059
▁comes	-8.70725
W	-8.70892
▁general	-8.71084
▁today	-8.71116
▁night	-8.71145
▁risk	-8.7117
be	-8.71192
M	-8.71595
▁start	-8.7192
▁All	-8.71923
▁sense	-8.72003
▁room	-8.72088
▁cannot	-8.72141
▁quite	-8.72286
▁shall	-8.72329
▁quality	-8.72345
▁learning	-8.72349
for	-8.72402
▁idea	-8.72613
▁tell	-8.7271
▁age	-8.72939
u	-8.73463
up	-8.73573
▁half	-8.73584
▁similar	-8.73836
▁language	-8.73945
▁later	-8.74251
N	-8.7452
What	-8.74578
▁community	-8.74713
▁white	-8.74781
▁probably	-8.75401
▁learn	-8.75552
▁blood	-8.7569
▁value	-8.75818
“	-8.75895
▁An	-8.75946
▁services	-8.7617
▁seems	-8.76224
▁taken	-8.76296
▁matter	-8.76325
▁access	-8.76582
▁individual	-8.76606
▁technology	-8.76657
▁N	-8.76893
▁clear	-8.77094
▁post	-8.77252
ry	-8.77395
▁live	-8.77469
▁themselves	-8.77509
▁online	-8.77582
▁almost	-8.7835
...	-8.78488
–	-8.78502
ist	-8.78539
▁Re	-8.78611
▁University	-8.78827
▁nothing	-8.78882
▁role	-8.78984
R	-8.78998
▁city	-8.79113
!"	-8.79134
▁believe	-8.79211
▁key	-8.79349
▁site	-8.795
▁His	-8.79581
▁usually	-8.79695
▁true	-8.7991
▁especially	-8.80178
▁single	-8.80214
un	-8.80241
http	-8.80635
▁While	-8.80774
▁itself	-8.80829
▁call	-8.80868
L	-8.80953
ton	-8.81017
▁ensure	-8.81024
▁reason	-8.81185
▁United	-8.81397
ar	-8.8197
▁knowledge	-8.82147
▁easy	-8.82247
+	-8.82394
▁current	-8.82525
▁—	-8.82877
▁war	-8.82958
▁death	-8.83191
▁offer	-8.83297
▁self	-8.83628
co	-8.83941
▁doing	-8.83962
▁land	-8.83986
▁law	-8.8414
▁Some	-8.8416
▁St	-8.84243
z	-8.84275
▁near	-8.84288
▁higher	-8.84362
▁After	-8.84557
▁consider	-8.84578
me	-8.84734
▁personal	-8.85062
▁try	-8.85066
▁lead	-8.85262
▁i	-8.85343
▁anything	-8.85364
O	-8.85571
▁project	-8.85787
H	-8.85982
ment	-8.85987
▁areas	-8.86015
no	-8.8608
▁saw	-8.86095
▁questions	-8.86253
▁results	-8.86325
▁someone	-8.86666
one	-8.86691
▁close	-8.86772
less	-8.8692
▁e	-8.87117
▁pre	-8.87461
▁education	-8.87664
by	-8.87709
▁products	-8.87917
um	-8.88349
▁below	-8.8841
▁etc	-8.88469
▁run	-8.88493
▁eyes	-8.88544
▁turn	-8.88719
▁systems	-8.88831
▁building	-8.88939
ia	-8.8895
▁towards	-8.88968
▁effect	-8.8898
▁main	-8.89435
▁particular	-8.89799
▁nature	-8.90073
▁range	-8.9038
▁strong	-8.9047
▁period	-8.90647
▁conditions	-8.90694
▁black	-8.90717
▁disease	-8.91119
▁necessary	-8.91247
▁simple	-8.91406
▁States	-8.91512
▁action	-8.91638
▁=	-8.9168
▁bit	-8.91763
▁growth	-8.91819
▁amount	-8.9194
▁V	-8.92045
id	-8.9226
▁market	-8.9267
▁program	-8.92926
▁hours	-8.93157
▁levels	-8.93385
▁five	-8.93395
▁increase	-8.93857
▁treatment	-8.94028
▁significant	-8.94339
with	-8.94411
▁My	-8.94428
▁Do	-8.94489
rs	-8.946
▁add	-8.94775
▁issues	-8.94863
▁told	-8.94926
▁taking	-8.94988
▁big	-8.95087
▁cost	-8.95162
▁living	-8.95204
▁understanding	-8.95452
He	-8.95466
which	-8.95922
▁didn	-8.96087
And	-8.96149
▁members	-8.96322
▁car	-8.96409
il	-8.96487
▁resources	-8.96535
▁size	-8.9671
There	-8.96713
▁modern	-8.96749
▁field	-8.96968
▁John	-8.97178
ne	-8.97256
▁rest	-8.97431
||	-8.97533
▁character	-8.97559
na	-8.97648
As	-8.97807
▁asked	-8.9801
▁throughout	-8.98328
▁soon	-8.98356
▁ground	-8.98446
▁week	-8.98609
▁major	-8.98777
▁sound	-8.98794
el	-8.99003
▁changes	-8.99092
▁seem	-8.99144
▁essential	-8.9924
▁view	-8.99395
▁instead	-8.99577
▁required	-8.99681
▁lower	-8.99716
▁Then	-8.99747
not	-8.99915
▁test	-8.99916
▁became	-9.00001
▁writing	-9.00087
▁unique	-9.00122
▁content	-9.0022
▁won	-9.00225
▁isn	-9.00333
▁move	-9.00353
▁material	-9.00455
▁getting	-9.00461
▁Dr	-9.00511
▁simply	-9.00692
▁works	-9.0084
▁paper	-9.00898
▁ability	-9.00975
To	-9.01048
▁species	-9.01072
▁ways	-9.01135
▁longer	-9.0131
J	-9.01383
▁fire	-9.014
▁approach	-9.01574
▁problems	-9.01586
ling	-9.02106
▁physical	-9.02159
▁position	-9.02185
age	-9.02217
▁subject	-9.02431
▁skills	-9.0247
V	-9.02879
▁management	-9.03018
im	-9.03146
▁behind	-9.03293
▁class	-9.03426
▁special	-9.0364
▁moment	-9.03815
▁product	-9.03849
▁million	-9.03892
▁weight	-9.03992
▁plan	-9.04096
▁list	-9.04137
▁art	-9.04159
net	-9.04279
▁practice	-9.04544
est	-9.04753
▁individuals	-9.04787
ive	-9.04791
For	-9.04856
ie	-9.05084
▁meaning	-9.05275
son	-9.05684
▁music	-9.05751
▁needed	-9.05771
▁heard	-9.05847
▁industry	-9.05864
▁term	-9.0587
▁Now	-9.05872
▁ask	-9.05986
▁century	-9.06088
▁cases	-9.06173
▁allow	-9.06266
▁source	-9.06289
▁impact	-9.06507
▁began	-9.06614
▁page	-9.06696
▁original	-9.0673
▁interest	-9.06775
▁addition	-9.06807
▁environment	-9.0701
▁article	-9.0701
ate	-9.07199
te	-9.07272
Y	-9.0734
ty	-9.0738
▁issue	-9.07386
▁▁▁▁▁▁▁	-9.07614
ary	-9.07675
▁training	-9.07699
▁leave	-9.07873
▁▁▁▁▁	-9.07934
▁sea	-9.08146
But	-9.08192
▁complete	-9.08362
▁hands	-9.08616
wiki	-9.08842
▁related	-9.08859
▁damage	-9.09041
▁account	-9.09045
▁yourself	-9.0909
▁difficult	-9.09197
▁father	-9.09265
▁red	-9.09471
▁evidence	-9.0949
▁feet	-9.09797
▁everything	-9.09809
▁months	-9.09951
▁offers	-9.09952
▁types	-9.10053
▁beyond	-9.10182
▁performance	-9.10388
▁outside	-9.1062
▁sentence	-9.11138
▁thus	-9.1126
▁considered	-9.11394
▁sometimes	-9.11397
▁attention	-9.11458
ous	-9.11682
▁added	-9.11712
do	-9.11943
▁provides	-9.1195
▁surface	-9.11971
▁US	-9.11998
ian	-9.12017
▁mother	-9.12035
▁provided	-9.12176
▁features	-9.12261
was	-9.12262
▁parts	-9.12268
▁countries	-9.12827
▁production	-9.12888
▁hope	-9.13174
▁skin	-9.13301
▁front	-9.13334
ine	-9.13339
▁pay	-9.13398
▁terms	-9.13402
▁check	-9.1345
per	-9.13516
but	-9.13523
▁focus	-9.13587
▁effective	-9.13832
▁National	-9.13842
▁events	-9.14247
time	-9.14427
▁rate	-9.14563
▁written	-9.14611
▁pain	-9.14676
▁bring	-9.14899
▁follow	-9.14912
▁effects	-9.1494
▁associated	-9.15
ful	-9.15052
▁activities	-9.15119
▁De	-9.15126
ant	-9.15172
▁website	-9.15182
▁eye	-9.15248
▁reading	-9.15286
▁correct	-9.15576
ch	-9.15678
▁whose	-9.1576
▁woman	-9.15803
▁designed	-9.16582
▁From	-9.16613
▁force	-9.16728
▁according	-9.16744
▁benefits	-9.16767
▁multiple	-9.16856
▁cut	-9.1693
▁share	-9.16956
am	-9.16975
▁brought	-9.17033
▁build	-9.17033
▁fine	-9.17039
▁increased	-9.171
▁bad	-9.17102
▁Your	-9.17117
out	-9.17127
▁friends	-9.17183
So	-9.17233
like	-9.17474
▁else	-9.17484
▁co	-9.17597
▁trying	-9.17651
▁started	-9.17663
▁event	-9.17706
▁allows	-9.17776
▁remember	-9.17811
When	-9.17819
▁difference	-9.1791
▁contact	-9.17944
▁success	-9.17977
▁materials	-9.18018
▁minutes	-9.18269
et	-9.18282
▁gave	-9.18296
▁media	-9.18416
her	-9.18503
men	-9.18592
▁easily	-9.18596
▁report	-9.18816
▁plant	-9.18828
▁third	-9.18833
▁perhaps	-9.18894
▁situation	-9.19071
▁wrong	-9.19443
▁Co	-9.19634
▁popular	-9.19741
if	-9.1977
▁points	-9.19813
▁held	-9.19829
▁Or	-9.1988
▁factors	-9.19947
ies	-9.20028
▁heat	-9.20104
▁America	-9.20112
X	-9.20255
▁perfect	-9.20437
all	-9.20441
▁built	-9.20647
▁pressure	-9.2079
▁medical	-9.20832
▁greater	-9.21038
▁meet	-9.21183
▁step	-9.21207
▁ago	-9.21241
▁job	-9.21287
j	-9.21426
▁instance	-9.21454
▁recent	-9.21511
▁poor	-9.21563
▁brain	-9.21665
▁created	-9.21797
▁lives	-9.22097
▁return	-9.22291
▁lost	-9.22292
▁political	-9.22306
▁series	-9.22341
land	-9.22565
▁door	-9.22591
ur	-9.22658
▁science	-9.22729
▁hold	-9.22754
▁Our	-9.22992
▁oil	-9.2303
▁South	-9.23053
▁purpose	-9.23225
▁particularly	-9.23282
▁model	-9.23289
▁loss	-9.23487
▁looked	-9.23494
▁method	-9.23592
▁companies	-9.23685
▁providing	-9.2385
▁directly	-9.24139
ad	-9.24167
▁overall	-9.24495
▁York	-9.24517
▁friend	-9.24563
▁six	-9.24604
▁improve	-9.24633
▁require	-9.24695
day	-9.24822
▁tools	-9.25178
▁prevent	-9.25315
▁patients	-9.25365
▁quickly	-9.25475
▁et	-9.25522
▁deep	-9.25527
▁percent	-9.25565
▁price	-9.25608
▁pretty	-9.25651
▁coming	-9.25699
▁therefore	-9.25843
▁War	-9.25851
ma	-9.25976
▁color	-9.261
▁address	-9.26324
▁al	-9.26356
ter	-9.26396
▁shows	-9.26399
▁generally	-9.26421
▁late	-9.26453
▁leading	-9.26654
ce	-9.26674
▁alone	-9.26789
▁population	-9.26931
".	-9.26998
▁users	-9.26999
q	-9.27091
▁French	-9.2718
▁World	-9.27215
▁reduce	-9.27244
▁table	-9.27297
▁additional	-9.27321
▁British	-9.27344
▁talk	-9.27393
▁Not	-9.27468
▁inside	-9.27548
based	-9.27557
▁studies	-9.27661
we	-9.27773
▁sub	-9.2781
ta	-9.2794
▁Al	-9.27942
▁security	-9.27959
ting	-9.2796
_,	-9.27998
▁continue	-9.28127
▁activity	-9.28219
mo	-9.28225
you	-9.28253
▁cells	-9.28384
▁stay	-9.28464
▁Of	-9.28566
▁safety	-9.28746
▁groups	-9.28785
▁hear	-9.28838
▁choose	-9.28855
▁whom	-9.28921
▁Here	-9.2904
▁note	-9.29049
▁takes	-9.29122
▁son	-9.29168
▁text	-9.29176
▁video	-9.29199
▁financial	-9.29228
▁visit	-9.2943
▁fall	-9.29553
▁society	-9.29599
▁involved	-9.29628
▁knew	-9.2969
▁morning	-9.298
▁round	-9.29864
▁Let	-9.29902
▁May	-9.29968
▁entire	-9.29972
▁received	-9.29994
▁context	-9.30069
▁forward	-9.30262
▁wide	-9.30384
▁condition	-9.30402
go	-9.30565
▁standard	-9.30688
ent	-9.30805
▁total	-9.30945
▁options	-9.30976
▁sent	-9.3107
▁North	-9.3109
▁Be	-9.3111
▁develop	-9.3129
so	-9.31434
▁books	-9.31538
▁requires	-9.31796
▁opportunities	-9.31839
▁dis	-9.31966
▁party	-9.31982
▁thinking	-9.3204
▁property	-9.3207
▁write	-9.32078
ra	-9.32153
▁traditional	-9.32157
his	-9.32269
▁positive	-9.32271
▁communication	-9.32288
▁act	-9.3233
ized	-9.32735
▁THE	-9.32738
▁turned	-9.32768
▁State	-9.32779
▁states	-9.32882
▁cancer	-9.32949
▁style	-9.33055
▁voice	-9.33113
▁user	-9.3327
▁Lord	-9.33361
▁reach	-9.3347
▁developed	-9.33478
▁plants	-9.3369
▁+	-9.33775
▁image	-9.33866
▁although	-9.33954
led	-9.33965
▁function	-9.34104
▁stop	-9.3426
▁computer	-9.34373
▁King	-9.34653
▁town	-9.34739
▁animals	-9.34758
▁decision	-9.34781
▁hair	-9.34915
▁goes	-9.35056
▁green	-9.35069
▁avoid	-9.35069
▁piece	-9.35155
▁parents	-9.35173
No	-9.35177
▁safe	-9.35281
▁--	-9.35336
▁digital	-9.35418
):	-9.35423
▁led	-9.35561
▁creating	-9.35663
▁student	-9.35745
line	-9.35748
▁object	-9.35852
▁structure	-9.35979
▁rules	-9.36061
▁forms	-9.361
▁professional	-9.36259
▁chance	-9.36452
▁complex	-9.36468
ally	-9.36554
▁opportunity	-9.36608
▁produce	-9.36643
ish	-9.36691
▁nor	-9.36749
▁worth	-9.36862
ge	-9.36954
▁national	-9.37
▁application	-9.3702
▁ideas	-9.37235
._	-9.37256
▁sun	-9.37259
▁X	-9.37298
▁felt	-9.37321
▁global	-9.37331
▁deal	-9.37343
▁everyone	-9.37369
▁helps	-9.37693
▁successful	-9.37844
ization	-9.37847
▁search	-9.37851
▁eat	-9.37933
How	-9.37958
▁culture	-9.38033
▁sleep	-9.38093
ley	-9.38123
ated	-9.38152
▁shown	-9.38262
▁details	-9.38311
▁average	-9.38314
▁please	-9.38354
▁analysis	-9.38478
▁beautiful	-9.38768
▁published	-9.38774
▁seemed	-9.38776
▁software	-9.38867
▁challenges	-9.38895
▁Earth	-9.38946
▁methods	-9.39095
ating	-9.3916
▁earth	-9.39218
▁crucial	-9.3943
▁final	-9.39673
▁includes	-9.39686
▁healthy	-9.39704
▁explore	-9.39709
▁cold	-9.39732
▁season	-9.39757
ance	-9.39966
ir	-9.39982
#	-9.39999
▁sort	-9.40053
▁normal	-9.40111
▁version	-9.40172
▁solution	-9.40219
▁gas	-9.40458
…	-9.40526
con	-9.40592
▁saying	-9.40593
term	-9.40669
wikipedia	-9.40687
▁interesting	-9.40726
▁length	-9.40757
▁exactly	-9.40774
▁road	-9.40846
▁save	-9.40889
▁grow	-9.40924
▁policy	-9.41001
▁speed	-9.41006
▁England	-9.41015
▁elements	-9.41021
▁choice	-9.41124
▁programs	-9.41313
▁importance	-9.41396
▁movement	-9.41402
▁receive	-9.41486
▁c	-9.41551
▁region	-9.41672
▁passed	-9.41791
ul	-9.41893
▁section	-9.42048
▁influence	-9.42119
▁nearly	-9.42242
▁ten	-9.42285
▁hour	-9.42408
▁beginning	-9.42425
▁regarding	-9.42433
▁myself	-9.42564
▁running	-9.42685
▁attack	-9.42918
▁giving	-9.43064
▁ready	-9.43215
▁via	-9.43334
▁gives	-9.43471
Z	-9.43599
▁followed	-9.436
▁letter	-9.43605
▁wanted	-9.4361
▁stand	-9.43669
▁lines	-9.43685
▁author	-9.43693
▁cover	-9.43707
▁Also	-9.43802
▁b	-9.43872
my	-9.43878
▁economic	-9.43888
▁regular	-9.44004
▁month	-9.44066
▁La	-9.44185
▁mentioned	-9.44243
`	-9.4429
▁players	-9.44871
▁appear	-9.44965
▁becomes	-9.44969
▁climate	-9.45062
▁Many	-9.45084
▁private	-9.45144
That	-9.45164
▁Can	-9.45186
▁benefit	-9.45218
▁rights	-9.45242
▁compared	-9.45277
▁practices	-9.45581
▁symptoms	-9.4575
▁legal	-9.45764
▁remain	-9.45828
▁variety	-9.45876
▁speak	-9.46073
▁larger	-9.46093
▁caused	-9.46109
▁India	-9.46255
ro	-9.46382
▁office	-9.46524
▁powerful	-9.46543
▁buy	-9.46566
▁dead	-9.46714
▁location	-9.46812
▁hot	-9.469
▁efforts	-9.47142
▁highly	-9.47145
▁London	-9.47207
▁dark	-9.47394
ca	-9.47432
from	-9.47438
▁begin	-9.4744
▁fit	-9.47468
▁...	-9.47582
▁temperature	-9.47637
▁Her	-9.47754
are	-9.4779
▁daily	-9.4784
▁strategies	-9.47982
▁maintain	-9.47989
▁serve	-9.47996
ted	-9.48017
▁▁▁▁▁▁	-9.48096
▁direct	-9.48102
▁break	-9.48148
▁response	-9.48305
▁Even	-9.48313
▁fun	-9.48336
▁remains	-9.48349
▁travel	-9.48431
this	-9.4854
▁anyone	-9.48561
▁base	-9.48709
▁fast	-9.48717
▁critical	-9.48892
▁code	-9.48908
▁fish	-9.49019
▁First	-9.49047
▁sources	-9.49181
▁certainly	-9.4932
▁growing	-9.49524
▁appropriate	-9.49532
▁/	-9.49533
▁wife	-9.49535
▁wood	-9.49575
▁wall	-9.49861
▁Most	-9.49952
▁completely	-9.49968
▁limited	-9.4999
▁mental	-9.50009
▁international	-9.5004
▁date	-9.50137
▁techniques	-9.50358
▁extra	-9.50471
▁rule	-9.50626
▁Why	-9.50689
U	-9.50991
▁useful	-9.51105
way	-9.51108
▁Go	-9.51358
can	-9.51389
▁toward	-9.51431
▁Health	-9.51504
▁conclusion	-9.51528
▁established	-9.51683
▁fully	-9.51859
▁lack	-9.5191
▁construction	-9.52087
nd	-9.52186
▁blue	-9.52427
▁costs	-9.52432
▁miles	-9.52511
▁church	-9.52559
▁active	-9.5256
▁goal	-9.52732
ex	-9.52797
▁truth	-9.52819
▁summer	-9.52819
▁protection	-9.52922
▁Europe	-9.5293
▁patient	-9.53094
▁proper	-9.53249
▁doubt	-9.53383
ial	-9.53394
▁relationship	-9.53495
▁network	-9.5356
▁West	-9.53646
den	-9.53706
▁numbers	-9.53784
▁items	-9.53951
▁wish	-9.5405
▁option	-9.54102
▁staff	-9.54108
la	-9.54334
▁picture	-9.54405
▁stage	-9.54455
▁strength	-9.54464
▁journey	-9.54605
▁cell	-9.54755
▁supply	-9.54807
▁expected	-9.55012
▁file	-9.5502
▁produced	-9.55034
▁basic	-9.55135
▁tree	-9.55168
▁customers	-9.55218
▁shape	-9.55308
▁protect	-9.55359
▁included	-9.55525
▁indeed	-9.55538
ner	-9.55552
▁trust	-9.55593
▁enjoy	-9.55639
▁dog	-9.55648
▁pass	-9.55718
▁link	-9.55799
▁feeling	-9.5583
▁steps	-9.55845
▁See	-9.55929
▁tried	-9.56203
▁organization	-9.56212
▁weeks	-9.56281
▁Although	-9.56359
▁o	-9.56428
▁uses	-9.56551
▁respect	-9.56554
▁rich	-9.56588
▁games	-9.56696
▁wind	-9.56713
▁Le	-9.5679
▁projects	-9.56959
▁trade	-9.56986
▁happy	-9.57032
▁equipment	-9.57106
lo	-9.57155
▁n	-9.57188
▁communities	-9.57205
▁recently	-9.57221
▁primary	-9.57272
▁foot	-9.57283
static	-9.57283
▁previous	-9.57357
▁gold	-9.57375
▁fear	-9.57542
▁places	-9.57708
▁Pro	-9.57767
▁g	-9.57799
▁board	-9.57828
▁device	-9.57855
▁manner	-9.57886
▁middle	-9.57965
▁exercise	-9.58032
▁Mrs	-9.58088
▁box	-9.58114
▁distance	-9.58158
▁gain	-9.58219
▁expect	-9.5827
▁military	-9.58412
▁values	-9.58461
▁German	-9.58551
▁kids	-9.58638
▁setting	-9.5864
▁clean	-9.58643
▁store	-9.58661
My	-9.58818
▁figure	-9.58893
▁placed	-9.58958
▁actual	-9.59026
▁x	-9.59048
▁animal	-9.59168
▁credit	-9.59269
▁cross	-9.59292
▁Con	-9.59404
Q	-9.59447
▁School	-9.5947
▁stress	-9.59618
▁effort	-9.59619
▁bar	-9.59627
se	-9.59649
▁member	-9.5974
▁drive	-9.59807
▁existing	-9.59823
▁died	-9.59851
▁March	-9.59859
▁continued	-9.59881
▁processes	-9.59937
▁allowed	-9.59941
▁City	-9.5996
da	-9.60002
▁Don	-9.6009
end	-9.60109
▁sign	-9.60123
▁apply	-9.60196
▁pro	-9.60247
▁immediately	-9.60264
▁typically	-9.60265
Re	-9.60312
▁applications	-9.60325
▁behavior	-9.60371
▁balance	-9.60379
▁progress	-9.60429
year	-9.60488
▁mass	-9.60547
▁degree	-9.60555
▁marketing	-9.60609
▁Christ	-9.60623
have	-9.6063
▁Center	-9.60653
had	-9.6071
▁numerous	-9.60711
▁sounds	-9.60718
ah	-9.60853
▁organizations	-9.60922
▁hundred	-9.61018
▁trees	-9.6102
▁Another	-9.6105
▁earlier	-9.61116
▁kept	-9.61163
▁web	-9.61195
▁tool	-9.612
▁dry	-9.61408
▁target	-9.61408
▁anti	-9.61441
▁soil	-9.61499
▁environmental	-9.61545
▁Y	-9.61547
▁planning	-9.61553
em	-9.6161
▁river	-9.61773
▁born	-9.61883
▁significantly	-9.61993
▁described	-9.62019
▁France	-9.62036
▁machine	-9.62123
▁met	-9.62236
os	-9.62271
▁presence	-9.62374
▁player	-9.62466
▁rates	-9.62521
▁determine	-9.62862
Yes	-9.62955
▁court	-9.63048
▁According	-9.63052
▁gone	-9.63144
▁review	-9.63205
▁happen	-9.63346
▁devices	-9.63373
▁looks	-9.63388
▁v	-9.63398
▁researchers	-9.63427
▁European	-9.63517
▁walk	-9.63557
▁solutions	-9.63576
▁record	-9.63604
▁ancient	-9.63657
▁businesses	-9.63688
▁card	-9.63697
sh	-9.63723
▁appears	-9.63736
▁playing	-9.63776
li	-9.63777
▁Jesus	-9.63777
▁developing	-9.63782
▁d	-9.63806
▁causes	-9.63873
▁concept	-9.64026
op	-9.64053
▁Moreover	-9.64088
▁heavy	-9.64124
▁stories	-9.64129
▁customer	-9.64191
▁film	-9.64245
▁currently	-9.6426
▁relevant	-9.64438
ence	-9.64647
▁m	-9.64692
▁serious	-9.64714
▁girl	-9.64802
▁responsible	-9.65103
▁Once	-9.65221
▁send	-9.65255
▁reasons	-9.65283
▁former	-9.65414
▁allowing	-9.65527
▁aspects	-9.65561
▁hit	-9.6557
▁ship	-9.65582
▁Research	-9.65621
▁flow	-9.65751
▁families	-9.65803
▁requirements	-9.6584
old	-9.65889
▁connection	-9.65983
▁worked	-9.66094
▁memory	-9.66114
▁moving	-9.66223
▁located	-9.66288
ities	-9.66363
▁changed	-9.66438
▁sugar	-9.66477
▁examples	-9.66595
▁identify	-9.66658
▁components	-9.66747
▁Since	-9.66756
▁Man	-9.66792
▁Act	-9.66815
▁carry	-9.66832
▁email	-9.66856
▁China	-9.66879
▁spread	-9.66894
▁path	-9.66907
▁easier	-9.67043
▁House	-9.67126
▁OF	-9.67281
▁Just	-9.67565
▁Day	-9.6758
side	-9.67722
▁June	-9.67795
▁agree	-9.67852
é	-9.67976
▁fresh	-9.68157
▁Christian	-9.68215
▁specifically	-9.68562
▁meeting	-9.68577
▁boy	-9.68579
ize	-9.68668
▁reported	-9.68725
▁direction	-9.68755
▁en	-9.68861
▁guide	-9.68996
▁bottom	-9.69001
▁images	-9.69072
ler	-9.69104
▁native	-9.69178
▁couple	-9.69226
▁lay	-9.69282
▁schools	-9.69306
▁die	-9.6936
▁fight	-9.69392
off	-9.69427
▁leaves	-9.69452
▁suggest	-9.69471
▁theory	-9.69578
our	-9.6959
▁Additionally	-9.69607
▁center	-9.69707
▁feature	-9.69796
▁separate	-9.70029
▁UK	-9.70062
▁brand	-9.70119
▁weather	-9.70163
▁race	-9.70176
ol	-9.70249
▁news	-9.70369
▁opinion	-9.70382
▁king	-9.70384
ative	-9.70426
ship	-9.70478
▁Indian	-9.70557
▁waste	-9.70625
▁talking	-9.70678
▁advantage	-9.70736
▁aspect	-9.70741
▁interested	-9.70777
stackexchange	-9.70868
▁capital	-9.70869
▁April	-9.70876
over	-9.70892
One	-9.7097
An	-9.70982
▁explain	-9.71085
▁effectively	-9.71092
ga	-9.71111
▁track	-9.71217
▁wrote	-9.71354
▁wild	-9.7137
▁cultural	-9.71408
▁ensuring	-9.7143
▁watch	-9.7145
▁excellent	-9.71495
▁occur	-9.71508
▁collection	-9.71546
▁experiences	-9.71572
▁goals	-9.71928
▁San	-9.71997
▁expression	-9.72149
▁contains	-9.72176
ak	-9.72252
▁Church	-9.72261
▁equal	-9.724
▁scale	-9.72404
▁#	-9.72438
▁increasing	-9.72622
▁warm	-9.72671
▁remove	-9.7269
▁negative	-9.72807
▁rise	-9.72823
▁till	-9.72871
they	-9.72899
Do	-9.72938
▁plans	-9.73076
▁pieces	-9.73122
ology	-9.73135
▁carried	-9.73236
▁starting	-9.73317
▁relationships	-9.73326
ists	-9.73463
▁wouldn	-9.73472
▁Great	-9.73734
▁winter	-9.73777
▁multi	-9.73823
▁fair	-9.73833
use	-9.73867
back	-9.7405
▁tax	-9.7407
▁General	-9.74099
ac	-9.741
.]	-9.74133
▁Each	-9.74152
▁la	-9.74254
▁religious	-9.74332
▁floor	-9.74364
▁mouth	-9.74635
ut	-9.74641
▁quick	-9.74656
▁involves	-9.74666
▁huge	-9.7479
▁<	-9.74867
▁Their	-9.7487
red	-9.74962
▁July	-9.74983
ham	-9.75031
▁bed	-9.75084
▁ones	-9.75157
▁II	-9.75196
▁concerns	-9.75203
▁phone	-9.7523
▁metal	-9.75244
▁smaller	-9.75268
ster	-9.75287
▁phrase	-9.7536
▁comment	-9.75479
house	-9.75533
▁During	-9.7555
▁offered	-9.75689
▁clearly	-9.75807
▁humans	-9.76027
▁Thus	-9.76058
They	-9.76109
▁names	-9.76117
▁except	-9.76217
well	-9.76293
▁characters	-9.76311
▁President	-9.76332
▁planet	-9.7635
▁affect	-9.76485
▁River	-9.76517
▁faith	-9.76553
▁happened	-9.76557
io	-9.76567
▁advanced	-9.76599
more	-9.76629
▁charge	-9.76727
▁advice	-9.76743
▁maybe	-9.7676
▁nation	-9.76837
▁Z	-9.76936
▁diet	-9.77114
▁learned	-9.77133
▁statement	-9.77187
ard	-9.77346
▁Mo	-9.77356
▁seven	-9.77484
▁central	-9.77532
▁actions	-9.77548
▁master	-9.77626
▁measures	-9.77642
▁spirit	-9.7767
ible	-9.77721
▁finding	-9.77749
▁meant	-9.77779
▁demand	-9.77831
▁Black	-9.77894
▁http	-9.77962
▁teaching	-9.77979
▁sight	-9.77982
ke	-9.7813
see	-9.78162
▁returned	-9.78318
les	-9.78344
izing	-9.78348
▁contribute	-9.78379
▁message	-9.7866
▁spell	-9.78767
▁ice	-9.78776
▁reference	-9.78822
▁tend	-9.78837
▁career	-9.78909
▁older	-9.78941
▁achieve	-9.79088
ier	-9.79205
▁window	-9.79244
▁valuable	-9.79442
que	-9.79563
▁More	-9.79571
▁asking	-9.79574
▁wait	-9.79582
▁battle	-9.79592
▁historical	-9.79614
▁unit	-9.79671
she	-9.79815
▁International	-9.80017
▁Canada	-9.80063
▁peace	-9.80063
At	-9.80074
▁leaving	-9.80074
▁challenge	-9.80127
▁aware	-9.80233
▁laws	-9.8029
▁Science	-9.80332
▁unless	-9.80345
▁sweet	-9.80378
di	-9.80544
▁decided	-9.80754
▁doctor	-9.80762
▁spring	-9.80824
▁moved	-9.80863
▁claim	-9.80899
▁spend	-9.80922
▁usage	-9.80952
▁covered	-9.80962
▁super	-9.81128
rd	-9.81262
▁core	-9.8127
▁notice	-9.81282
▁affected	-9.81321
▁glass	-9.81332
bo	-9.81408
dis	-9.81465
▁intended	-9.81466
▁speech	-9.81615
▁played	-9.81619
▁alternative	-9.81725
▁named	-9.81766
▁stone	-9.8191
▁reached	-9.81973
She	-9.82009
▁truly	-9.82027
ite	-9.82052
▁El	-9.82071
▁otherwise	-9.82186
▁double	-9.82246
▁stood	-9.82257
▁scientific	-9.82291
▁whatever	-9.82298
▁objects	-9.82475
▁fuel	-9.82483
▁measure	-9.82501
ha	-9.82513
ni	-9.82532
▁initial	-9.8258
▁California	-9.82591
ise	-9.82639
▁evening	-9.82681
▁scene	-9.82717
▁experienced	-9.82738
▁herself	-9.82778
▁aren	-9.82857
▁shared	-9.82905
▁f	-9.82957
▁decisions	-9.83046
▁sites	-9.83117
▁applied	-9.83256
▁reduced	-9.83256
ger	-9.83285
▁gets	-9.83285
▁exist	-9.83288
tic	-9.83309
▁Park	-9.83558
▁lived	-9.83607
▁models	-9.83616
▁pick	-9.83673
▁carbon	-9.83746
lin	-9.83751
▁solid	-9.83907
▁principles	-9.83914
▁garden	-9.83971
▁capacity	-9.84084
▁Well	-9.84171
▁Sir	-9.842
▁standards	-9.84201
▁solar	-9.84274
▁task	-9.84284
▁vision	-9.84307
▁enter	-9.84348
some	-9.84407
?”	-9.84426
▁birth	-9.84457
▁Department	-9.84459
▁extremely	-9.84598
▁brother	-9.8463
▁notes	-9.84638
▁slow	-9.84653
▁attempt	-9.84704
▁strategy	-9.84722
▁seeking	-9.84734
▁nice	-9.84883
▁wear	-9.84892
▁horse	-9.84933
▁teacher	-9.85073
▁paid	-9.85202
ph	-9.85222
▁straight	-9.85226
▁October	-9.85264
▁presented	-9.85345
au	-9.85354
▁Chinese	-9.85356
▁`	-9.85375
▁Q	-9.85399
▁East	-9.85455
▁discovered	-9.85552
▁fell	-9.85768
▁clients	-9.85798
On	-9.85873
▁September	-9.85876
▁teachers	-9.85895
▁formed	-9.8596
▁baby	-9.86026
▁status	-9.86027
▁cool	-9.86101
All	-9.86119
▁basis	-9.86145
▁opening	-9.8619
▁patterns	-9.86223
▁release	-9.86275
ri	-9.86296
▁Because	-9.8641
▁reality	-9.86439
▁wasn	-9.86443
▁Furthermore	-9.86486
▁spent	-9.86498
▁touch	-9.86523
▁foreign	-9.86861
▁famous	-9.86898
▁connected	-9.86904
▁ideal	-9.86941
▁visual	-9.86944
▁happens	-9.86995
▁August	-9.87122
▁contain	-9.87179
▁answers	-9.87272
▁ball	-9.87338
▁discussion	-9.87405
ability	-9.87452
mer	-9.87453
▁cast	-9.87523
▁iron	-9.87526
what	-9.87589
▁taste	-9.87609
▁latter	-9.8767
gen	-9.877
▁maintaining	-9.87745
▁sales	-9.87785
▁diverse	-9.87898
▁County	-9.87913
▁fruit	-9.8796
▁January	-9.87985
▁operations	-9.88066
▁mid	-9.88118
▁trip	-9.88129
▁surrounding	-9.8826
▁soft	-9.88331
▁appearance	-9.88358
▁largest	-9.88481
▁factor	-9.88509
▁eating	-9.88535
uk	-9.88664
▁forces	-9.88665
▁entirely	-9.88733
▁James	-9.88822
▁Africa	-9.88858
▁vital	-9.88888
▁appeared	-9.88999
▁testing	-9.89005
▁Mar	-9.89005
▁Me	-9.89056
▁Such	-9.89074
ron	-9.89159
▁thousand	-9.89172
▁depending	-9.89173
light	-9.89228
▁circumstances	-9.89352
▁raised	-9.89361
▁soul	-9.89364
▁highest	-9.89375
▁Are	-9.89395
mon	-9.8955
▁match	-9.896
▁milk	-9.8964
▁keeping	-9.89684
▁Paul	-9.89809
▁frequently	-9.89841
▁November	-9.89879
ab	-9.89896
▁beauty	-9.89915
ny	-9.89951
▁showed	-9.89988
▁filled	-9.90003
▁screen	-9.90037
▁Google	-9.90051
▁star	-9.90153
▁technical	-9.90156
▁High	-9.90164
▁leaders	-9.9019
ring	-9.90245
▁north	-9.90305
▁Over	-9.90343
▁commercial	-9.90373
▁Use	-9.90417
▁severe	-9.90437
▁informed	-9.90489
▁arms	-9.90586
▁verb	-9.90717
▁fat	-9.90726
ig	-9.90729
▁income	-9.90759
▁skill	-9.9093
▁finally	-9.91004
▁army	-9.91058
wood	-9.9108
▁husband	-9.91107
▁title	-9.91135
▁spot	-9.91186
▁trouble	-9.9121
min	-9.91212
▁practical	-9.91268
there	-9.91291
▁rock	-9.91314
By	-9.91357
field	-9.91372
▁Other	-9.91485
▁sat	-9.91506
let	-9.91601
board	-9.91665
▁exposure	-9.91666
▁south	-9.91772
▁platform	-9.91796
▁December	-9.91797
▁changing	-9.91975
▁scientists	-9.92029
▁becoming	-9.92109
▁Institute	-9.9221
che	-9.92218
▁command	-9.92278
ti	-9.92311
▁daughter	-9.92368
▁killed	-9.92375
Why	-9.92391
▁George	-9.92426
▁adding	-9.92578
}	-9.92608
▁creation	-9.92646
▁dear	-9.9277
▁stock	-9.92797
work	-9.92859
▁properties	-9.93046
▁guess	-9.9308
▁refers	-9.93342
▁manage	-9.93394
▁square	-9.93444
vo	-9.93461
▁People	-9.93472
▁college	-9.93478
▁improved	-9.93481
▁seeing	-9.9352
▁slightly	-9.93589
▁photo	-9.93592
▁Law	-9.9364
▁mine	-9.93651
▁win	-9.93764
▁workers	-9.93817
▁official	-9.93909
▁novel	-9.93918
▁insights	-9.93924
▁storage	-9.9402
▁describe	-9.94095
▁secure	-9.94122
▁meat	-9.94357
▁audience	-9.94365
▁resistance	-9.9438
▁Step	-9.94384
▁teeth	-9.94538
▁billion	-9.94594
▁aid	-9.94598
how	-9.94627
sa	-9.94734
▁perform	-9.94748
▁impossible	-9.94754
▁driving	-9.94762
▁drop	-9.94886
▁Miss	-9.94938
▁insurance	-9.94963
▁William	-9.95013
▁African	-9.95039
ba	-9.95098
▁accept	-9.95139
▁bank	-9.95167
▁Ma	-9.95211
ka	-9.95236
ped	-9.95247
▁standing	-9.95256
▁layer	-9.95291
▁investment	-9.95301
tor	-9.95425
▁technologies	-9.95436
▁prepared	-9.9548
▁generation	-9.95533
▁click	-9.95597
▁opened	-9.95697
▁arm	-9.95728
▁recommend	-9.95756
▁latest	-9.95771
▁seek	-9.95778
▁extract	-9.9578
▁answered	-9.95798
▁desire	-9.95915
▁draw	-9.95964
▁app	-9.95987
▁suggests	-9.95998
▁comfort	-9.96016
▁removed	-9.9604
▁ex	-9.96053
▁policies	-9.96056
▁lose	-9.96095
▁parties	-9.96102
pe	-9.96152
▁Roman	-9.96364
▁professionals	-9.96455
Oh	-9.96457
mm	-9.96476
▁favorite	-9.96591
who	-9.96657
▁eight	-9.96723
);	-9.96757
▁protein	-9.96789
▁despite	-9.96801
were	-9.96961
Well	-9.96968
dy	-9.96977
▁mobile	-9.96988
▁mostly	-9.97017
▁educational	-9.97026
▁rare	-9.97039
▁inter	-9.9713
ium	-9.97151
ning	-9.97297
▁Ar	-9.97367
▁risks	-9.97369
ec	-9.97386
▁engage	-9.97392
▁snow	-9.97426
▁observed	-9.9747
▁speaking	-9.9748
▁resource	-9.97499
▁drug	-9.97511
▁twenty	-9.97533
tro	-9.97542
▁commitment	-9.97559
▁mention	-9.97579
▁ultimately	-9.97597
ius	-9.97687
▁lies	-9.97766
▁plastic	-9.97807
▁reducing	-9.97889
▁Un	-9.97945
▁enemy	-9.97994
▁internal	-9.9802
▁properly	-9.98036
▁Therefore	-9.98036
▁flat	-9.98175
▁map	-9.98206
▁cities	-9.98244
him	-9.98348
▁Di	-9.98376
▁capable	-9.98404
▁conversation	-9.98437
▁fellow	-9.98498
▁purchase	-9.98584
▁served	-9.98849
▁Bo	-9.98887
▁differences	-9.99001
▁▁▁▁▁▁▁▁▁	-9.99092
▁closer	-9.99127
▁Car	-9.99207
▁wonder	-9.99223
▁volume	-9.99231
▁foods	-9.99243
▁pages	-9.99316
With	-9.99337
▁chief	-9.99361
▁White	-9.99402
▁>	-9.99406
▁employees	-9.9946
▁Court	-9.99473
▁female	-9.99517
▁carefully	-9.99518
don	-9.99596
down	-9.99646
▁join	-9.99693
▁loved	-9.99715
▁Home	-9.99724
▁Good	-9.99727
▁acid	-9.99836
▁Li	-9.99852
▁salt	-9.99852
▁plays	-9.99857
▁micro	-9.99872
▁collaboration	-9.99956
▁Germany	-10.0008
▁Am	-10.0011
▁none	-10.0013
▁blog	-10.0016
▁bear	-10.0017
▁movie	-10.0032
▁healthcare	-10.0037
▁entry	-10.0037
▁Red	-10.0039
ure	-10.0041
▁topic	-10.0051
▁treat	-10.0051
▁train	-10.0052
ana	-10.0058
▁bodies	-10.0059
▁stuff	-10.0064
▁mis	-10.0075
▁efficiency	-10.0079
va	-10.0082
ber	-10.0083
▁creative	-10.0087
▁ahead	-10.0087
▁discuss	-10.0088
▁Through	-10.0094
▁engagement	-10.0099
▁kill	-10.0111
▁signs	-10.0111
▁external	-10.0112
ft	-10.0118
▁pattern	-10.012
▁familiar	-10.0133
▁fill	-10.0134
▁classes	-10.0145
ward	-10.0153
▁promote	-10.0153
▁Mary	-10.016
▁block	-10.0166
▁commonly	-10.0169
▁released	-10.0171
▁helped	-10.0177
▁police	-10.0178
▁vehicle	-10.0178
ification	-10.0179
▁neither	-10.0181
▁Water	-10.0182
▁upper	-10.0187
▁functions	-10.0196
▁Please	-10.0202
▁Government	-10.0211
▁mission	-10.0218
▁thousands	-10.0222
▁handle	-10.0225
▁majority	-10.0238
▁David	-10.024
ow	-10.0244
▁apart	-10.0244
▁request	-10.0254
▁Washington	-10.0255
▁shot	-10.0263
▁enhance	-10.0265
▁economy	-10.0268
▁engine	-10.0269
ina	-10.0269
▁introduced	-10.0275
▁History	-10.0277
▁Key	-10.0281
▁merely	-10.0288
▁broken	-10.0291
▁independent	-10.0296
ten	-10.0298
▁adults	-10.0307
▁firm	-10.0307
▁onto	-10.031
▁religion	-10.0311
▁efficient	-10.0317
▁birds	-10.0326
▁prior	-10.0342
▁chemical	-10.0343
▁walls	-10.0344
▁document	-10.0357
▁Ha	-10.0359
▁boat	-10.036
▁Pa	-10.0373
pro	-10.0375
Is	-10.0384
ator	-10.0387
ical	-10.0389
▁therapy	-10.0393
▁sit	-10.0398
▁edge	-10.0404
▁background	-10.041
will	-10.041
▁secret	-10.0426
▁detail	-10.0429
▁Two	-10.0433
▁sharing	-10.0435
▁helping	-10.0435
▁Both	-10.0445
▁landscape	-10.0445
▁Will	-10.0449
▁Latin	-10.0452
▁drink	-10.0452
▁eventually	-10.0455
▁closed	-10.0457
pre	-10.0461
▁campaign	-10.0462
▁combination	-10.0465
▁cards	-10.0468
▁potentially	-10.047
▁offering	-10.0471
▁emotional	-10.0477
▁thou	-10.0478
▁refer	-10.0479
▁reports	-10.0484
▁sell	-10.0494
▁definitely	-10.0499
their	-10.0499
ions	-10.05
▁di	-10.0504
▁somewhat	-10.0508
▁authority	-10.051
▁interests	-10.0514
▁College	-10.0514
----------------	-10.0515
▁Council	-10.0517
▁resulting	-10.0517
▁letters	-10.0528
▁Old	-10.053
▁records	-10.0537
▁possibly	-10.0539
▁sold	-10.0543
▁Na	-10.0551
De	-10.0554
making	-10.0565
water	-10.0568
▁determined	-10.0568
▁thoughts	-10.057
▁fields	-10.0581
▁showing	-10.0581
▁atmosphere	-10.0584
▁con	-10.0589
▁couldn	-10.0598
▁relatively	-10.0601
▁prices	-10.0605
▁thanks	-10.0606
▁broad	-10.0608
▁serves	-10.061
▁rain	-10.0615
▁represent	-10.0615
ile	-10.0616
▁Vi	-10.062
▁display	-10.0625
▁academic	-10.0626
▁Australia	-10.0627
▁leads	-10.0627
Now	-10.0634
▁Lo	-10.0641
▁federal	-10.0641
▁host	-10.0645
▁freedom	-10.0656
▁wine	-10.0658
▁chapter	-10.0658
▁bright	-10.0667
▁prove	-10.0671
▁Yes	-10.0685
▁motion	-10.0688
▁institutions	-10.0689
▁believed	-10.07
▁definition	-10.07
▁careful	-10.0709
▁Ka	-10.0718
▁fixed	-10.0722
wa	-10.0726
▁se	-10.073
▁select	-10.073
▁item	-10.0746
▁Bar	-10.0748
ever	-10.0758
▁dangerous	-10.0761
▁sets	-10.0764
▁purposes	-10.0765
▁consistent	-10.078
would	-10.0784
tion	-10.0785
▁selection	-10.0791
▁steel	-10.081
▁Every	-10.0817
book	-10.0821
ide	-10.0832
▁Green	-10.0847
▁narrow	-10.085
ck	-10.0856
▁injury	-10.0868
▁song	-10.0869
▁operation	-10.0879
▁cat	-10.0882
▁occurs	-10.0887
▁ourselves	-10.0893
▁thy	-10.0899
▁enable	-10.0899
ville	-10.09
▁languages	-10.0907
▁male	-10.0915
when	-10.0916
▁helpful	-10.0917
▁essay	-10.0923
▁k	-10.0924
▁forest	-10.0927
▁remained	-10.0927
▁closely	-10.0932
▁defined	-10.0933
▁justice	-10.0947
▁forth	-10.0948
▁budget	-10.0949
long	-10.0956
▁description	-10.0961
▁limit	-10.0962
▁island	-10.0962
▁internet	-10.0962
ious	-10.0963
▁depends	-10.0967
▁distribution	-10.097
▁magic	-10.0973
▁Greek	-10.0975
▁rose	-10.0976
▁teams	-10.0982
▁Association	-10.0986
▁diseases	-10.0987
ud	-10.0995
▁outcomes	-10.0998
▁exchange	-10.0999
room	-10.1
▁forget	-10.1001
▁platforms	-10.1003
▁yes	-10.1009
▁matters	-10.1015
▁Education	-10.1017
▁Lake	-10.1025
▁dogs	-10.1029
▁Per	-10.1031
▁completed	-10.1036
▁Peter	-10.1036
▁Yet	-10.1048
where	-10.105
▁perfectly	-10.1051
▁Whether	-10.106
▁village	-10.1061
▁worse	-10.1065
▁situations	-10.1068
▁lady	-10.1076
▁passage	-10.1077
▁awareness	-10.1077
▁treated	-10.1099
▁street	-10.1099
▁Japanese	-10.1102
▁accurate	-10.1107
▁faster	-10.111
▁tests	-10.1114
▁Art	-10.1118
ot	-10.1124
▁Pre	-10.1128
▁Air	-10.1128
▁https	-10.1129
▁w	-10.113
▁flowers	-10.1141
▁liquid	-10.1143
▁press	-10.1149
▁February	-10.115
▁height	-10.1151
▁Make	-10.1152
▁responsibility	-10.1154
▁haven	-10.1157
▁AND	-10.1169
pa	-10.117
▁recommended	-10.1178
▁comments	-10.1185
▁drawing	-10.1186
▁contrast	-10.1187
▁infection	-10.1189
▁increasingly	-10.1189
▁considering	-10.119
der	-10.1196
▁youth	-10.1206
ably	-10.1225
▁sand	-10.1226
▁waiting	-10.1229
▁error	-10.123
▁failure	-10.1236
▁referred	-10.1237
▁existence	-10.1243
▁Internet	-10.1243
▁competition	-10.1244
ang	-10.1244
jpg	-10.1244
▁sports	-10.1249
ze	-10.1253
▁opposite	-10.1255
▁relative	-10.1257
▁Instead	-10.1258
▁confidence	-10.126
▁cutting	-10.127
▁teach	-10.1279
▁Sun	-10.1283
▁kitchen	-10.1283
▁tasks	-10.1286
▁approximately	-10.1289
▁literature	-10.1289
bar	-10.1292
▁colour	-10.1292
▁Spanish	-10.1298
▁creature	-10.1309
istic	-10.1313
▁wants	-10.1315
▁station	-10.1316
▁prefer	-10.1317
Here	-10.1319
▁custom	-10.1319
▁band	-10.1324
▁hearing	-10.1327
▁decide	-10.1327
▁assume	-10.1329
▁Thanks	-10.1329
▁Society	-10.133
▁chain	-10.1333
▁greatest	-10.1334
▁participants	-10.1336
▁En	-10.1337
▁camp	-10.1338
▁represents	-10.1339
▁experts	-10.1344
ru	-10.1346
lan	-10.1354
▁knows	-10.1355
▁sufficient	-10.1357
▁vast	-10.1362
▁encourage	-10.1367
▁Union	-10.1369
▁knowing	-10.1373
ee	-10.1374
▁copy	-10.1376
▁feelings	-10.1381
▁suggested	-10.1383
oc	-10.1386
car	-10.1387
▁element	-10.1392
▁operating	-10.1403
▁strange	-10.1406
▁ran	-10.141
▁Who	-10.142
▁concern	-10.142
▁▁▁▁▁▁▁▁▁▁	-10.1422
▁holding	-10.1427
head	-10.1427
▁performed	-10.1428
▁client	-10.1432
While	-10.1434
These	-10.1436
▁portion	-10.1437
▁marriage	-10.1439
▁cried	-10.1443
such	-10.1443
▁constant	-10.1444
▁processing	-10.1448
▁dedicated	-10.1449
From	-10.1453
Con	-10.1454
▁download	-10.1459
ations	-10.1474
▁previously	-10.1476
▁feed	-10.1478
▁discover	-10.1489
▁identified	-10.149
▁flight	-10.1495
▁annual	-10.1509
:**	-10.151
▁traffic	-10.1512
\	-10.1514
▁root	-10.1514
$	-10.1517
°	-10.1519
▁labor	-10.1527
▁count	-10.1531
▁TV	-10.1533
▁moon	-10.1542
▁yellow	-10.1548
▁corner	-10.1549
ED	-10.1555
▁slowly	-10.1564
▁pictures	-10.1568
▁structures	-10.1573
▁sides	-10.1575
▁brown	-10.1577
▁citizens	-10.1577
▁signal	-10.1583
▁Life	-10.1583
free	-10.1584
▁Russian	-10.1584
po	-10.1589
▁escape	-10.1597
▁exact	-10.1602
▁Company	-10.1605
▁motor	-10.161
ised	-10.1612
▁finished	-10.1614
▁continues	-10.1621
▁minute	-10.1627
▁civil	-10.1633
▁perspective	-10.1645
▁usual	-10.1649
▁understood	-10.1653
▁combined	-10.1653
▁indicate	-10.1657
▁Americans	-10.1657
▁tea	-10.1657
▁spiritual	-10.1661
▁Mac	-10.1671
▁partner	-10.168
▁radio	-10.1681
▁cash	-10.1683
questions	-10.1685
▁Paris	-10.1691
ding	-10.1699
▁advance	-10.1699
▁comfortable	-10.1705
▁Japan	-10.1707
▁transfer	-10.171
▁estate	-10.1718
▁violence	-10.1726
▁Service	-10.173
gar	-10.1736
han	-10.174
▁examine	-10.1742
▁Ho	-10.1746
▁Sea	-10.1756
▁imagine	-10.1763
▁mark	-10.1765
▁increases	-10.1767
▁Today	-10.1767
▁Journal	-10.1773
▁extreme	-10.1774
▁supposed	-10.1775
▁mo	-10.1779
mar	-10.1782
part	-10.1785
▁maximum	-10.1787
▁roof	-10.1792
▁connections	-10.1798
▁laid	-10.1802
▁stated	-10.1816
▁calls	-10.182
▁spoke	-10.1829
▁writer	-10.1834
▁entered	-10.1835
▁desired	-10.1837
▁conduct	-10.1846
ez	-10.1847
▁taught	-10.1847
PA	-10.1848
▁conflict	-10.1848
▁silver	-10.1852
▁arrived	-10.1852
▁distinct	-10.1858
▁consumption	-10.1858
▁medicine	-10.186
▁respond	-10.1861
▁suitable	-10.1867
▁coffee	-10.187
▁proposed	-10.1877
▁technique	-10.1887
▁transport	-10.1888
▁prepare	-10.189
▁expensive	-10.1894
▁units	-10.1897
▁evil	-10.1904
▁pull	-10.1904
▁bio	-10.1906
ries	-10.1909
▁Ta	-10.1912
▁alcohol	-10.1918
▁Free	-10.1921
▁forced	-10.193
ya	-10.1932
▁Where	-10.1932
▁improvement	-10.1932
▁comprehensive	-10.194
▁choices	-10.194
▁breast	-10.1941
▁wire	-10.1943
▁extent	-10.1944
hand	-10.1945
▁innovation	-10.1948
▁bacteria	-10.1954
▁fly	-10.1966
▁pair	-10.1967
▁replied	-10.1971
▁Press	-10.1984
▁ongoing	-10.1986
▁medium	-10.1988
▁chosen	-10.1991
▁raise	-10.1994
ick	-10.1996
▁moral	-10.1999
▁suppose	-10.2001
▁coast	-10.2005
▁mountain	-10.2005
▁maintenance	-10.2011
▁counter	-10.2018
▁causing	-10.2022
▁Group	-10.2034
▁reader	-10.2039
▁boys	-10.2044
ja	-10.2047
▁Island	-10.2048
▁harm	-10.2052
▁CO	-10.2057
▁electric	-10.2058
ING	-10.2059
▁stars	-10.2061
hi	-10.2061
▁stands	-10.2061
▁assistance	-10.2066
▁putting	-10.207
qui	-10.2071
▁lots	-10.2072
▁girls	-10.2074
Our	-10.2076
▁focused	-10.2083
▁turning	-10.2085
▁Dis	-10.209
▁switch	-10.2093
▁gender	-10.2094
▁identity	-10.2095
ver	-10.2101
▁approaches	-10.2101
▁obtain	-10.2103
▁consequences	-10.2103
▁Human	-10.2103
▁wonderful	-10.2107
▁replace	-10.2108
▁gun	-10.2111
ns	-10.2116
▁load	-10.2119
books	-10.2123
▁duty	-10.2123
▁concerned	-10.2124
After	-10.2124
▁establish	-10.2125
▁sitting	-10.2126
▁articles	-10.2131
▁regions	-10.2134
ford	-10.2137
▁sky	-10.2137
▁Street	-10.2138
▁pp	-10.214
ments	-10.2142
▁detailed	-10.2145
hu	-10.215
▁sample	-10.2153
ci	-10.2156
▁combat	-10.2159
▁Mark	-10.216
▁recognize	-10.2161
▁Israel	-10.2162
▁challenging	-10.2163
▁files	-10.2164
▁persons	-10.2164
vi	-10.2169
▁selected	-10.2169
▁l	-10.2169
low	-10.217
▁Lu	-10.2172
ap	-10.2172
▁origin	-10.2181
▁amazing	-10.2182
them	-10.2187
▁smooth	-10.2188
▁caught	-10.2191
world	-10.2193
▁fashion	-10.2213
▁Robert	-10.2213
ping	-10.2215
Illustration	-10.2215
▁Congress	-10.2219
▁ring	-10.2222
▁Those	-10.2225
point	-10.2226
▁accepted	-10.2227
eg	-10.2228
▁leader	-10.2232
▁conducted	-10.2234
▁buildings	-10.2236
▁twice	-10.2245
▁bound	-10.2247
▁degrees	-10.225
▁promoting	-10.2262
▁attacks	-10.2265
▁obtained	-10.229
▁plenty	-10.2294
▁fundamental	-10.2297
ified	-10.2301
ker	-10.2303
has	-10.2303
▁married	-10.2306
▁Only	-10.2311
▁pleasure	-10.2315
▁Any	-10.2315
▁shop	-10.2316
▁thin	-10.2316
▁formal	-10.2326
▁frame	-10.2336
▁joy	-10.2336
▁Like	-10.2339
uff	-10.234
▁clinical	-10.2343
▁suffering	-10.2344
▁assist	-10.2347
▁linked	-10.235
▁links	-10.235
▁intelligence	-10.2354
▁Star	-10.2357
▁Power	-10.2363
▁views	-10.2366
tra	-10.2366
▁foundation	-10.2368
ko	-10.237
▁readers	-10.2377
rate	-10.2382
▁sister	-10.2393
▁marked	-10.2394
html	-10.2396
▁fostering	-10.2397
▁documents	-10.2401
▁component	-10.2402
▁explained	-10.2404
▁Western	-10.2405
▁adult	-10.2406
▁bird	-10.2411
▁ear	-10.2412
Not	-10.2412
▁suddenly	-10.2416
ek	-10.2418
▁net	-10.242
tin	-10.242
war	-10.2426
▁primarily	-10.2431
▁catch	-10.2432
▁engaging	-10.2432
ins	-10.2436
about	-10.2438
▁pan	-10.2439
ven	-10.2442
▁Master	-10.2451
▁explanation	-10.2457
▁decades	-10.2458
▁industrial	-10.2466
▁suffer	-10.2472
▁noise	-10.2473
▁difficulty	-10.2474
▁Take	-10.2474
▁consideration	-10.2477
▁phase	-10.2481
▁claims	-10.2483
▁Se	-10.2486
▁topics	-10.2489
▁cycle	-10.2493
▁focusing	-10.2498
Can	-10.2505
▁output	-10.2508
▁anxiety	-10.2509
Some	-10.2509
▁Development	-10.251
▁manufacturing	-10.2511
▁proof	-10.2513
▁facilities	-10.2515
tri	-10.2515
▁Post	-10.253
▁follows	-10.2534
▁sale	-10.2539
▁ought	-10.2541
▁sustainable	-10.2542
▁ye	-10.2545
▁hole	-10.2548
▁contract	-10.255
▁Thomas	-10.2556
▁leadership	-10.2561
▁Sp	-10.2569
▁score	-10.2573
▁fairly	-10.2575
▁bill	-10.2577
▁failed	-10.2578
▁Bay	-10.2579
▁innovative	-10.2579
any	-10.2588
▁infrastructure	-10.2592
place	-10.2595
▁farm	-10.2596
▁dinner	-10.26
▁soldiers	-10.26
▁Book	-10.2605
▁dream	-10.2608
▁enables	-10.2611
▁muscle	-10.2626
▁begins	-10.2627
▁obvious	-10.2629
▁deliver	-10.2638
▁feedback	-10.2639
▁houses	-10.2655
▁principle	-10.2656
▁regard	-10.2659
▁sum	-10.2659
▁inches	-10.2666
▁deeper	-10.2669
▁danger	-10.267
▁delivery	-10.2672
put	-10.2678
▁genetic	-10.2678
▁rapidly	-10.2682
▁Have	-10.2685
▁drugs	-10.2689
▁mode	-10.2695
▁formation	-10.2697
▁trial	-10.27
▁Time	-10.27
▁remaining	-10.2702
▁supporting	-10.2703
▁walking	-10.2706
▁trends	-10.2708
▁Po	-10.2712
ery	-10.2713
▁normally	-10.2719
▁addressing	-10.2721
▁regularly	-10.2724
▁managed	-10.2727
right	-10.2727
▁grew	-10.2733
▁necessarily	-10.2734
▁universe	-10.2735
▁leg	-10.2737
ory	-10.2738
▁Charles	-10.2738
lu	-10.2743
▁pet	-10.2744
ran	-10.275
tal	-10.2751
▁stick	-10.2752
▁ill	-10.2754
▁tissue	-10.2757
▁vs	-10.2761
lic	-10.2761
tu	-10.2762
▁express	-10.2763
▁Public	-10.2763
▁tips	-10.2771
▁domestic	-10.2776
ong	-10.2781
▁ocean	-10.2782
▁continuous	-10.2783
▁noun	-10.2783
▁Ex	-10.2784
med	-10.2784
▁aim	-10.2785
▁depth	-10.2792
▁concepts	-10.2793
▁exposed	-10.2794
▁argument	-10.2796
▁Rome	-10.2803
▁Social	-10.2803
▁sir	-10.2806
▁reflect	-10.2807
od	-10.2812
▁managing	-10.2816
”.	-10.2828
than	-10.2834
▁mere	-10.2842
life	-10.2847
▁expertise	-10.2847
▁greatly	-10.2855
▁minor	-10.2861
ey	-10.2863
▁Project	-10.2864
▁surprise	-10.2866
▁extensive	-10.2866
cha	-10.2874
▁welcome	-10.2878
▁cent	-10.2878
▁possibility	-10.2879
▁Ne	-10.2879
▁Bank	-10.2881
▁pure	-10.2881
▁visible	-10.2884
▁neck	-10.2885
▁cloud	-10.2886
▁abuse	-10.2892
par	-10.2895
▁weak	-10.2897
▁strategic	-10.2902
▁roll	-10.2903
▁System	-10.291
▁wealth	-10.2914
▁naturally	-10.2914
▁supported	-10.2916
▁bone	-10.2922
▁serving	-10.2926
▁Mexico	-10.2929
▁widely	-10.294
▁homes	-10.2942
▁Bible	-10.2946
▁server	-10.2947
▁finish	-10.2948
▁payment	-10.2951
iv	-10.2953
eth	-10.2956
▁Tom	-10.2958
Your	-10.2958
quality	-10.296
▁extended	-10.296
▁characteristics	-10.2961
▁ch	-10.2963
▁sector	-10.2968
om	-10.2974
▁Henry	-10.298
▁Asia	-10.2981
▁colors	-10.2984
▁facts	-10.2985
▁resolution	-10.2985
▁engaged	-10.2991
▁organic	-10.2994
▁DNA	-10.2997
▁park	-10.3005
▁occurred	-10.3008
▁Design	-10.3008
ney	-10.301
▁electrical	-10.3013
▁improving	-10.3013
▁attached	-10.3016
▁seat	-10.3021
ung	-10.3024
▁immediate	-10.3029
▁Central	-10.3031
▁president	-10.3032
▁settings	-10.3041
port	-10.3045
▁Data	-10.3045
ric	-10.3047
▁survey	-10.3049
har	-10.3051
▁appreciate	-10.3058
▁expert	-10.3059
▁grown	-10.3069
▁guidelines	-10.3073
▁thick	-10.3082
▁@	-10.3087
▁print	-10.3093
▁parent	-10.3099
▁drawn	-10.3106
▁ride	-10.3123
Be	-10.3123
ice	-10.3124
▁passing	-10.3127
▁paint	-10.3128
ane	-10.3133
▁reliable	-10.3135
▁cup	-10.3139
▁reduction	-10.3143
▁Men	-10.315
▁appeal	-10.3154
▁connect	-10.3155
▁missing	-10.3155
▁eggs	-10.3159
ki	-10.3163
king	-10.3165
▁OP	-10.3184
▁electricity	-10.3185
▁authors	-10.3186
▁starts	-10.3192
being	-10.3193
▁officers	-10.3194
▁contemporary	-10.3197
▁centuries	-10.321
▁Smith	-10.322
▁unable	-10.3223
▁horses	-10.3225
▁Before	-10.3226
▁rapid	-10.3231
,--	-10.3236
▁consumers	-10.3238
▁advantages	-10.3239
▁false	-10.324
▁involve	-10.324
▁owner	-10.3244
▁Ra	-10.3251
▁brings	-10.3255
▁speaker	-10.326
▁Ga	-10.326
▁weapon	-10.326
▁suit	-10.3262
▁Sunday	-10.3269
▁Using	-10.3276
▁panel	-10.328
▁Ko	-10.328
▁nations	-10.3281
▁oxygen	-10.3282
▁stopped	-10.3284
▁kinds	-10.3286
▁figures	-10.3286
▁Italian	-10.3286
▁Finally	-10.3288
!”	-10.3291
▁push	-10.3296
▁capture	-10.3298
▁listed	-10.33
▁pen	-10.3303
act	-10.3305
▁remote	-10.3315
▁experiment	-10.3315
St	-10.3322
▁immune	-10.3328
▁joint	-10.333
▁employed	-10.333
▁glad	-10.3331
▁format	-10.3331
other	-10.3337
▁breath	-10.3343
▁guidance	-10.3348
▁(_	-10.335
▁cooking	-10.3357
▁debt	-10.3365
▁plain	-10.3365
US	-10.3366
▁emergency	-10.3369
made	-10.3374
▁plus	-10.3375
▁constantly	-10.3377
▁centre	-10.3379
▁involving	-10.3383
Or	-10.3389
▁subjects	-10.339
▁virus	-10.3391
▁grade	-10.34
lar	-10.3402
▁battery	-10.3405
fi	-10.341
▁route	-10.3412
▁mix	-10.3419
yn	-10.3422
art	-10.3423
cho	-10.3426
its	-10.3434
most	-10.3444
▁committed	-10.3447
▁honor	-10.3448
▁typical	-10.3451
▁fan	-10.3454
▁weapons	-10.3475
▁Web	-10.3476
▁brief	-10.3483
▁alike	-10.3485
set	-10.3492
▁chair	-10.35
▁throw	-10.3509
▁quarter	-10.3513
▁west	-10.3515
▁lessons	-10.3517
▁assessment	-10.352
▁officer	-10.3523
However	-10.3534
▁struggle	-10.3537
▁noted	-10.3543
▁imp	-10.3546
▁Hall	-10.3549
▁disorder	-10.3552
▁chronic	-10.3556
▁bag	-10.3557
Then	-10.3558
▁Ro	-10.3558
▁Jewish	-10.3559
▁LETTER	-10.3566
▁sensitive	-10.3569
▁minimum	-10.3572
▁largely	-10.3574
▁▁▁▁▁▁▁▁▁▁▁▁▁▁	-10.3586
ple	-10.3597
▁Management	-10.36
▁professor	-10.3602
▁expressed	-10.3603
▁dance	-10.3604
ological	-10.3608
▁accounts	-10.361
related	-10.3611
▁engineering	-10.3613
ose	-10.3614
▁Russia	-10.3617
▁Does	-10.3625
▁east	-10.3628
▁exciting	-10.363
IN	-10.3631
▁robust	-10.3638
▁evolution	-10.3644
only	-10.3652
▁IN	-10.3655
▁quiet	-10.3657
▁plate	-10.3658
▁Texas	-10.3659
▁Bill	-10.3663
▁trans	-10.367
▁nuclear	-10.3674
▁Middle	-10.3677
▁vary	-10.3679
▁exploring	-10.3681
▁TO	-10.3681
▁vote	-10.3681
▁belief	-10.3684
▁plot	-10.3687
▁demonstrate	-10.3691
▁consumer	-10.3692
▁recognized	-10.3694
▁significance	-10.3695
▁ingredients	-10.3696
▁realize	-10.3696
▁Catholic	-10.3696
▁vehicles	-10.37
▁noticed	-10.3704
▁findings	-10.3705
get	-10.3707
▁abilities	-10.3708
▁expand	-10.3709
▁gift	-10.3712
▁Christmas	-10.3713
▁troops	-10.3715
▁shift	-10.3716
ians	-10.3719
▁Italy	-10.3722
▁Ni	-10.3724
▁composition	-10.3724
▁jobs	-10.3727
New	-10.3729
mit	-10.3731
▁bread	-10.3731
▁Food	-10.3733
▁nine	-10.3737
▁urban	-10.3743
pp	-10.3745
fe	-10.375
mp	-10.3754
fer	-10.3759
▁tone	-10.3761
Le	-10.3766
▁communicate	-10.3767
▁Museum	-10.3767
▁ends	-10.377
▁smile	-10.3773
▁successfully	-10.378
za	-10.3782
nes	-10.3784
▁recovery	-10.3786
▁regulations	-10.3787
▁lie	-10.3788
▁Jo	-10.3799
yl	-10.3799
▁Jack	-10.3803
▁cap	-10.3809
▁wave	-10.3811
ell	-10.3819
▁worldwide	-10.3827
▁bridge	-10.3829
▁vol	-10.3837
▁sharp	-10.3837
▁Perhaps	-10.3846
▁Part	-10.385
ned	-10.386
▁Sa	-10.386
▁agreement	-10.3877
▁afraid	-10.3879
▁absolutely	-10.3885
▁acts	-10.3885
▁session	-10.3899
▁residents	-10.3902
▁bringing	-10.3907
▁classroom	-10.3913
▁listen	-10.3914
▁roles	-10.3922
▁dollars	-10.3928
▁rising	-10.3931
ho	-10.3934
▁funds	-10.3941
GREEK	-10.3943
▁Business	-10.3947
▁announced	-10.3948
ient	-10.3954
▁concerning	-10.3954
▁equally	-10.396
▁Long	-10.3961
very	-10.3963
▁containing	-10.3966
▁reaction	-10.3966
▁monitoring	-10.3968
▁fighting	-10.3969
▁port	-10.3976
ens	-10.3978
▁discussed	-10.398
▁massive	-10.3982
▁smoke	-10.3983
▁generate	-10.3984
cal	-10.3992
now	-10.3994
▁library	-10.3999
▁turns	-10.4
▁procedures	-10.4002
▁era	-10.4005
▁meal	-10.4006
▁raw	-10.4006
▁dust	-10.4007
▁watching	-10.4009
▁procedure	-10.4017
▁temperatures	-10.4018
▁posted	-10.4019
▁mainly	-10.4021
▁crowd	-10.4026
▁foster	-10.4029
▁hidden	-10.4029
▁III	-10.4031
▁ended	-10.4033
▁fail	-10.4034
▁smart	-10.4038
▁storm	-10.4041
▁photos	-10.4043
▁hotel	-10.4046
even	-10.405
▁bought	-10.4052
▁dealing	-10.4052
ual	-10.4055
▁gained	-10.4056
▁administration	-10.4062
▁classic	-10.4064
▁stronger	-10.4065
▁ships	-10.4068
▁artists	-10.407
ae	-10.4071
▁input	-10.4077
night	-10.4078
▁hospital	-10.408
▁ease	-10.408
▁instructions	-10.4082
▁Britain	-10.4085
cy	-10.4086
▁artist	-10.409
▁environments	-10.4093
tain	-10.4099
▁h	-10.41
known	-10.4102
▁r	-10.4103
ip	-10.4103
▁collected	-10.4119
▁Love	-10.4123
▁runs	-10.4123
▁reasonable	-10.4123
▁repair	-10.4123
▁diabetes	-10.4129
▁aimed	-10.4131
▁concrete	-10.4136
▁southern	-10.4137
▁tells	-10.4137
ue	-10.4137
▁originally	-10.414
▁legs	-10.4151
▁camera	-10.4161
▁occasion	-10.4164
▁sick	-10.4164
▁recorded	-10.4166
▁im	-10.4169
▁joined	-10.4172
▁ob	-10.4187
▁Queen	-10.4191
▁hardly	-10.4193
under	-10.4195
▁stream	-10.4204
Co	-10.4204
▁monitor	-10.4204
▁unknown	-10.4208
▁tall	-10.4209
chi	-10.4219
▁Lady	-10.422
•	-10.422
▁considerable	-10.4229
nce	-10.4233
▁cleaning	-10.4234
pi	-10.4244
▁auto	-10.4258
▁hurt	-10.4258
▁relations	-10.4258
▁AI	-10.4259
▁sex	-10.4267
▁seed	-10.427
▁populations	-10.4271
▁threat	-10.4274
▁button	-10.4274
See	-10.4275
▁expectations	-10.4277
▁facing	-10.4282
▁cars	-10.4285
▁amounts	-10.4287
▁Richard	-10.4294
▁Board	-10.4296
▁tradition	-10.4298
▁divided	-10.4302
▁surgery	-10.4304
van	-10.4305
▁hundreds	-10.4308
▁younger	-10.4311
fully	-10.4315
▁inner	-10.4319
Ro	-10.4331
▁windows	-10.4332
▁Gar	-10.4332
aw	-10.4339
▁agencies	-10.4342
▁optimal	-10.4342
gi	-10.4342
▁fix	-10.4342
level	-10.4344
▁drinking	-10.4349
▁capabilities	-10.4357
▁tiny	-10.436
Of	-10.4367
▁superior	-10.4368
▁solve	-10.4368
▁border	-10.4377
▁Su	-10.4377
▁Ba	-10.4378
▁exists	-10.4379
▁periods	-10.4382
ps	-10.4383
▁visitors	-10.4384
▁agency	-10.4385
▁dress	-10.4386
▁noble	-10.4386
▁equivalent	-10.4389
▁relief	-10.439
▁Office	-10.4393
dictionary	-10.4397
▁anywhere	-10.44
nt	-10.4402
▁Inc	-10.4403
▁competitive	-10.4407
law	-10.4408
▁arts	-10.4409
▁collect	-10.4409
▁underlying	-10.4412
ji	-10.4421
▁SMALL	-10.4426
▁About	-10.4432
▁Wood	-10.4433
▁Thank	-10.4439
--"	-10.4439
▁locations	-10.444
▁•	-10.4441
▁crime	-10.4442
▁markets	-10.445
ou	-10.4455
▁transportation	-10.4461
▁biggest	-10.4466
▁Land	-10.4466
▁Cor	-10.447
▁bi	-10.447
▁discovery	-10.4471
▁sheet	-10.4472
▁regardless	-10.4475
▁consists	-10.4476
▁thank	-10.4482
▁compare	-10.4487
▁fabric	-10.4489
page	-10.4491
▁Hu	-10.4493
La	-10.4505
▁designs	-10.4506
▁spending	-10.4507
▁politics	-10.4507
could	-10.4507
▁loan	-10.4509
▁Captain	-10.4509
▁examination	-10.451
▁pool	-10.451
two	-10.4512
▁mixed	-10.4514
▁telling	-10.4515
▁worry	-10.4517
▁promise	-10.4527
air	-10.4527
ties	-10.4536
cul	-10.4537
▁friendly	-10.4538
bi	-10.4538
▁coal	-10.455
▁instrument	-10.4553
▁Children	-10.4558
▁Up	-10.4559
ix	-10.4562
▁ma	-10.4564
▁sentences	-10.4567
▁calling	-10.4568
▁implementation	-10.457
▁installed	-10.457
▁curious	-10.4575
▁depression	-10.4575
▁dynamic	-10.4577
ration	-10.4585
▁adopted	-10.4589
bit	-10.4597
▁owners	-10.4602
ura	-10.4603
▁regional	-10.4604
form	-10.4622
▁cook	-10.4624
ily	-10.4636
▁Du	-10.464
▁introduction	-10.4644
after	-10.4647
▁faced	-10.465
val	-10.4656
ble	-10.466
SE	-10.4664
▁derived	-10.4666
▁trend	-10.4666
▁muscles	-10.467
▁receiving	-10.4692
▁producing	-10.4695
▁recognition	-10.4701
▁networks	-10.4703
▁▁▁▁▁▁▁▁▁▁▁▁▁▁▁	-10.4704
▁lifestyle	-10.4704
table	-10.4709
▁Ad	-10.4719
▁department	-10.4719
▁Open	-10.4721
▁valid	-10.4724
▁radiation	-10.4725
▁interview	-10.4731
▁willing	-10.4732
▁Note	-10.4736
Are	-10.475
▁Plan	-10.475
▁ordinary	-10.4751
▁audio	-10.4752
ff	-10.4755
▁driver	-10.4761
▁substance	-10.4765
▁remarkable	-10.4766
Ma	-10.4769
▁PC	-10.4771
ew	-10.4771
▁choosing	-10.4773
▁sp	-10.4778
▁authorities	-10.4783
▁estimated	-10.4785
du	-10.4788
▁sought	-10.4791
▁Michael	-10.4792
▁parallel	-10.4792
▁sin	-10.4794
fa	-10.4795
▁holds	-10.4801
▁positions	-10.4809
▁Irish	-10.481
▁tank	-10.4811
▁Under	-10.4811
▁crisis	-10.4813
▁disorders	-10.4815
▁edition	-10.4821
▁strike	-10.4822
▁carrying	-10.4823
▁satisfaction	-10.4826
▁Ben	-10.4831
▁steam	-10.4833
▁creates	-10.4833
▁conventional	-10.4834
▁whereas	-10.4837
ID	-10.4837
▁demands	-10.4841
▁revealed	-10.4844
sur	-10.4846
▁studied	-10.4847
▁represented	-10.4847
▁grass	-10.4848
▁tailored	-10.4853
stone	-10.4856
kin	-10.4856
▁dive	-10.486
▁emissions	-10.486
class	-10.4861
▁reputation	-10.4862
▁Mc	-10.4868
▁Its	-10.487
▁northern	-10.487
▁Despite	-10.4875
▁favor	-10.4875
ct	-10.4875
▁Second	-10.4878
Mo	-10.4893
▁Oh	-10.4895
AS	-10.4898
▁USA	-10.4901
▁Ireland	-10.4909
▁interior	-10.491
▁creatures	-10.4914
jo	-10.4919
cur	-10.492
▁emphasis	-10.4923
ik	-10.4924
▁participate	-10.4925
▁Royal	-10.4925
▁providers	-10.4926
ency	-10.4928
▁thereby	-10.493
been	-10.4933
▁crew	-10.4934
ub	-10.4934
▁gear	-10.4937
▁Ch	-10.4937
▁lesson	-10.4947
▁cur	-10.4948
▁broader	-10.4957
▁western	-10.4958
▁passion	-10.4965
▁sc	-10.4965
▁heavily	-10.4967
á	-10.4973
▁movements	-10.4973
▁agreed	-10.4974
▁Martin	-10.4978
png	-10.4979
▁…	-10.4981
▁ages	-10.4982
▁partners	-10.4985
▁limits	-10.4998
▁bike	-10.5001
▁sexual	-10.5003
▁orders	-10.5005
ming	-10.5006
▁schedule	-10.5007
▁par	-10.5011
▁Canadian	-10.5019
▁employment	-10.5021
▁km	-10.5022
<	-10.5024
sp	-10.5029
▁corn	-10.5031
▁Keep	-10.5032
▁goods	-10.5034
▁Though	-10.5036
▁controlled	-10.5037
▁Brown	-10.5042
▁inspiration	-10.5045
▁Energy	-10.5046
just	-10.5049
ened	-10.5051
cut	-10.5063
▁Maybe	-10.5064
▁beneficial	-10.5066
▁wedding	-10.5066
lock	-10.5067
▁protected	-10.5069
▁grand	-10.5071
▁writers	-10.5071
▁vegetables	-10.5076
▁proved	-10.508
here	-10.5081
ball	-10.5083
▁Spain	-10.5086
▁director	-10.5087
ants	-10.5093
▁virtual	-10.5096
▁papers	-10.5097
▁Bi	-10.51
▁indicates	-10.51
▁doors	-10.5102
▁encounter	-10.5103
▁stages	-10.5106
ther	-10.5107
vin	-10.511
▁Ja	-10.5113
Let	-10.5113
▁Da	-10.5118
ons	-10.5123
▁millions	-10.5128
matic	-10.5134
first	-10.5136
▁replaced	-10.514
▁Har	-10.514
▁database	-10.5144
▁Check	-10.5149
read	-10.5159
▁spoken	-10.516
▁meaningful	-10.5163
▁pounds	-10.5165
▁funding	-10.5167
▁alive	-10.5169
ov	-10.5169
Al	-10.5171
▁Foundation	-10.5174
▁rely	-10.5175
▁emotions	-10.5179
▁stable	-10.5181
▁Sch	-10.5182
▁officials	-10.5182
▁install	-10.5184
▁alongside	-10.5186
▁string	-10.519
▁habits	-10.519
....	-10.52
▁Ver	-10.52
mor	-10.5201
▁strongly	-10.5203
ino	-10.5204
▁roots	-10.5205
vis	-10.5206
▁agent	-10.5207
▁calm	-10.5211
▁Work	-10.5213
▁craft	-10.5213
▁Information	-10.5218
▁frequency	-10.5221
▁deeply	-10.5226
cent	-10.5229
▁Florida	-10.5232
▁rooms	-10.5237
▁survive	-10.524
▁injuries	-10.5241
▁Get	-10.5241
tes	-10.5247
▁driven	-10.5249
▁comparison	-10.525
ators	-10.525
▁Look	-10.5252
▁Sub	-10.5254
english	-10.5256
▁Jews	-10.5257
▁clothes	-10.526
body	-10.5263
▁bus	-10.5265
good	-10.5266
▁Friday	-10.5267
▁beat	-10.5268
▁electronic	-10.5269
▁sequence	-10.527
▁declared	-10.5272
▁interactions	-10.5273
▁diversity	-10.5275
vol	-10.5276
▁blind	-10.5283
▁listening	-10.5288
▁sudden	-10.5289
▁possess	-10.529
▁incorporating	-10.5291
▁quote	-10.5293
ill	-10.5297
▁enabling	-10.53
▁gene	-10.53
▁generations	-10.5302
▁district	-10.5304
type	-10.5306
ock	-10.5307
▁apparently	-10.5308
uc	-10.531
hl	-10.531
▁fluid	-10.5312
▁ca	-10.5316
▁circuit	-10.5316
▁Sometimes	-10.5328
▁powers	-10.533
nic	-10.5332
upon	-10.5332
▁destroy	-10.5333
ach	-10.5334
▁suspect	-10.5337
▁Professor	-10.5341
▁category	-10.5344
▁▁▁▁▁▁▁▁▁▁▁	-10.5344
▁Ph	-10.5347
▁visa	-10.535
into	-10.5354
▁frequent	-10.5355
▁busy	-10.5367
▁Women	-10.537
app	-10.5377
▁banks	-10.5378
▁judgment	-10.5379
▁divine	-10.5379
▁Out	-10.5383
▁highlights	-10.5384
▁Which	-10.5386
▁intellectual	-10.5387
▁Fa	-10.5387
▁Among	-10.5388
▁ordered	-10.5388
▁transition	-10.5391
ade	-10.5392
▁defense	-10.5399
tle	-10.5401
▁feels	-10.5401
▁attend	-10.5402
si	-10.5404
▁silence	-10.5408
▁somewhere	-10.5418
▁Facebook	-10.5419
name	-10.5424
▁afternoon	-10.5425
▁fourth	-10.5428
▁issued	-10.5435
your	-10.5439
▁waves	-10.5449
ola	-10.545
▁spaces	-10.5453
▁seeds	-10.5465
▁struck	-10.5465
▁Medical	-10.5468
▁illness	-10.5468
called	-10.5471
▁tour	-10.5473
▁saving	-10.5475
▁trained	-10.5477
▁deck	-10.5477
ani	-10.5479
▁describes	-10.5485
scale	-10.5486
source	-10.5487
▁Services	-10.5487
bra	-10.5489
▁peak	-10.5494
▁pipe	-10.5497
▁Ca	-10.5501
lon	-10.5509
▁assets	-10.551
▁household	-10.5516
▁Windows	-10.5517
rk	-10.5517
▁artificial	-10.5522
▁empty	-10.5527
sen	-10.5529
▁Technology	-10.5532
▁cheap	-10.5532
▁Tri	-10.5533
iz	-10.5537
▁hall	-10.5543
▁smell	-10.5548
▁university	-10.5548
▁Che	-10.5562
new	-10.5567
▁speakers	-10.5567
▁wisdom	-10.5573
▁Gen	-10.5581
▁lights	-10.5582
▁dialogue	-10.5583
▁delivered	-10.5601
word	-10.5601
▁depend	-10.5603
▁Control	-10.5604
▁industries	-10.5609
ets	-10.561
▁inspired	-10.5611
▁math	-10.5613
ng	-10.5614
▁tail	-10.5614
▁correctly	-10.5616
▁burning	-10.5617
▁judge	-10.5617
▁relation	-10.562
▁manual	-10.5627
rag	-10.5627
ella	-10.5629
▁treatments	-10.5629
DW	-10.5634
▁privacy	-10.5635
▁News	-10.5638
through	-10.5641
▁egg	-10.5648
▁evaluation	-10.5654
und	-10.5657
CO	-10.5658
▁explains	-10.566
wi	-10.5665
ER	-10.5666
▁recall	-10.5669
▁machines	-10.5669
▁automatically	-10.567
▁implications	-10.5672
▁Sam	-10.5672
then	-10.5674
▁impacts	-10.5675
▁contained	-10.5679
▁websites	-10.5679
‘	-10.5685
▁handling	-10.5691
▁gradually	-10.5692
▁adds	-10.5692
▁Read	-10.5693
▁circle	-10.5693
tz	-10.5698
▁Te	-10.5699
▁coverage	-10.57
▁football	-10.5714
▁Students	-10.5716
aries	-10.5716
▁flavor	-10.5716
▁interaction	-10.5718
▁Hill	-10.572
state	-10.5727
▁Care	-10.5727
▁Cat	-10.5729
▁narrative	-10.5731
▁farmers	-10.5735
▁tip	-10.5736
▁aside	-10.5741
▁grace	-10.5741
▁Prince	-10.5742
▁ha	-10.5744
▁:)	-10.5746
ray	-10.575
▁sessions	-10.5752
▁Next	-10.5753
▁yield	-10.5759
▁enhancing	-10.5767
▁channels	-10.5773
▁heads	-10.5773
▁mountains	-10.5774
▁worst	-10.5776
▁pointed	-10.5779
▁gap	-10.5782
▁{	-10.5783
▁proud	-10.5783
▁qualities	-10.5784
Don	-10.5791
▁breaking	-10.5794
bb	-10.5796
▁moments	-10.5797
▁studying	-10.5799
▁Father	-10.5801
▁saved	-10.581
▁buying	-10.5819
▁Holy	-10.582
MS	-10.5824
▁index	-10.5824
▁club	-10.5828
▁painting	-10.5844
▁Australian	-10.5846
▁measured	-10.5848
▁des	-10.5854
ren	-10.5856
▁IT	-10.5858
▁rear	-10.5862
▁define	-10.5868
▁Dec	-10.5875
Me	-10.5877
ware	-10.5878
▁permanent	-10.588
▁tested	-10.5886
▁du	-10.5888
len	-10.589
▁Egypt	-10.5894
▁everyday	-10.5896
top	-10.5897
▁Grand	-10.5902
post	-10.5904
▁percentage	-10.5908
▁poverty	-10.5909
▁afterwards	-10.591
ase	-10.5911
▁Big	-10.5912
▁adventure	-10.5912
▁▁▁▁▁▁▁▁▁▁▁▁▁	-10.5914
▁mood	-10.5914
▁preparation	-10.5914
▁butter	-10.5918
▁messages	-10.5918
Go	-10.5918
~}{~	-10.5918
▁zero	-10.592
fire	-10.5921
▁architecture	-10.5928
▁tongue	-10.5936
▁supplies	-10.5936
▁Harry	-10.5937
▁Retrieved	-10.594
▁falling	-10.5942
▁interpretation	-10.5944
▁RE	-10.5945
▁grammar	-10.5947
▁bigger	-10.5948
▁Did	-10.5948
▁principal	-10.5949
▁mechanisms	-10.5951
▁holiday	-10.5951
▁minimize	-10.5954
▁stem	-10.5957
▁destroyed	-10.5958
▁recipe	-10.597
▁criminal	-10.5976
▁Van	-10.5977
▁repeated	-10.5978
▁update	-10.598
▁walked	-10.5981
▁grave	-10.599
take	-10.5991
▁beneath	-10.6001
▁selling	-10.6002
▁translation	-10.6002
▁Having	-10.6003
▁Ke	-10.6007
mi	-10.601
▁implement	-10.6012
▁Indians	-10.6012
▁Joseph	-10.6013
▁Gu	-10.6015
▁cream	-10.6016
▁videos	-10.6016
▁confirm	-10.6021
▁arch	-10.6022
▁random	-10.6029
▁achieved	-10.603
▁manager	-10.6031
IS	-10.6032
▁presents	-10.6041
▁stability	-10.6045
▁hill	-10.6047
gan	-10.6047
▁functional	-10.6047
▁Pe	-10.6048
iness	-10.605
▁errors	-10.6052
▁essentially	-10.6053
▁particles	-10.6053
▁navigate	-10.6063
▁Commission	-10.6066
▁Ab	-10.6069
▁initiatives	-10.6073
hr	-10.6075
▁absence	-10.6091
▁coat	-10.6095
▁Review	-10.6097
▁row	-10.61
▁operate	-10.6112
su	-10.6115
mal	-10.6117
tis	-10.6131
▁guard	-10.6134
ev	-10.6135
▁worship	-10.6136
▁decline	-10.6137
▁musical	-10.6137
ving	-10.6139
▁basically	-10.6139
▁anyway	-10.6141
▁broke	-10.6141
▁investigation	-10.6145
▁chicken	-10.6146
▁dropped	-10.6146
▁symbol	-10.615
▁boost	-10.6151
▁pop	-10.6151
▁accident	-10.6154
▁edit	-10.6154
google	-10.6154
▁distinction	-10.6159
TH	-10.6166
▁EU	-10.6166
▁organized	-10.6169
▁surprised	-10.617
▁stores	-10.6173
▁integration	-10.6173
▁rural	-10.6173
▁Road	-10.6193
▁shut	-10.6194
▁excited	-10.6196
AL	-10.6202
▁stored	-10.6204
▁Light	-10.6208
▁profile	-10.6209
▁revenue	-10.6213
▁domain	-10.6218
▁CA	-10.6222
▁paying	-10.6223
▁formula	-10.6228
▁bowl	-10.6232
▁healing	-10.6235
▁nearby	-10.6237
des	-10.624
▁UN	-10.6241
▁happening	-10.6243
▁Blue	-10.6243
▁channel	-10.6244
American	-10.6244
cing	-10.6244
▁samples	-10.6245
▁dental	-10.6248
▁generated	-10.6248
Note	-10.6248
▁substantial	-10.6252
▁crown	-10.6254
▁installation	-10.6254
▁whenever	-10.6258
.[	-10.6261
▁mistake	-10.6261
ky	-10.6263
▁Virginia	-10.6263
▁flower	-10.6265
berg	-10.6266
▁vessels	-10.6266
Also	-10.6275
▁sport	-10.6277
▁opposed	-10.628
CA	-10.6281
▁Army	-10.6281
▁enjoyed	-10.6288
▁observe	-10.6293
▁expansion	-10.6294
box	-10.6298
▁debate	-10.63
▁facility	-10.6303
▁technological	-10.6303
should	-10.631
▁accuracy	-10.631
▁updated	-10.6312
▁emerging	-10.6312
▁fruits	-10.6318
Mr	-10.632
▁Nature	-10.6326
▁replacement	-10.6328
▁wheel	-10.6328
▁argue	-10.6329
▁cheese	-10.6331
▁prayer	-10.6333
▁ratio	-10.6335
▁printed	-10.6336
▁gate	-10.6342
ata	-10.6342
▁assess	-10.6343
▁heaven	-10.6344
ture	-10.6347
▁jump	-10.6348
▁Committee	-10.6348
▁marks	-10.6351
▁glance	-10.6357
position	-10.6358
▁Vol	-10.636
▁Valley	-10.636
ris	-10.6362
▁launch	-10.6368
Another	-10.6368
▁hence	-10.6369
▁miss	-10.6372
ari	-10.6377
▁lighting	-10.6378
▁Chicago	-10.6381
_)	-10.6383
Thanks	-10.6383
▁honour	-10.6385
·	-10.6387
▁intervention	-10.6404
▁routine	-10.641
▁drew	-10.6411
▁happiness	-10.6411
rie	-10.6421
ita	-10.6422
▁requiring	-10.6425
▁chemicals	-10.6426
▁pleasant	-10.6427
▁blow	-10.6429
▁approved	-10.643
▁responses	-10.6431
▁vitamin	-10.6432
▁finger	-10.6433
▁Monday	-10.6434
▁split	-10.6437
▁rice	-10.6438
ign	-10.6439
mes	-10.644
▁ii	-10.6445
ved	-10.6445
▁layers	-10.6448
▁lab	-10.6455
row	-10.6455
▁totally	-10.6456
▁loose	-10.6457
isation	-10.6457
Ra	-10.6461
ES	-10.6462
▁Cal	-10.6463
▁philosophy	-10.6465
cl	-10.6466
▁Pi	-10.6468
▁license	-10.6469
care	-10.6469
▁le	-10.647
▁contributing	-10.6473
▁wise	-10.6479
▁plane	-10.648
▁division	-10.648
ob	-10.6482
before	-10.6482
▁angle	-10.6485
▁outdoor	-10.6487
▁arrival	-10.6492
ai	-10.6493
▁tense	-10.6493
▁array	-10.6499
ag	-10.6499
▁pot	-10.6499
dic	-10.6499
PS	-10.65
▁Remember	-10.6501
▁universal	-10.6505
ica	-10.6506
▁bones	-10.6507
▁scenario	-10.651
tter	-10.6521
▁Gold	-10.6524
▁objective	-10.6524
Pro	-10.6526
▁tough	-10.6528
▁tight	-10.6528
▁j	-10.6529
▁programming	-10.6532
ET	-10.6537
▁Medicine	-10.654
AD	-10.654
▁suffered	-10.6541
mann	-10.6549
▁secondary	-10.6549
▁seconds	-10.6552
Have	-10.6552
▁prison	-10.6555
▁guests	-10.6558
▁Report	-10.6558
pin	-10.6561
▁Learning	-10.6561
lay	-10.6564
▁£	-10.6571
uck	-10.6573
▁reply	-10.6577
▁tooth	-10.6578
▁trading	-10.6587
▁wearing	-10.6588
oo	-10.6588
▁founded	-10.6591
▁versions	-10.6592
▁delve	-10.6594
▁diagnosis	-10.6595
▁preserve	-10.6596
IT	-10.6596
▁introduce	-10.6598
▁planned	-10.6604
▁Par	-10.6604
­	-10.6607
▁Federal	-10.661
▁facilitate	-10.661
▁Ser	-10.661
▁Director	-10.6611
cus	-10.6616
power	-10.6616
Just	-10.6616
▁mixture	-10.6617
▁streets	-10.6617
▁branch	-10.6621
▁Fire	-10.6622
▁agents	-10.6626
▁lake	-10.6627
wing	-10.6627
▁crop	-10.663
non	-10.663
▁zone	-10.6635
town	-10.6635
▁excess	-10.6637
▁nose	-10.6639
▁election	-10.6641
▁affects	-10.6645
▁rough	-10.6646
atory	-10.6648
▁labour	-10.6651
bed	-10.6652
TA	-10.6653
ara	-10.6653
▁conference	-10.6656
▁chances	-10.6657
▁odd	-10.6657
▁categories	-10.6665
▁boundaries	-10.6665
▁flying	-10.6668
▁subsequent	-10.6668
gy	-10.6675
▁detect	-10.6679
sion	-10.668
▁fishing	-10.6681
▁reviews	-10.6687
▁songs	-10.6687
▁infections	-10.6692
▁instruction	-10.6697
▁clause	-10.67
lie	-10.6703
▁criteria	-10.6703
▁furniture	-10.6706
▁Space	-10.6709
rous	-10.6712
▁impressive	-10.6713
▁fans	-10.6721
▁exercises	-10.6727
▁mechanism	-10.6727
gu	-10.6727
▁Network	-10.6728
▁unusual	-10.673
▁motivation	-10.6733
▁flexibility	-10.6733
ula	-10.6736
▁permission	-10.6744
tern	-10.6749
▁possession	-10.6754
▁preferences	-10.6755
▁biological	-10.6757
cher	-10.6758
▁Best	-10.6761
Who	-10.6775
▁accessible	-10.6775
je	-10.6776
▁behaviour	-10.6778
▁luck	-10.6779
▁corporate	-10.6781
▁Program	-10.6782
▁recommendations	-10.6782
▁extend	-10.6783
▁childhood	-10.6783
▁Global	-10.6784
▁Club	-10.6791
▁tech	-10.6797
onic	-10.6797
▁reform	-10.6798
▁overcome	-10.6799
▁blocks	-10.6802
rest	-10.6802
▁Unfortunately	-10.6805
▁afford	-10.6807
ans	-10.6807
▁bow	-10.6811
▁conservation	-10.6813
▁burden	-10.6815
▁possibilities	-10.6815
▁Southern	-10.6816
mail	-10.6821
play	-10.6827
▁Force	-10.6831
▁thirty	-10.6831
▁moves	-10.6832
▁IV	-10.6835
▁breakfast	-10.6836
▁presentation	-10.6837
▁faces	-10.6843
▁bo	-10.6845
▁bearing	-10.6846
▁falls	-10.6849
▁delicate	-10.685
▁Bio	-10.6852
fall	-10.6854
▁thread	-10.6855
▁decrease	-10.6859
▁Indeed	-10.6862
▁honest	-10.6862
▁singular	-10.6867
ib	-10.687
æ	-10.687
▁covering	-10.6872
▁package	-10.6881
▁weekend	-10.6884
▁profit	-10.6887
far	-10.689
▁exception	-10.6899
itis	-10.6902
▁slight	-10.6903
▁association	-10.6906
▁lips	-10.6907
▁aims	-10.6912
▁manufacturers	-10.6913
ene	-10.6914
cip	-10.6919
▁covers	-10.692
▁Pacific	-10.6921
▁cognitive	-10.6921
▁Fi	-10.6924
▁survival	-10.693
▁Pan	-10.6931
▁desert	-10.6934
▁holes	-10.6935
▁rarely	-10.6935
▁Hi	-10.6937
▁repeat	-10.6938
▁para	-10.6938
ics	-10.6939
▁Three	-10.6942
▁Team	-10.6942
▁Guide	-10.6946
▁▁▁▁▁▁▁▁	-10.6948
▁hardware	-10.6951
▁Empire	-10.6951
▁county	-10.6954
▁journal	-10.6957
▁info	-10.6957
ep	-10.6963
▁pace	-10.6964
▁gentle	-10.6964
THE	-10.6967
▁exploration	-10.6969
know	-10.697
▁courses	-10.697
▁pride	-10.6971
▁cons	-10.6973
▁humanity	-10.6973
▁complicated	-10.6973
▁orbit	-10.6977
face	-10.6977
▁harder	-10.6979
▁victory	-10.698
▁Col	-10.6982
▁murder	-10.6985
▁oral	-10.6986
®	-10.6989
▁Cha	-10.699
▁interact	-10.6998
▁implementing	-10.6998
▁Super	-10.6998
▁Chi	-10.6999
▁housing	-10.7
little	-10.7003
▁hat	-10.7003
▁framework	-10.701
▁vessel	-10.7013
▁shield	-10.7017
rin	-10.7018
run	-10.7018
▁creativity	-10.7019
▁employee	-10.702
vert	-10.702
▁invest	-10.702
RE	-10.7025
▁decade	-10.7031
▁cable	-10.7032
▁Amazon	-10.7039
▁register	-10.7042
▁Year	-10.7046
▁mining	-10.7047
may	-10.7048
▁collective	-10.7049
▁Security	-10.705
▁developers	-10.705
▁bottle	-10.7051
▁Real	-10.7051
▁transformation	-10.7054
▁Edward	-10.7055
sk	-10.7055
▁genes	-10.7057
▁losing	-10.7059
▁removal	-10.706
▁copper	-10.706
▁statements	-10.7061
▁habit	-10.7061
sta	-10.7064
person	-10.7067
▁pack	-10.707
▁entrance	-10.707
ches	-10.707
▁destination	-10.7071
▁updates	-10.7072
home	-10.7073
▁ears	-10.7073
▁shoulder	-10.7073
SA	-10.7077
▁ST	-10.708
▁Top	-10.708
▁confusion	-10.708
gate	-10.7081
▁da	-10.7082
ath	-10.7083
▁sad	-10.7084
OR	-10.709
▁pollution	-10.709
▁simultaneously	-10.7092
▁visited	-10.7093
▁wet	-10.7097
▁Table	-10.7099
▁affairs	-10.71
din	-10.7103
▁expenses	-10.7103
▁fewer	-10.7108
▁pale	-10.7108
▁personally	-10.7109
▁Place	-10.7109
▁Online	-10.7111
▁literally	-10.7113
▁obviously	-10.712
▁guarantee	-10.712
▁moisture	-10.7121
▁Wi	-10.7123
Thank	-10.7129
ral	-10.7132
▁vulnerable	-10.7137
▁Still	-10.7143
av	-10.7145
▁god	-10.7154
▁silent	-10.7156
▁Apple	-10.7156
sch	-10.7159
▁applying	-10.7159
▁cry	-10.7159
▁Louis	-10.716
▁participation	-10.7161
▁min	-10.7165
!!	-10.7166
▁difficulties	-10.7166
▁inform	-10.7168
▁reaching	-10.717
▁lo	-10.7172
▁Him	-10.7174
▁Click	-10.7177
sy	-10.718
▁enemies	-10.718
▁Saturday	-10.7181
▁killing	-10.7183
ini	-10.719
▁execution	-10.7191
▁composed	-10.7195
ough	-10.7196
lor	-10.7197
▁committee	-10.7198
▁HIV	-10.7206
!)	-10.7207
▁sake	-10.7207
▁Civil	-10.7207
late	-10.7207
▁Jan	-10.7208
meter	-10.7208
ld	-10.7209
▁Dan	-10.7209
▁bath	-10.7211
▁gravity	-10.7212
▁Nor	-10.7216
ok	-10.7217
▁marine	-10.7218
▁lift	-10.7219
▁ethical	-10.7219
▁initially	-10.7222
▁shopping	-10.7223
ult	-10.7223
rich	-10.7224
▁effectiveness	-10.7224
▁Community	-10.7225
▁mill	-10.7226
▁hang	-10.7229
▁powder	-10.723
▁striking	-10.7232
▁quantity	-10.7232
▁Similarly	-10.7236
***	-10.724
▁Frank	-10.7242
▁giant	-10.7242
▁memories	-10.7243
▁attempts	-10.7243
etic	-10.7243
▁instant	-10.7247
▁chat	-10.7249
▁incident	-10.725
▁shouldn	-10.7258
▁regarded	-10.7265
▁enhanced	-10.7267
▁drain	-10.727
▁admit	-10.7272
▁posts	-10.7273
▁tears	-10.7278
▁Johnson	-10.7278
▁Ri	-10.728
^	-10.728
▁staying	-10.728
watch	-10.7281
▁impression	-10.7284
▁performing	-10.7289
▁provider	-10.7293
▁stones	-10.7293
▁Ti	-10.7293
▁theme	-10.7295
▁mechanical	-10.7296
▁Si	-10.7303
ken	-10.7309
▁fingers	-10.731
▁thorough	-10.7313
▁Republic	-10.7314
▁pe	-10.7315
▁clothing	-10.7318
ette	-10.7319
▁pitch	-10.7324
▁conversion	-10.7325
star	-10.7327
▁launched	-10.7327
▁instances	-10.7329
mic	-10.7333
▁flexible	-10.7336
▁supports	-10.7336
▁entering	-10.7337
Please	-10.7345
▁maintained	-10.7345
▁Spirit	-10.7349
▁distant	-10.735
▁branches	-10.7352
▁addressed	-10.7352
▁styles	-10.7356
▁aircraft	-10.7358
though	-10.7358
▁Bur	-10.7364
His	-10.7366
▁observations	-10.7367
▁attract	-10.7371
▁instruments	-10.7372
clock	-10.7372
▁earn	-10.7375
▁psychological	-10.7379
▁signed	-10.7382
▁directed	-10.7384
▁senior	-10.7384
▁harmful	-10.7384
▁Ac	-10.7385
▁specialized	-10.7389
▁sorry	-10.739
▁convert	-10.7392
win	-10.7398
▁gather	-10.7398
▁threats	-10.7401
▁evaluate	-10.7403
▁solely	-10.7407
▁juice	-10.7409
▁concentration	-10.7412
▁lying	-10.7414
▁searching	-10.7416
ces	-10.7418
▁beliefs	-10.7418
▁twelve	-10.742
▁chose	-10.7424
▁Fe	-10.7425
ug	-10.7426
verse	-10.7428
hood	-10.743
▁incorporate	-10.7433
▁neutral	-10.7433
bu	-10.7435
▁territory	-10.7437
OS	-10.744
▁consent	-10.7441
lum	-10.7446
▁governments	-10.745
▁perceived	-10.7451
▁precise	-10.7453
▁returns	-10.746
▁Northern	-10.7462
ST	-10.7462
According	-10.7462
▁identifying	-10.7463
▁Little	-10.7468
ama	-10.7474
gov	-10.7476
▁elsewhere	-10.7483
cast	-10.7485
▁demonstrated	-10.7486
era	-10.7491
▁granted	-10.7492
▁sizes	-10.7495
▁captain	-10.75
▁semi	-10.7505
▁trail	-10.7505
▁opinions	-10.7505
▁realm	-10.7508
")	-10.7513
▁talent	-10.7514
sis	-10.7515
▁Studies	-10.7517
▁grant	-10.752
test	-10.7527
▁pump	-10.7528
▁representation	-10.7531
▁illegal	-10.7534
▁Would	-10.7537
▁amongst	-10.7537
▁settled	-10.7538
▁fifty	-10.7539
▁Should	-10.7544
▁implies	-10.7545
▁Anti	-10.7549
arch	-10.7552
▁mild	-10.7553
▁thrown	-10.7553
John	-10.7555
▁transmission	-10.7556
born	-10.7556
▁fl	-10.7562
▁cr	-10.7562
▁Minister	-10.7566
▁vi	-10.757
▁medications	-10.757
First	-10.7575
▁executive	-10.7577
▁Common	-10.7577
IP	-10.7581
▁intense	-10.7582
▁scheme	-10.7588
▁preferred	-10.7589
▁visiting	-10.7593
▁column	-10.7595
▁adequate	-10.7596
bl	-10.7597
dia	-10.7599
▁wondering	-10.7601
▁absolute	-10.7601
▁rank	-10.7601
▁outcome	-10.7609
ay	-10.761
▁stakeholders	-10.761
ied	-10.761
▁fees	-10.7612
tr	-10.7612
ates	-10.7615
▁computers	-10.7617
duc	-10.7617
▁Wall	-10.7618
▁statistics	-10.762
▁Understanding	-10.7622
▁Consider	-10.7623
▁pleased	-10.7625
▁minds	-10.7625
▁Library	-10.7633
▁neuro	-10.7634
▁Call	-10.7635
▁Without	-10.7637
▁beach	-10.7637
▁Find	-10.7638
▁burn	-10.7642
▁predict	-10.7643
▁charged	-10.7644
bel	-10.7647
▁Cross	-10.7653
▁SE	-10.7659
▁equipped	-10.7661
▁acting	-10.7664
▁seriously	-10.7668
▁rocks	-10.7669
▁pa	-10.7674
ks	-10.768
▁Study	-10.7682
▁indicated	-10.7683
▁Change	-10.7683
tel	-10.7686
away	-10.7686
].	-10.7688
oid	-10.769
▁objectives	-10.7694
nch	-10.7697
ify	-10.7701
▁nervous	-10.7705
▁cultures	-10.7705
hard	-10.7707
▁[_	-10.7708
kind	-10.7712
▁sword	-10.7713
▁fleet	-10.7714
▁crops	-10.7714
ero	-10.7717
pm	-10.7721
also	-10.7721
▁scope	-10.7722
▁delay	-10.7724
▁diameter	-10.7726
▁experiments	-10.7726
▁Mu	-10.7732
▁captured	-10.7732
▁warning	-10.7733
▁arrive	-10.7735
▁nutrients	-10.7735
▁AC	-10.7736
▁gathered	-10.7739
ole	-10.774
▁Add	-10.7743
high	-10.7752
▁trick	-10.7753
[![	-10.7755
uch	-10.7761
▁fault	-10.7761
▁Pat	-10.7762
▁attitude	-10.7763
▁investing	-10.7765
aging	-10.7776
Ca	-10.7776
▁hide	-10.7777
▁outer	-10.7779
▁Moon	-10.7779
▁fa	-10.7783
▁kingdom	-10.7784
▁dating	-10.7789
▁minimal	-10.779
▁produces	-10.7791
▁agricultural	-10.7791
▁ranging	-10.7791
▁chest	-10.7794
▁roughly	-10.7794
▁vaccine	-10.7796
▁establishment	-10.7797
Ah	-10.7798
▁doctors	-10.7801
CC	-10.7802
▁convey	-10.7805
▁thoroughly	-10.7807
▁royal	-10.7807
▁Code	-10.7809
▁Cla	-10.781
log	-10.7813
▁smoking	-10.7815
▁heating	-10.7817
▁utilize	-10.7817
▁Saint	-10.7817
mb	-10.782
▁tap	-10.782
▁density	-10.7821
gg	-10.7821
sky	-10.7822
▁poly	-10.7823
▁duration	-10.7824
▁mi	-10.7825
▁targets	-10.7827
list	-10.7828
▁focuses	-10.783
▁bold	-10.7832
▁leaf	-10.7834
▁encouraging	-10.7835
fish	-10.7836
▁golden	-10.7838
▁tri	-10.7842
▁proteins	-10.7842
/)	-10.7845
▁appointed	-10.7845
▁album	-10.7845
▁revolution	-10.7846
_**	-10.7847
▁Scotland	-10.7848
ett	-10.785
▁Age	-10.785
▁signals	-10.7851
▁liver	-10.7851
▁accompanied	-10.7852
▁Try	-10.7855
▁advertising	-10.7856
▁stomach	-10.7856
▁consistently	-10.786
▁confused	-10.7861
▁hero	-10.7863
foot	-10.7871
friendly	-10.7874
▁fossil	-10.7875
ute	-10.7878
▁sections	-10.7879
▁Language	-10.7881
ulation	-10.7883
▁Natural	-10.7883
▁genuine	-10.7888
▁episode	-10.7888
▁fallen	-10.7888
▁inch	-10.7889
▁assumed	-10.789
▁ne	-10.7891
▁Ten	-10.7895
▁menu	-10.7896
▁proven	-10.7901
▁Young	-10.7903
roll	-10.7906
▁accordingly	-10.7908
▁interface	-10.7909
▁newly	-10.7909
▁tube	-10.7909
▁intention	-10.791
▁witness	-10.7912
▁sing	-10.7914
key	-10.7915
▁exceptional	-10.7916
▁meetings	-10.7916
IL	-10.7918
own	-10.792
game	-10.7924
▁Set	-10.7926
▁laugh	-10.7929
ising	-10.793
▁integrated	-10.7932
▁inflammation	-10.7938
▁Mor	-10.7939
▁colleagues	-10.7941
▁victim	-10.7945
▁shoes	-10.7946
▁sacred	-10.7946
▁Son	-10.7947
▁Bre	-10.7948
▁log	-10.795
people	-10.7951
▁~	-10.7953
▁shower	-10.7953
eng	-10.7953
▁Com	-10.7955
▁preventing	-10.7955
▁registered	-10.7955
without	-10.7956
▁raising	-10.7958
▁Fair	-10.7959
▁texture	-10.796
▁affecting	-10.7962
▁reporting	-10.7963
▁notable	-10.7968
TS	-10.7969
▁terrible	-10.7975
▁Dutch	-10.7975
▁picked	-10.7976
▁Christians	-10.7976
▁discussions	-10.7976
▁actively	-10.7978
▁candidates	-10.7978
▁reveal	-10.7978
▁purchased	-10.7983
▁rid	-10.7984
"?	-10.7984
▁Val	-10.7986
still	-10.7987
▁Academy	-10.7988
▁references	-10.7999
mus	-10.8005
▁destruction	-10.8006
cons	-10.8008
▁▁▁▁▁▁▁▁▁▁▁▁	-10.8009
▁publication	-10.8011
▁mono	-10.8016
AP	-10.8018
▁analyze	-10.8026
▁logic	-10.8026
▁personality	-10.8027
▁st	-10.803
▁hate	-10.8033
▁spells	-10.8033
▁lord	-10.8036
▁intake	-10.8038
mark	-10.8039
▁Early	-10.8041
▁subtle	-10.8049
vers	-10.805
▁clock	-10.8052
▁curriculum	-10.8055
▁discipline	-10.8056
▁armed	-10.8057
ening	-10.8059
ux	-10.8063
▁lunch	-10.8066
ition	-10.8066
▁realized	-10.8068
▁functionality	-10.8069
▁prime	-10.8076
▁ta	-10.8077
gle	-10.8082
▁flag	-10.8083
og	-10.8084
▁prevention	-10.8086
style	-10.8086
ese	-10.8087
pur	-10.8087
▁temporary	-10.8088
▁resilience	-10.8088
ei	-10.8089
▁bathroom	-10.8089
▁Sh	-10.8091
▁acquired	-10.8091
▁literary	-10.8092
ros	-10.8094
▁Boston	-10.8098
▁amidst	-10.81
real	-10.8102
▁extraordinary	-10.8102
▁prominent	-10.8109
▁everywhere	-10.811
▁entertainment	-10.8111
ala	-10.8112
▁referring	-10.8112
dent	-10.8112
del	-10.8115
▁forming	-10.8117
▁adopt	-10.8118
▁Fort	-10.8119
pan	-10.812
ü	-10.8122
▁phenomenon	-10.8122
▁burst	-10.8122
▁Cons	-10.8124
▁achieving	-10.8125
zi	-10.8126
▁Sal	-10.8133
edge	-10.8137
▁reduces	-10.8137
▁gentleman	-10.8138
▁Port	-10.8139
▁keeps	-10.8141
Where	-10.8146
illa	-10.8148
▁shell	-10.8154
▁opposition	-10.8155
rick	-10.8157
▁succeed	-10.8157
▁Ru	-10.8158
date	-10.8158
MA	-10.8163
EN	-10.8167
▁proportion	-10.8171
oma	-10.8175
▁Last	-10.8176
▁insight	-10.8178
used	-10.818
▁tender	-10.818
▁differ	-10.818
▁tired	-10.8182
▁strain	-10.8182
ano	-10.8188
▁unexpected	-10.8189
▁unlikely	-10.8189
▁eliminate	-10.8194
▁adjust	-10.8195
▁Word	-10.8195
▁shock	-10.8195
▁council	-10.8201
▁uniform	-10.8202
▁ceiling	-10.8202
▁lovely	-10.8209
▁dates	-10.821
▁legislation	-10.8212
▁compound	-10.8215
▁Gra	-10.8215
▁celebrate	-10.8217
▁adapt	-10.8217
▁fate	-10.8222
▁availability	-10.8223
▁dish	-10.8234
▁fiction	-10.824
▁loans	-10.8243
▁protecting	-10.8247
▁Rock	-10.8248
▁retain	-10.8249
▁Hand	-10.8252
while	-10.8256
▁fascinating	-10.8257
▁attractive	-10.8258
▁Rights	-10.8259
EL	-10.8263
▁damaged	-10.8265
cle	-10.8268
ii	-10.8268
▁preparing	-10.8268
▁meals	-10.827
Dr	-10.8274
master	-10.8275
▁Tu	-10.8276
▁limitations	-10.8276
▁orange	-10.8278
▁ending	-10.8282
▁Family	-10.8284
▁Mass	-10.8285
▁improvements	-10.8285
human	-10.8288
ria	-10.829
▁cloth	-10.8291
▁fee	-10.8294
Ba	-10.83
▁delicious	-10.8303
▁independence	-10.8314
▁syndrome	-10.8314
▁productivity	-10.8315
▁Garden	-10.8315
▁estimate	-10.8318
▁brands	-10.8319
amp	-10.832
▁duties	-10.8326
▁MS	-10.8327
▁Building	-10.8327
▁confirmed	-10.834
▁traditions	-10.834
▁Head	-10.834
▁chord	-10.8341
▁bonus	-10.8344
▁Point	-10.8345
school	-10.8347
▁nest	-10.8347
▁arise	-10.8347
▁CHAPTER	-10.8348
▁evident	-10.8349
Ho	-10.8349
▁nutrition	-10.8351
▁refused	-10.8351
▁End	-10.8354
▁Wa	-10.8354
▁whilst	-10.836
iff	-10.8363
Hi	-10.8366
▁convenient	-10.837
▁blend	-10.8371
▁shapes	-10.8372
pri	-10.8372
ram	-10.8373
▁Rev	-10.8376
▁settlement	-10.8378
▁contest	-10.8379
lip	-10.8388
▁Cu	-10.8391
▁Was	-10.8393
▁respectively	-10.8394
▁Kingdom	-10.8395
las	-10.8399
including	-10.8402
▁integrity	-10.8406
▁reward	-10.8408
▁medication	-10.8413
▁mirror	-10.8414
▁temple	-10.8414
▁claimed	-10.8417
tur	-10.8424
▁poem	-10.8425
▁darkness	-10.8427
▁mutual	-10.8428
▁Soviet	-10.8429
did	-10.843
▁somehow	-10.8431
▁distributed	-10.8434
say	-10.8436
ore	-10.844
Since	-10.8442
▁guns	-10.845
▁exam	-10.8451
▁surely	-10.8452
RI	-10.8453
tan	-10.8455
▁Dictionary	-10.846
▁cats	-10.8466
▁Ge	-10.8466
▁historic	-10.8473
▁insects	-10.8474
▁agriculture	-10.8475
▁fever	-10.8476
ash	-10.8479
▁safely	-10.8484
case	-10.8486
zo	-10.8487
▁meta	-10.8488
bin	-10.849
ea	-10.8491
▁Jim	-10.8494
▁forgotten	-10.8494
▁gr	-10.8495
▁occupied	-10.8496
LA	-10.8496
▁charges	-10.8498
▁examining	-10.8498
▁flesh	-10.8499
▁Music	-10.85
▁contrary	-10.85
▁worn	-10.8502
great	-10.8502
▁Learn	-10.8504
▁Sha	-10.8505
▁Being	-10.8506
▁pocket	-10.8506
▁feeding	-10.8508
▁dependent	-10.851
▁television	-10.851
cept	-10.8512
bury	-10.8514
▁Oxford	-10.8517
▁summary	-10.8522
▁Lastly	-10.8523
▁victims	-10.8525
▁armor	-10.8526
▁shore	-10.8526
▁complexity	-10.8532
í	-10.8544
▁Disease	-10.8545
▁meters	-10.8546
▁behaviors	-10.8556
▁Show	-10.8556
▁Hol	-10.856
▁acceptable	-10.8563
▁breathing	-10.8565
▁consequence	-10.857
▁worthy	-10.8571
▁flour	-10.8571
▁transactions	-10.858
▁employ	-10.8587
edu	-10.8591
▁unto	-10.8592
▁filter	-10.8593
▁laser	-10.8595
▁Mill	-10.8598
SC	-10.8605
▁lock	-10.8606
these	-10.8607
▁efficiently	-10.8609
▁Lee	-10.8611
▁artistic	-10.8613
ering	-10.8614
▁appreciation	-10.8615
▁shaping	-10.8615
▁applies	-10.8616
five	-10.862
▁Major	-10.862
▁DM	-10.8622
▁trace	-10.8625
dle	-10.8627
▁observation	-10.8628
▁DC	-10.8629
af	-10.863
▁painful	-10.8631
view	-10.8632
▁loud	-10.8632
▁requirement	-10.8634
▁eastern	-10.8637
▁voltage	-10.8639
▁owned	-10.8642
▁pit	-10.8642
▁drivers	-10.8645
▁stroke	-10.8645
▁mail	-10.8646
▁lasting	-10.865
▁apparent	-10.865
▁submit	-10.8651
unt	-10.8651
%)	-10.8662
▁sauce	-10.8663
▁angry	-10.8663
▁magnetic	-10.8665
▁readily	-10.8666
▁guy	-10.8672
▁default	-10.8674
▁lands	-10.8675
▁courage	-10.8676
▁Has	-10.8678
▁ticket	-10.8686
▁restaurant	-10.8687
make	-10.8687
qua	-10.8689
▁maps	-10.8689
ched	-10.8696
▁Times	-10.8697
▁Microsoft	-10.8698
▁altogether	-10.8699
uri	-10.87
Li	-10.8701
▁contributions	-10.8702
▁compliance	-10.8703
▁constructed	-10.8704
▁Elizabeth	-10.8704
▁bond	-10.8706
aff	-10.8707
▁determining	-10.871
▁pregnancy	-10.871
▁alternatives	-10.8715
▁profession	-10.8716
▁watched	-10.8716
▁inherent	-10.8721
▁deaths	-10.8726
▁guest	-10.8727
eau	-10.8732
▁buried	-10.8735
▁yesterday	-10.8736
▁www	-10.8737
▁Eastern	-10.8739
▁specified	-10.8742
Man	-10.8744
▁strict	-10.8745
▁guitar	-10.8747
▁Party	-10.8749
▁missed	-10.8749
gon	-10.875
struct	-10.875
▁sink	-10.8752
hill	-10.8752
▁Back	-10.8756
▁poetry	-10.8759
acy	-10.8764
▁Va	-10.8765
▁Ocean	-10.877
▁finance	-10.8772
Good	-10.8772
▁shoot	-10.8774
▁losses	-10.8774
▁differently	-10.8774
▁hyper	-10.8776
mat	-10.8779
▁fifth	-10.8779
▁encourages	-10.8784
SP	-10.8786
ground	-10.8787
ā	-10.8788
▁shade	-10.8791
ural	-10.8798
▁Consequently	-10.8803
qu	-10.8803
▁chart	-10.8806
Footnote	-10.8806
▁coach	-10.8807
Com	-10.8807
▁promised	-10.8808
hal	-10.8812
▁occasionally	-10.8814
▁slave	-10.8815
▁removing	-10.8818
▁returning	-10.8822
▁DE	-10.8823
▁NASA	-10.8826
▁li	-10.8826
eh	-10.8827
show	-10.883
▁embracing	-10.883
▁beside	-10.883
▁lens	-10.8831
▁civilization	-10.8831
▁rail	-10.8832
ching	-10.8833
Many	-10.8835
▁renewable	-10.884
▁Trump	-10.8843
▁notion	-10.8847
▁Forest	-10.8847
ich	-10.8849
▁span	-10.8853
~	-10.8857
▁extension	-10.8858
▁Fund	-10.8859
▁savings	-10.8859
int	-10.8862
inter	-10.8863
▁suggestion	-10.8864
▁printing	-10.8864
▁investors	-10.8865
▁chocolate	-10.8866
phy	-10.8869
▁shelter	-10.887
▁talked	-10.8872
▁Christianity	-10.8873
path	-10.8874
▁suggestions	-10.8875
▁magical	-10.8875
▁regulatory	-10.8875
â	-10.8878
▁spots	-10.888
ada	-10.8883
mis	-10.8883
▁acknowledge	-10.8885
▁belong	-10.8889
▁approval	-10.889
▁institution	-10.8894
Po	-10.8897
▁IP	-10.8897
▁Inter	-10.8898
▁shadow	-10.89
▁experiencing	-10.8902
▁plural	-10.8905
▁Hospital	-10.8911
▁corresponding	-10.8911
▁venture	-10.8911
▁cord	-10.8913
▁anger	-10.8913
▁dying	-10.8915
▁oven	-10.8918
▁draft	-10.8922
▁tons	-10.8923
▁connecting	-10.8924
▁themes	-10.8925
Most	-10.8927
▁Centre	-10.893
sey	-10.893
▁consciousness	-10.8931
Un	-10.8932
IA	-10.8935
▁surrounded	-10.8936
▁mile	-10.8937
▁dining	-10.8938
▁widespread	-10.8939
▁stuck	-10.8939
▁excessive	-10.894
▁grain	-10.8941
▁adjective	-10.8943
▁taxes	-10.8944
▁union	-10.8944
▁varying	-10.8946
▁Page	-10.8946
▁AD	-10.8951
▁deals	-10.8956
▁intelligent	-10.8957
▁Zealand	-10.8963
▁OR	-10.8965
▁movies	-10.8966
▁directions	-10.8967
▁spite	-10.8967
▁attended	-10.8968
▁campaigns	-10.8969
▁rent	-10.897
▁pilot	-10.8973
▁Small	-10.8975
▁utility	-10.8975
▁flu	-10.8977
▁surfaces	-10.8978
▁variations	-10.8979
▁poet	-10.8985
▁cm	-10.8987
▁valley	-10.8989
pl	-10.8991
die	-10.8997
▁passes	-10.8998
▁tower	-10.8998
▁doctrine	-10.9003
▁respective	-10.9004
▁tag	-10.9005
eb	-10.9005
var	-10.9016
▁fe	-10.9018
▁learners	-10.9018
▁van	-10.9022
▁District	-10.9024
▁Carolina	-10.9024
▁Constitution	-10.9025
TC	-10.9027
▁habitat	-10.9027
Even	-10.9027
▁gods	-10.9031
▁dynamics	-10.9032
▁fantastic	-10.9036
▁wildlife	-10.9037
▁resort	-10.9037
tive	-10.9041
▁reflection	-10.9042
▁fiber	-10.9044
▁minister	-10.9044
▁nerve	-10.9045
▁separated	-10.9045
hour	-10.9053
▁Order	-10.9057
▁Chapter	-10.9059
▁fought	-10.9061
▁affordable	-10.9064
▁Los	-10.9068
ction	-10.9074
▁tied	-10.9077
ivity	-10.908
▁besides	-10.9081
▁roads	-10.9083
ju	-10.9086
▁Stone	-10.9087
▁Firstly	-10.9088
lot	-10.9088
▁waters	-10.9088
▁absorb	-10.9089
▁monthly	-10.909
▁winning	-10.9092
▁pursue	-10.9093
▁cotton	-10.9098
▁organ	-10.91
osis	-10.9102
▁tables	-10.9103
▁reverse	-10.9109
▁earliest	-10.911
cell	-10.9112
▁imagination	-10.9114
think	-10.9114
▁alert	-10.9115
OL	-10.9116
wan	-10.9118
▁Dar	-10.9119
AC	-10.9121
▁displayed	-10.9121
▁popularity	-10.9122
▁Environmental	-10.9126
ular	-10.9131
▁currency	-10.9135
▁Ohio	-10.9136
tar	-10.9144
PH	-10.9145
▁Figure	-10.9148
▁spray	-10.9149
▁reactions	-10.9149
load	-10.9151
looking	-10.9153
▁wooden	-10.9153
▁resist	-10.9153
▁browser	-10.9154
logy	-10.9157
▁Wikipedia	-10.9158
▁convenience	-10.916
▁marry	-10.9161
▁Asian	-10.9163
▁scores	-10.9164
▁Mars	-10.9168
stan	-10.9171
▁glory	-10.9172
▁Field	-10.9173
▁admitted	-10.9173
▁Scott	-10.9179
▁Doctor	-10.9179
▁barriers	-10.918
pdf	-10.918
▁passive	-10.9181
Ha	-10.9183
▁structural	-10.9185
▁slip	-10.9185
▁boxes	-10.9187
Br	-10.9187
yer	-10.9188
▁enormous	-10.9194
▁bull	-10.9196
▁holy	-10.9197
▁resulted	-10.9199
because	-10.9204
ku	-10.9204
▁hunting	-10.9207
▁landing	-10.9207
▁Bal	-10.9208
come	-10.9208
▁candidate	-10.9209
IC	-10.9209
bul	-10.9211
▁filling	-10.9212
start	-10.9213
▁pulled	-10.9215
▁chamber	-10.9218
▁Tuesday	-10.9218
▁Special	-10.9219
ancy	-10.922
▁Meanwhile	-10.9221
▁provision	-10.9222
▁scenes	-10.9222
▁Mer	-10.9223
▁ban	-10.9223
▁toxic	-10.9223
▁exclaimed	-10.9226
▁satisfied	-10.9226
burn	-10.9226
▁forever	-10.9228
nal	-10.923
oon	-10.923
▁physically	-10.9231
▁assigned	-10.9231
ena	-10.9231
▁selecting	-10.9233
▁wake	-10.9233
▁residence	-10.9235
tech	-10.9236
ement	-10.9239
white	-10.924
▁variable	-10.9241
▁label	-10.9244
ire	-10.9246
..."	-10.9248
Ex	-10.925
graph	-10.9251
▁Mel	-10.9252
▁Modern	-10.9259
Fi	-10.926
▁Market	-10.9261
▁interactive	-10.9262
▁highlight	-10.9262
▁addresses	-10.9264
▁ultimate	-10.9266
yard	-10.9268
{	-10.9268
mir	-10.9271
▁applicable	-10.9272
LE	-10.9272
▁Duke	-10.9274
▁hanging	-10.9275
▁unlike	-10.9278
▁shares	-10.9279
fo	-10.928
▁versus	-10.9285
▁inspire	-10.9286
▁precious	-10.9286
▁Support	-10.9288
sub	-10.9288
▁delight	-10.929
RA	-10.9294
▁Far	-10.9297
▁piano	-10.9298
▁jewelry	-10.9298
step	-10.9299
▁mold	-10.9301
▁hopes	-10.9304
mate	-10.9305
tus	-10.9306
tell	-10.9306
last	-10.9307
▁Again	-10.9308
morrow	-10.9309
▁delivering	-10.931
▁implemented	-10.9313
▁traveling	-10.9319
Ad	-10.932
▁crystal	-10.9321
▁treating	-10.9325
▁audiences	-10.9331
▁yards	-10.9332
▁targeted	-10.9336
▁react	-10.9341
▁grid	-10.9345
▁peculiar	-10.9346
▁Joe	-10.935
▁Sc	-10.9352
▁resolve	-10.9357
▁curiosity	-10.9359
▁Thursday	-10.936
▁infected	-10.936
▁Organization	-10.9361
cra	-10.9365
vel	-10.9366
cat	-10.9367
▁commission	-10.9368
worth	-10.937
ters	-10.9371
▁personnel	-10.9375
Lo	-10.9377
▁painted	-10.9378
▁communications	-10.9378
▁arranged	-10.9381
▁invention	-10.9384
▁guys	-10.9386
Car	-10.9386
▁profound	-10.9387
ora	-10.9394
##	-10.94
▁payments	-10.9402
▁Section	-10.9402
▁sending	-10.9407
▁brave	-10.9407
▁Plus	-10.9408
▁Fra	-10.9408
▁demonstrates	-10.941
Mar	-10.9412
▁cattle	-10.9412
TE	-10.9413
▁embrace	-10.942
▁sail	-10.9421
▁hip	-10.9423
▁intent	-10.9426
▁defeat	-10.9431
▁detection	-10.944
▁vice	-10.9441
▁Er	-10.9443
space	-10.9445
hip	-10.9447
▁seemingly	-10.945
▁exclusive	-10.9453
▁y	-10.9457
▁peer	-10.9463
е	-10.9463
too	-10.9465
▁PA	-10.9465
▁engines	-10.9467
▁brilliant	-10.9468
▁acids	-10.947
RO	-10.9473
til	-10.9473
▁fund	-10.9478
▁programme	-10.948
AT	-10.9481
▁regulation	-10.9484
▁transform	-10.9487
str	-10.9495
ME	-10.9496
▁excitement	-10.9498
▁trials	-10.95
hy	-10.9501
▁reign	-10.9502
▁establishing	-10.9504
▁injured	-10.9504
▁wider	-10.9505
▁Mount	-10.9506
▁companion	-10.9508
▁disc	-10.951
▁exhibit	-10.9511
▁perception	-10.9511
active	-10.9516
▁forests	-10.9521
▁dictionary	-10.9521
▁varieties	-10.9527
▁sa	-10.953
▁accurately	-10.953
Although	-10.9531
present	-10.9532
every	-10.9537
▁necessity	-10.9542
▁Native	-10.9542
vent	-10.9543
▁towns	-10.9548
▁incredible	-10.9553
▁cave	-10.9553
SU	-10.9553
**.	-10.9553
▁Media	-10.9554
rant	-10.9558
ef	-10.9558
▁Besides	-10.9564
▁qualified	-10.9564
▁fool	-10.9567
▁sacrifice	-10.9567
▁shipping	-10.9567
▁App	-10.9571
▁Atlantic	-10.9574
mas	-10.9574
TI	-10.9578
▁wound	-10.9578
▁prince	-10.9584
▁permit	-10.9589
Cl	-10.9591
▁punishment	-10.9595
▁dishes	-10.9598
▁partnership	-10.96
▁wash	-10.9602
▁Mal	-10.9603
▁Low	-10.9603
▁dimensions	-10.9606
ites	-10.9607
▁compounds	-10.9614
▁Heart	-10.9615
bs	-10.9617
▁evolved	-10.9618
▁nobody	-10.9619
▁Start	-10.962
elle	-10.9624
▁appointment	-10.9625
▁islands	-10.963
▁lowest	-10.963
▁setup	-10.963
▁cooling	-10.9631
▁Mi	-10.9631
▁substances	-10.9632
▁rigorous	-10.9632
▁mini	-10.9634
▁hearts	-10.9637
▁occupation	-10.9639
ack	-10.964
▁moderate	-10.964
▁Test	-10.9641
thought	-10.9642
▁managers	-10.9648
▁physics	-10.9652
try	-10.9652
▁ho	-10.9655
▁tape	-10.9655
▁mag	-10.9658
▁theories	-10.9659
▁violent	-10.9661
▁begun	-10.9665
lands	-10.9666
▁tracking	-10.9669
▁NOT	-10.9674
said	-10.9675
▁expense	-10.9679
▁heritage	-10.9683
▁steep	-10.9683
ography	-10.9683
▁museum	-10.9683
▁encouraged	-10.9684
▁belonging	-10.9685
▁discussing	-10.9685
▁Trans	-10.9686
▁kick	-10.9689
▁contribution	-10.9692
▁variation	-10.9692
▁warming	-10.9697
▁operational	-10.9699
▁lists	-10.9701
▁mu	-10.9706
▁bonds	-10.9709
▁manufacturer	-10.9709
▁describing	-10.971
▁grey	-10.971
▁fancy	-10.971
ati	-10.9711
▁shooting	-10.9711
▁spin	-10.9715
▁citizen	-10.9716
▁Bob	-10.9718
▁neighborhood	-10.9719
▁voices	-10.9719
▁Come	-10.9721
▁hydrogen	-10.9723
▁recover	-10.9723
aka	-10.9725
rid	-10.9729
▁elected	-10.9729
▁celebrated	-10.9729
▁sustainability	-10.9736
pic	-10.9736
▁matches	-10.9739
▁Ku	-10.9742
BS	-10.9743
▁balanced	-10.9746
▁existed	-10.9747
▁luxury	-10.9748
▁consume	-10.9749
zy	-10.9751
tim	-10.9752
▁Cap	-10.9756
link	-10.9759
▁strengthen	-10.9771
bble	-10.9771
▁favour	-10.9772
▁dramatic	-10.9775
▁belt	-10.9782
▁studio	-10.9782
▁emerge	-10.9783
pot	-10.9786
▁succeeded	-10.9786
▁assembly	-10.9787
▁empire	-10.9788
▁restore	-10.979
ava	-10.9791
▁restrictions	-10.9793
▁Ed	-10.9794
door	-10.9795
▁wounded	-10.9796
▁slaves	-10.9798
▁casino	-10.9801
▁cure	-10.9802
each	-10.9803
ged	-10.9804
▁Way	-10.9805
▁friendship	-10.9806
rus	-10.9814
▁strive	-10.9816
▁Cook	-10.9817
▁aged	-10.9818
▁Pen	-10.9825
▁expanded	-10.9826
▁Model	-10.9827
▁continuing	-10.9828
▁vertical	-10.9829
gh	-10.9829
▁Egyptian	-10.9836
▁Play	-10.9839
▁characteristic	-10.9842
shed	-10.9845
▁MA	-10.9846
▁bid	-10.9848
▁sleeping	-10.985
▁inhabitants	-10.9851
▁initiative	-10.9854
▁acquisition	-10.9855
▁Hence	-10.9861
▁concluded	-10.9865
▁thrive	-10.9868
▁keen	-10.9868
▁hire	-10.987
▁adoption	-10.9871
site	-10.9875
shire	-10.9875
Bo	-10.9875
cc	-10.9877
▁complement	-10.9882
▁ownership	-10.9883
ski	-10.9884
lly	-10.9888
▁Daniel	-10.989
α	-10.9894
▁unnecessary	-10.9896
AN	-10.9897
▁apartment	-10.9898
▁loop	-10.9901
▁Conclusion	-10.9905
▁characterized	-10.9906
▁calendar	-10.9908
▁intricate	-10.9908
ox	-10.991
▁forty	-10.9912
round	-10.9912
lit	-10.9912
▁ladies	-10.9913
▁Bra	-10.9913
Her	-10.9916
▁identification	-10.9921
▁cousin	-10.9922
▁aggressive	-10.9924
nie	-10.9925
▁Help	-10.9925
▁airport	-10.9926
▁fortune	-10.9926
▁flood	-10.9929
▁alien	-10.9932
▁enforcement	-10.9936
▁threw	-10.9936
▁wings	-10.9939
hold	-10.9941
▁stations	-10.9942
▁Death	-10.9943
ight	-10.9944
▁celebration	-10.9948
▁harsh	-10.9948
AM	-10.9951
▁conscious	-10.9952
▁fr	-10.9953
▁Had	-10.9954
bri	-10.9955
cor	-10.9955
▁servant	-10.9955
▁BC	-10.9958
ua	-10.996
▁League	-10.9962
▁physician	-10.9963
▁precisely	-10.9964
▁determination	-10.9965
▁devoted	-10.9966
▁measurement	-10.9968
nu	-10.9975
▁accent	-10.9976
gram	-10.9979
eries	-10.9983
▁bare	-10.9984
must	-10.9986
much	-10.9987
▁mad	-10.9987
▁hills	-10.999
▁influenced	-10.9992
IV	-10.9993
▁Arts	-10.9995
cru	-10.9999
▁Wednesday	-11.0007
▁Case	-11.0007
▁arrangement	-11.0007
▁Card	-11.0014
change	-11.0016
▁Justice	-11.0017
▁representing	-11.0028
▁transparency	-11.0029
sel	-11.003
▁tactics	-11.0031
▁screw	-11.0033
▁kid	-11.0034
ENT	-11.0035
▁copyright	-11.0044
▁Jones	-11.0044
rated	-11.0045
▁explicitly	-11.005
▁skilled	-11.0051
text	-11.0053
▁fitness	-11.0054
▁liberal	-11.0055
▁Georgia	-11.0056
▁utilizing	-11.0056
▁contributes	-11.0057
craft	-11.0058
▁permitted	-11.0058
▁Chief	-11.0059
▁assistant	-11.0065
▁Nations	-11.0068
▁yard	-11.0078
▁stretch	-11.0082
ound	-11.0083
▁abstract	-11.0083
▁editor	-11.0085
▁crossed	-11.0086
▁carries	-11.0087
▁Pass	-11.0092
▁divide	-11.0093
▁Nevertheless	-11.0094
sure	-11.0094
▁decay	-11.0097
UN	-11.01
▁centers	-11.01
▁intend	-11.0101
itch	-11.0104
▁newspaper	-11.0106
ump	-11.0108
▁checked	-11.0108
▁apps	-11.0108
▁trigger	-11.011
▁praise	-11.0122
▁gray	-11.0126
▁modified	-11.0128
▁countless	-11.0128
▁wires	-11.013
▁alter	-11.0131
▁CD	-11.0133
▁anxious	-11.0133
▁acquire	-11.0135
▁emotion	-11.0137
▁immense	-11.014
▁tab	-11.0142
ON	-11.0142
▁expanding	-11.0147
▁ver	-11.0148
▁leather	-11.0152
▁priority	-11.0158
▁Given	-11.0159
▁List	-11.0166
▁Administration	-11.0166
▁hath	-11.0166
▁scenarios	-11.0166
▁Revolution	-11.0168
▁na	-11.017
▁Trust	-11.0175
▁evolving	-11.0175
▁purchasing	-11.018
God	-11.018
▁Battle	-11.0181
▁folks	-11.0181
▁dreams	-11.0181
▁construct	-11.0184
▁hydro	-11.0184
English	-11.0185
▁Governor	-11.0188
▁priest	-11.0188
▁recording	-11.019
xi	-11.0193
▁vain	-11.0196
▁pray	-11.0196
▁("	-11.0197
tric	-11.0204
▁lifetime	-11.0204
CE	-11.0205
▁Cambridge	-11.0207
▁remembered	-11.0212
▁password	-11.0215
▁Right	-11.0226
▁Ve	-11.0226
those	-11.023
▁phrases	-11.023
▁registration	-11.0235
▁throat	-11.0235
▁Child	-11.0236
▁award	-11.024
▁mat	-11.024
▁fatal	-11.024
▁wished	-11.0242
ess	-11.0244
Does	-11.0244
Title	-11.0246
▁fatigue	-11.0249
nor	-11.0254
mel	-11.0255
▁sons	-11.0255
rum	-11.0256
▁tale	-11.0257
▁dozen	-11.0262
▁concert	-11.0263
▁disk	-11.0264
eo	-11.0265
▁combine	-11.0267
▁sphere	-11.0268
▁bra	-11.0277
▁texts	-11.0279
wise	-11.0281
▁screening	-11.0287
▁container	-11.0287
▁laughed	-11.0288
▁contents	-11.029
More	-11.029
▁controls	-11.0297
▁paragraph	-11.0299
▁Vo	-11.0299
AR	-11.0299
▁Ju	-11.03
▁decreased	-11.0301
▁examined	-11.0303
▁scarcely	-11.0304
ale	-11.0305
▁batteries	-11.0305
▁Philip	-11.0305
fr	-11.0313
cu	-11.0314
met	-11.0317
▁tension	-11.0318
▁strip	-11.032
pet	-11.033
Did	-11.0331
ida	-11.0332
▁Conference	-11.0332
▁shaped	-11.0332
py	-11.0333
CH	-11.0335
ail	-11.0335
▁firms	-11.0336
▁everybody	-11.0338
▁COVID	-11.034
leg	-11.0341
▁invited	-11.0344
▁Non	-11.0346
ending	-11.0353
ye	-11.0354
▁investigate	-11.0357
▁pushed	-11.036
▁Within	-11.0361
▁Rose	-11.0361
▁soldier	-11.0361
▁patent	-11.0361
▁truck	-11.0364
help	-11.0369
▁Four	-11.0371
▁opt	-11.0374
▁suggesting	-11.0375
▁interpret	-11.0377
Once	-11.0385
▁abroad	-11.0385
az	-11.0385
▁faint	-11.0388
▁premium	-11.0388
▁stunning	-11.0388
▁conversations	-11.0388
spect	-11.0388
▁pr	-11.039
▁gathering	-11.0391
php	-11.0393
▁spelling	-11.0395
▁bags	-11.0395
▁cake	-11.0397
ado	-11.0398
cri	-11.0399
▁wheat	-11.0403
▁LED	-11.0404
▁forecast	-11.0405
▁contributed	-11.0407
four	-11.0407
▁singing	-11.0409
wall	-11.0411
▁writes	-11.0411
▁authentic	-11.0413
▁maximize	-11.0413
▁assured	-11.0417
▁Jane	-11.042
▁viewed	-11.042
▁settle	-11.0422
▁distinguished	-11.0422
OT	-11.0422
▁wing	-11.0422
▁satellite	-11.0425
search	-11.0426
inch	-11.0426
▁cabinet	-11.0428
between	-11.0429
▁swimming	-11.0431
sea	-11.0433
▁documentation	-11.0437
NG	-11.0437
▁enterprise	-11.0439
▁ignore	-11.0441
?'	-11.0444
▁Safety	-11.0445
▁edges	-11.0445
oh	-11.045
gri	-11.0451
▁adaptation	-11.0454
▁considerations	-11.0456
cro	-11.0459
something	-11.0463
▁dominant	-11.0466
num	-11.047
▁lad	-11.0471
▁compelling	-11.0473
▁liked	-11.0475
ami	-11.0475
▁engineers	-11.0491
TER	-11.0491
▁estimates	-11.0496
---------------	-11.05
▁Testament	-11.0501
▁criticism	-11.0502
▁hoping	-11.0503
▁accomplish	-11.0504
▁Parliament	-11.0508
cap	-11.0514
rian	-11.0517
▁Med	-11.0519
**:	-11.052
▁films	-11.0526
▁identical	-11.053
▁earned	-11.053
▁province	-11.053
▁mod	-11.0534
▁Plant	-11.0537
▁Fig	-11.0538
”)	-11.0543
responsibilities	-11.0544
▁partly	-11.0544
ded	-11.0547
▁fi	-11.0547
▁beer	-11.0548
▁confident	-11.0549
oke	-11.055
▁ra	-11.055
▁organs	-11.0551
▁pressing	-11.0554
ax	-11.0554
UT	-11.0555
pen	-11.0556
▁stack	-11.0557
▁likelihood	-11.0558
▁measuring	-11.0558
century	-11.056
OC	-11.0561
▁slavery	-11.0563
▁placing	-11.0565
▁Count	-11.0569
▁Hebrew	-11.0572
▁essence	-11.0573
▁closing	-11.0573
▁Division	-11.0573
▁thermal	-11.0573
▁shorter	-11.0575
▁ft	-11.0576
▁rental	-11.0581
▁struggling	-11.0587
example	-11.0591
▁Spring	-11.0594
▁pharmaceutical	-11.0595
content	-11.0599
▁varied	-11.0602
cer	-11.0602
▁mounted	-11.0603
▁gently	-11.0604
shi	-11.0605
▁Class	-11.0605
wer	-11.0606
▁emerged	-11.0606
▁lung	-11.0607
▁ID	-11.0609
many	-11.0613
dar	-11.0613
▁width	-11.0616
▁acute	-11.0618
▁cater	-11.062
▁realistic	-11.0621
▁representative	-11.0621
▁SA	-11.0625
▁measurements	-11.063
▁calculated	-11.0631
▁***	-11.0633
▁scholars	-11.0634
▁Korea	-11.0635
Per	-11.0637
▁oldest	-11.0637
▁Ram	-11.0639
PT	-11.064
▁churches	-11.0641
▁sheep	-11.0642
ston	-11.0643
▁refuse	-11.0643
three	-11.0643
▁trauma	-11.0644
▁spectrum	-11.0644
▁tune	-11.0646
▁panels	-11.0646
▁rivers	-11.0647
ister	-11.0652
▁Andrew	-11.0652
dale	-11.0654
▁render	-11.0659
▁entitled	-11.0659
▁sophisticated	-11.0659
▁Camp	-11.0659
▁consistency	-11.0659
▁valve	-11.0663
specific	-11.0665
▁Live	-11.0667
▁Name	-11.0669
▁participating	-11.0673
▁incorrect	-11.0677
▁Columbia	-11.0677
vir	-11.0679
Se	-11.068
▁beam	-11.0682
▁winds	-11.0686
Sa	-11.0687
▁clever	-11.0688
▁distinguish	-11.0688
▁Secretary	-11.0688
▁castle	-11.0689
▁pl	-11.0691
▁instantly	-11.0691
Dis	-11.0695
▁reminder	-11.0698
▁pin	-11.07
using	-11.07
▁promising	-11.0701
▁Watch	-11.0703
col	-11.0707
ille	-11.0708
▁hung	-11.0709
▁gut	-11.0712
avi	-11.0712
▁bars	-11.0713
heart	-11.0714
▁script	-11.0715
▁fur	-11.0716
▁Pennsylvania	-11.0717
ache	-11.0717
▁Francisco	-11.0718
▁seal	-11.072
open	-11.0721
going	-11.0722
char	-11.0725
▁knife	-11.0727
▁palace	-11.0731
▁Very	-11.0733
▁den	-11.0734
▁somebody	-11.0735
▁bore	-11.0736
▁brush	-11.0736
LY	-11.0736
grade	-11.0741
▁Hard	-11.0744
▁clarify	-11.0746
▁pink	-11.0747
ls	-11.0748
Fr	-11.0749
▁disaster	-11.075
ä	-11.075
▁trusted	-11.0752
▁Alexander	-11.0754
▁intensity	-11.0754
▁meets	-11.0755
▁der	-11.0756
▁molecules	-11.0758
▁casting	-11.076
▁workplace	-11.076
▁dose	-11.076
▁functioning	-11.0762
wards	-11.0762
▁plates	-11.0762
▁preserved	-11.0771
code	-11.0779
▁Emperor	-11.0779
▁###	-11.0784
ison	-11.0784
▁proceed	-11.0785
▁Game	-11.0787
mont	-11.0787
oe	-11.0789
▁societies	-11.079
▁Bridge	-11.0792
▁Ultimately	-11.0796
vy	-11.0796
▁"_	-11.0799
▁mm	-11.0799
▁toilet	-11.0802
▁Colorado	-11.0804
▁laboratory	-11.0805
▁favourite	-11.0806
▁queen	-11.0809
▁VI	-11.0813
▁rival	-11.0815
▁Reg	-11.0817
och	-11.0817
sized	-11.0819
▁tent	-11.0821
▁distress	-11.0824
▁MO	-11.0825
bound	-11.0827
▁prisoners	-11.0828
▁Twitter	-11.0828
cca	-11.0828
▁assuming	-11.083
----	-11.0831
▁pile	-11.0832
eu	-11.0833
▁faculty	-11.0834
▁Cancer	-11.0835
tone	-11.0835
▁silk	-11.0835
▁el	-11.0839
▁attempted	-11.0845
rel	-11.0847
▁consult	-11.0848
hor	-11.0849
▁Jackson	-11.0851
▁nurse	-11.0852
▁trap	-11.0854
▁avoiding	-11.0863
▁calcium	-11.0863
▁precision	-11.0864
▁defend	-11.0865
▁Temple	-11.0865
▁algorithms	-11.0866
fu	-11.0872
▁Jerusalem	-11.0876
▁analyzing	-11.0878
als	-11.0878
▁attending	-11.0879
▁sunlight	-11.0881
▁Town	-11.0884
▁mount	-11.0887
▁Wil	-11.0887
▁featuring	-11.0893
▁variables	-11.0894
▁passport	-11.0894
▁flash	-11.0894
▁illustrate	-11.0896
▁alarm	-11.0897
▁Bu	-11.0901
ered	-11.0902
▁Think	-11.0905
▁babies	-11.0907
mind	-11.0914
▁isolated	-11.0914
Ne	-11.0915
▁featured	-11.0919
▁inspection	-11.0925
never	-11.0927
▁tribes	-11.0928
gin	-11.093
▁Upon	-11.093
▁bent	-11.0934
▁manifest	-11.0934
mu	-11.0937
▁computing	-11.0937
▁exit	-11.0938
heat	-11.0941
▁climb	-11.0944
front	-11.0944
▁kit	-11.0947
▁pushing	-11.0948
▁Grant	-11.0951
▁globe	-11.0952
▁pricing	-11.0952
▁retail	-11.096
▁bitter	-11.0964
▁tutorial	-11.0967
lim	-11.0969
▁governor	-11.097
▁FOR	-11.0971
▁Standard	-11.0972
▁march	-11.0974
service	-11.0975
MO	-11.0978
▁dense	-11.0979
▁import	-11.098
▁loving	-11.0984
▁edited	-11.0985
▁transit	-11.0988
▁accomplished	-11.0988
▁Santa	-11.0989
SS	-11.0993
DA	-11.0994
Because	-11.0994
▁Area	-11.0995
PE	-11.0996
▁glue	-11.0997
▁preserving	-11.0997
▁reveals	-11.1
PP	-11.1
both	-11.1001
TO	-11.1002
▁segment	-11.1005
May	-11.1006
ili	-11.101
▁mystery	-11.101
▁universities	-11.1012
▁liberty	-11.1012
tte	-11.1012
▁patience	-11.1012
▁residential	-11.1012
science	-11.1018
▁mar	-11.1021
▁offerings	-11.1024
▁Tips	-11.1025
ave	-11.1025
▁radical	-11.1029
▁pronounced	-11.1029
▁greenhouse	-11.1032
▁Mid	-11.1032
eur	-11.1033
▁fed	-11.1033
General	-11.1033
▁sole	-11.1035
▁rolling	-11.1041
▁palm	-11.1044
▁brothers	-11.1044
▁DO	-11.1045
▁Action	-11.1046
might	-11.1047
▁Full	-11.1049
:--	-11.1049
▁breed	-11.1052
▁Auto	-11.1053
▁freely	-11.1055
▁Level	-11.1058
gel	-11.1061
▁clay	-11.1063
range	-11.1063
▁Could	-11.1063
Read	-11.1063
▁OK	-11.1063
▁abandoned	-11.1064
▁spirits	-11.1065
gra	-11.1065
▁detected	-11.1073
▁involvement	-11.1075
▁Ag	-11.1076
▁Coast	-11.1076
dan	-11.1077
▁Min	-11.1077
▁exhibition	-11.108
self	-11.1083
▁consist	-11.1083
ste	-11.1084
▁Night	-11.1084
fl	-11.1085
▁incredibly	-11.1087
▁mortgage	-11.1087
▁Photo	-11.1087
▁curve	-11.1088
▁po	-11.1091
▁Resources	-11.1094
▁designers	-11.1097
▁Ya	-11.1098
hen	-11.1099
▁bunch	-11.1099
▁relate	-11.1099
▁mathematical	-11.1102
▁rubber	-11.1102
▁attempting	-11.1103
▁carriage	-11.1104
▁expedition	-11.1105
cious	-11.1106
rim	-11.1107
UR	-11.1108
▁mistakes	-11.1111
▁treasure	-11.1112
▁dedication	-11.1117
▁tobacco	-11.1117
▁tends	-11.1118
▁bay	-11.1123
En	-11.1123
PC	-11.1125
▁attach	-11.1126
▁promises	-11.1128
▁hunt	-11.1131
▁sensor	-11.1135
yan	-11.1137
MP	-11.114
▁arguments	-11.114
▁grows	-11.1144
▁Supreme	-11.1147
▁Several	-11.115
▁bedroom	-11.115
green	-11.1152
▁charm	-11.1153
▁designated	-11.116
▁accommodate	-11.1162
▁copies	-11.1163
▁quest	-11.1169
▁convinced	-11.1172
EST	-11.1173
lid	-11.1174
himself	-11.1174
▁ecosystem	-11.1174
▁wa	-11.1184
▁plug	-11.1185
▁ethnic	-11.1188
pt	-11.1192
▁combining	-11.1193
▁Protection	-11.1194
▁prompt	-11.1197
▁magazine	-11.1197
boy	-11.1201
▁comma	-11.1214
▁Unlike	-11.1217
▁te	-11.1219
cin	-11.1219
▁gifts	-11.1221
▁Pope	-11.1223
▁Michigan	-11.1223
▁designing	-11.1224
▁desk	-11.1224
▁tear	-11.1226
▁Dark	-11.1228
▁Number	-11.1228
▁drinks	-11.1233
▁fraction	-11.1236
▁faithful	-11.1237
▁offices	-11.1238
▁dried	-11.1239
▁cooperation	-11.1239
▁drops	-11.124
▁Rather	-11.1241
yo	-11.1241
▁bass	-11.1246
▁Ly	-11.1249
▁specialist	-11.1249
▁membrane	-11.1251
▁perceive	-11.1252
▁reflected	-11.1256
wick	-11.1256
▁harvest	-11.1256
bre	-11.1259
▁mineral	-11.126
▁finds	-11.1261
yr	-11.1262
▁courts	-11.1263
tum	-11.1264
▁separation	-11.1265
▁drama	-11.1269
▁progression	-11.1273
▁tie	-11.1276
▁dare	-11.1276
▁bug	-11.1277
----------	-11.1277
▁extends	-11.1277
▁ni	-11.1278
▁mask	-11.1281
▁Never	-11.1283
▁navigating	-11.1285
Ta	-11.1285
▁clouds	-11.1289
ert	-11.129
mother	-11.1291
▁Fre	-11.1295
▁Ask	-11.1298
▁wishes	-11.1298
nel	-11.1299
gue	-11.1299
print	-11.13
▁developments	-11.13
▁logical	-11.1301
card	-11.1301
IM	-11.1304
▁productive	-11.1306
▁verse	-11.1313
▁grounds	-11.1313
=%	-11.1314
▁LA	-11.1314
▁Type	-11.1314
love	-11.1314
▁dig	-11.1315
▁Systems	-11.1318
▁biology	-11.1319
▁Digital	-11.1319
ona	-11.1319
▁planets	-11.1321
▁knee	-11.1322
▁View	-11.1323
▁blame	-11.1329
BC	-11.1329
▁substitute	-11.1331
▁Th	-11.1339
zer	-11.134
▁asks	-11.1344
▁Ash	-11.1346
teen	-11.1347
▁Au	-11.1347
▁attributes	-11.1351
▁Ken	-11.1353
▁verbs	-11.1353
umb	-11.1356
▁Line	-11.1357
?)	-11.136
▁meditation	-11.1362
▁Gi	-11.1362
▁transaction	-11.1363
▁excuse	-11.1367
▁em	-11.1369
wide	-11.1372
▁visits	-11.1372
▁riding	-11.1372
▁terminal	-11.1376
▁empathy	-11.1377
▁departure	-11.1378
Ch	-11.1382
▁guilty	-11.1382
▁birthday	-11.1383
▁checking	-11.1383
▁behalf	-11.1388
vid	-11.139
same	-11.139
rat	-11.1392
half	-11.1396
▁leverage	-11.1397
▁Lincoln	-11.1398
▁achievement	-11.1399
mile	-11.1402
▁proposal	-11.1405
DR	-11.1407
▁overwhelming	-11.1408
▁tackle	-11.1408
▁carpet	-11.141
▁meter	-11.1411
▁honey	-11.1411
Na	-11.1413
▁Ger	-11.1415
▁tickets	-11.1415
call	-11.1417
▁fits	-11.1417
▁factory	-11.1421
▁peaceful	-11.1423
dom	-11.1424
sive	-11.1424
▁collaborative	-11.1424
▁Ki	-11.1425
▁speaks	-11.1427
▁woods	-11.1428
bil	-11.1433
▁acres	-11.1433
▁mice	-11.1437
Other	-11.144
▁joke	-11.1441
▁humble	-11.1441
Bar	-11.1444
▁rhythm	-11.1445
Defn	-11.1446
sound	-11.1447
ounce	-11.1447
▁Climate	-11.1448
▁patch	-11.145
▁arrest	-11.145
press	-11.145
bal	-11.1451
▁spare	-11.1452
▁devil	-11.1455
ously	-11.1456
lac	-11.1456
▁submitted	-11.1457
ars	-11.1458
▁shame	-11.1458
▁reflects	-11.1463
▁complications	-11.1464
▁secured	-11.1466
▁indicating	-11.1468
▁Senate	-11.1472
▁Visit	-11.1474
▁Give	-11.1475
▁investments	-11.1476
EC	-11.1477
▁Mother	-11.1479
▁Za	-11.148
▁Win	-11.1486
▁dim	-11.149
▁mess	-11.1491
▁supplement	-11.1492
▁hub	-11.1496
ept	-11.1496
wel	-11.1498
▁Stephen	-11.1498
▁breaks	-11.1499
▁appealing	-11.1499
▁entities	-11.1502
lat	-11.1508
number	-11.1508
Depending	-11.1509
▁hybrid	-11.1512
▁Put	-11.1514
order	-11.1514
▁Sur	-11.1514
▁protective	-11.1515
▁cooked	-11.1515
▁yeast	-11.1518
▁crack	-11.1522
▁wheels	-11.153
DS	-11.1531
▁symbols	-11.1531
▁influences	-11.1532
▁harmony	-11.1534
▁classical	-11.1534
▁expressions	-11.154
▁affection	-11.1547
▁chill	-11.1549
▁relating	-11.1549
▁suicide	-11.1549
imp	-11.1551
▁resolved	-11.1554
▁compact	-11.1554
ought	-11.1562
▁arrangements	-11.1564
▁declare	-11.1564
▁gaining	-11.1564
▁eternal	-11.1566
▁scrap	-11.1568
boat	-11.157
▁vocabulary	-11.1574
▁athletes	-11.1577
▁districts	-11.1577
▁su	-11.1579
▁provisions	-11.1582
ago	-11.1582
IR	-11.1583
mod	-11.1583
▁disappear	-11.1585
▁layout	-11.159
▁pandemic	-11.1597
▁upcoming	-11.1607
lf	-11.1607
dal	-11.1608
▁vacuum	-11.1613
▁dioxide	-11.1613
▁tracks	-11.1619
▁barrier	-11.1619
pr	-11.1623
▁burned	-11.1628
▁**_	-11.1628
▁Reading	-11.1628
▁obesity	-11.1629
▁recognizing	-11.1629
▁Ste	-11.1631
▁dietary	-11.1633
▁tract	-11.1633
ui	-11.1639
▁abundance	-11.1641
why	-11.1643
shaped	-11.1643
▁ample	-11.1644
▁comparing	-11.1644
▁actors	-11.1646
▁Java	-11.1647
▁Nothing	-11.1649
▁pose	-11.1656
▁discrimination	-11.1658
▁quoted	-11.1662
▁perspectives	-11.1664
▁keys	-11.1666
title	-11.1667
▁Yu	-11.1673
▁beloved	-11.1675
▁tropical	-11.1676
▁blockchain	-11.1677
▁offensive	-11.1677
▁fond	-11.1679
ean	-11.1681
▁aesthetic	-11.1684
▁rec	-11.1685
SI	-11.1685
▁Jean	-11.1686
RP	-11.1689
▁followers	-11.169
els	-11.1691
nation	-11.1692
▁casual	-11.1692
▁GM	-11.1693
▁infant	-11.1693
▁enabled	-11.1697
▁engineer	-11.1698
▁Trade	-11.1698
▁generating	-11.1699
▁consultation	-11.17
▁Books	-11.1702
▁Nov	-11.1705
▁surprising	-11.1706
▁calories	-11.1706
▁parking	-11.1707
▁Mexican	-11.1707
anti	-11.1708
▁elaborate	-11.1708
sign	-11.1709
▁traits	-11.1709
▁situated	-11.171
hn	-11.171
▁Much	-11.1716
▁Third	-11.1716
▁nano	-11.1717
▁believes	-11.1718
▁│	-11.1719
▁resume	-11.1723
▁Ber	-11.1723
▁Author	-11.1724
▁coin	-11.1724
PL	-11.1724
▁wanting	-11.1725
▁loyalty	-11.1725
br	-11.1727
phon	-11.1727
▁interventions	-11.1729
▁module	-11.1733
**_	-11.1735
sia	-11.1735
fold	-11.1738
▁quotes	-11.1738
chy	-11.1739
▁positively	-11.174
▁enjoying	-11.1743
▁retreat	-11.1743
▁reaches	-11.1743
building	-11.1743
eration	-11.1745
▁gay	-11.1745
▁photographs	-11.1751
▁Further	-11.1752
▁wireless	-11.1753
▁belongs	-11.1753
▁Due	-11.176
▁unity	-11.176
▁Etym	-11.1761
tom	-11.1763
▁lean	-11.1765
▁uncle	-11.1771
▁shed	-11.1771
▁Color	-11.1773
▁vocal	-11.1773
Pre	-11.1774
▁tick	-11.1777
▁Machine	-11.1777
▁Bear	-11.1778
▁lit	-11.1778
!'	-11.1778
▁wore	-11.178
▁crash	-11.178
▁drove	-11.1783
▁volumes	-11.1784
▁lucky	-11.1786
▁Ball	-11.1787
ö	-11.1787
▁Ze	-11.1789
▁railway	-11.1791
▁bills	-11.1792
CS	-11.1792
▁cor	-11.1793
▁blade	-11.1801
▁weekly	-11.1804
▁decent	-11.1804
▁democracy	-11.1805
▁translated	-11.1806
burg	-11.1812
▁Large	-11.1814
▁scratch	-11.1816
▁tribe	-11.1818
▁calculate	-11.182
▁PDF	-11.182
▁restoration	-11.1821
▁minerals	-11.1823
▁breeding	-11.1828
▁tremendous	-11.183
spir	-11.1831
band	-11.1833
▁rescue	-11.1833
▁Station	-11.1833
Before	-11.1834
▁therapeutic	-11.1834
▁SP	-11.1836
▁Based	-11.1838
▁Fo	-11.1838
▁vowel	-11.1839
▁boats	-11.184
pha	-11.1842
▁checks	-11.1842
lash	-11.1844
▁encountered	-11.1845
ique	-11.1847
Th	-11.1847
▁lawyer	-11.185
oth	-11.1851
Which	-11.1851
▁exclusively	-11.1853
ifying	-11.1855
lia	-11.1856
▁Shi	-11.1861
▁racial	-11.1861
ule	-11.1862
▁Massachusetts	-11.1863
got	-11.1864
▁eaten	-11.1864
▁Alex	-11.1864
▁Search	-11.1864
▁Source	-11.1868
▁campus	-11.1869
▁advise	-11.1869
▁quantities	-11.187
▁awesome	-11.187
▁steady	-11.187
▁shoulders	-11.1872
▁mouse	-11.1873
▁apple	-11.1875
▁gaming	-11.1876
▁prize	-11.1878
rine	-11.1879
utter	-11.1881
▁Berlin	-11.1886
▁washing	-11.1886
▁mathematics	-11.1886
▁vibrant	-11.1886
▁Jersey	-11.1887
▁parameters	-11.1887
rug	-11.1888
action	-11.189
▁discharge	-11.189
▁Beach	-11.1894
UL	-11.1894
▁consisting	-11.1898
▁processed	-11.1901
▁automatic	-11.1903
▁baking	-11.1904
▁PR	-11.1906
▁sensitivity	-11.1907
▁fitting	-11.1907
ibility	-11.1908
▁OS	-11.1909
▁gardens	-11.1909
▁virtually	-11.1911
▁rewards	-11.1913
cup	-11.1918
▁weird	-11.192
sol	-11.1922
▁funny	-11.1922
nia	-11.1926
▁PM	-11.1927
▁Multi	-11.1928
▁occasions	-11.193
▁molecular	-11.1932
▁confusing	-11.1936
▁Creek	-11.1936
▁persistent	-11.1936
▁sorts	-11.1937
▁males	-11.1943
▁conflicts	-11.1944
▁tissues	-11.1946
è	-11.1946
▁drill	-11.1948
▁NO	-11.195
▁probability	-11.1952
▁Williams	-11.1953
ime	-11.1954
▁seats	-11.1956
FA	-11.1956
▁membership	-11.1957
▁breaker	-11.1958
▁titles	-11.1973
▁AS	-11.1973
▁attacked	-11.1973
▁Engineering	-11.1975
▁stayed	-11.1975
▁chemistry	-11.1978
▁Hotel	-11.198
▁occurrence	-11.1981
▁vacation	-11.1985
▁Kar	-11.1987
▁midst	-11.1988
vari	-11.1989
dr	-11.199
EA	-11.1993
▁dual	-11.1995
piece	-11.1996
▁hypo	-11.1997
▁Often	-11.1998
LI	-11.2001
▁migration	-11.2001
▁sustained	-11.2001
▁supplied	-11.2001
▁Obama	-11.2002
▁democratic	-11.2002
flu	-11.2002
▁Ali	-11.2009
▁jaw	-11.201
▁Wild	-11.201
▁pour	-11.2014
▁Ring	-11.2016
▁wellbeing	-11.2017
▁Mountain	-11.2018
▁cholesterol	-11.2018
▁Article	-11.2019
▁hits	-11.202
party	-11.202
look	-11.2022
▁Angeles	-11.2022
▁farming	-11.2024
ked	-11.2024
▁rings	-11.2027
▁races	-11.2027
▁pronunciation	-11.2028
ras	-11.2029
▁excel	-11.2029
▁Adam	-11.2029
▁metals	-11.2031
▁signature	-11.2032
▁portfolio	-11.2034
▁Agency	-11.2035
▁retirement	-11.2035
UM	-11.2038
▁joining	-11.2038
▁icon	-11.2042
▁rat	-11.2042
▁Mad	-11.2046
▁Cup	-11.2047
uv	-11.205
▁Price	-11.2051
▁compensation	-11.2051
▁completion	-11.2051
▁welfare	-11.2051
Ar	-11.2051
PR	-11.2053
bid	-11.2058
▁hasn	-11.206
▁overview	-11.2062
note	-11.2063
▁Cho	-11.2064
▁evolve	-11.2067
bell	-11.2068
▁uncertainty	-11.2069
▁Em	-11.2069
▁scheduled	-11.207
)?	-11.207
▁eager	-11.207
▁cluster	-11.2073
▁collecting	-11.2074
▁Muslim	-11.2074
standing	-11.2075
sha	-11.2079
▁export	-11.2081
unk	-11.2081
▁cow	-11.2082
force	-11.2083
▁purple	-11.2085
▁tomorrow	-11.2087
▁occurring	-11.2088
arm	-11.2089
via	-11.2092
▁Len	-11.2093
▁rep	-11.2098
During	-11.21
▁circulation	-11.2101
lets	-11.2101
▁legacy	-11.2101
▁broadcast	-11.2102
▁virtue	-11.2104
▁consumed	-11.2106
▁regime	-11.2106
ban	-11.2107
▁scientist	-11.2107
▁pointing	-11.2116
▁organisation	-11.2118
▁integrating	-11.2118
▁horror	-11.2119
▁fence	-11.2121
▁recipes	-11.2121
▁poll	-11.2123
▁Manager	-11.2124
serv	-11.2126
▁cabin	-11.2127
▁graduate	-11.2128
▁brick	-11.213
▁adapted	-11.2131
logical	-11.2132
▁invasion	-11.2134
▁Bishop	-11.2135
▁Tim	-11.2135
▁Mon	-11.2136
▁Access	-11.214
Every	-11.214
▁Series	-11.2143
▁grammatical	-11.2146
▁diagnosed	-11.2146
country	-11.2147
gun	-11.215
▁reserve	-11.2152
▁Jacob	-11.2153
itation	-11.2154
cm	-11.2155
▁AM	-11.2157
▁partnerships	-11.2159
▁commit	-11.2165
▁Bro	-11.2166
▁hosting	-11.2166
▁minimizing	-11.2168
▁Analysis	-11.2168
iest	-11.2168
system	-11.2168
▁weakness	-11.2169
▁preposition	-11.217
city	-11.2171
lang	-11.2171
mond	-11.2171
mission	-11.2173
▁streams	-11.2175
ote	-11.2178
▁Personal	-11.2182
▁wi	-11.2182
▁Oct	-11.2183
▁obliged	-11.2188
▁distinctive	-11.2188
▁Need	-11.2192
▁Contact	-11.2194
topic	-11.2195
▁tele	-11.2199
aire	-11.2199
▁triumph	-11.2205
▁deposit	-11.2208
▁Short	-11.2211
ups	-11.2211
▁fame	-11.2214
▁Examples	-11.2215
▁volunteers	-11.2216
▁flows	-11.2217
▁tendency	-11.222
script	-11.2221
▁grab	-11.2223
▁founder	-11.2226
▁McC	-11.2226
▁beans	-11.2227
▁tide	-11.2227
▁bite	-11.2227
▁Site	-11.2231
▁touched	-11.2231
cre	-11.2232
▁associate	-11.2233
▁romantic	-11.2234
▁rush	-11.2235
▁isolation	-11.2235
▁Maria	-11.2238
▁sooner	-11.2238
▁requests	-11.2241
ude	-11.2242
ima	-11.2244
▁obstacles	-11.2244
▁legitimate	-11.2247
▁quietly	-11.2248
▁dentist	-11.2251
give	-11.2251
▁passengers	-11.2252
▁dairy	-11.2252
father	-11.2252
▁conviction	-11.2254
ids	-11.2255
vit	-11.2259
▁Later	-11.226
▁anchor	-11.2267
NC	-11.2267
▁Bel	-11.2268
▁Boy	-11.2269
▁equity	-11.2269
lam	-11.2272
▁Colonel	-11.2275
dra	-11.2276
▁namely	-11.2277
phone	-11.2278
igh	-11.2279
gas	-11.228
▁shortly	-11.2281
▁regulate	-11.2286
▁sectors	-11.2286
▁voting	-11.2286
▁grief	-11.2286
▁mitigate	-11.2286
▁navigation	-11.2286
▁servants	-11.2286
▁comp	-11.2289
▁workshop	-11.2294
▁elevated	-11.2297
ctor	-11.2298
ees	-11.2298
▁hint	-11.2299
▁elegant	-11.2299
▁Brazil	-11.23
▁mysterious	-11.2301
Two	-11.2303
▁literacy	-11.2303
▁organisms	-11.2305
▁phenomena	-11.2305
▁regiment	-11.2305
▁reserved	-11.2305
▁Qui	-11.2306
▁Fish	-11.2306
▁pound	-11.2307
▁definitions	-11.2316
ake	-11.2319
▁converted	-11.232
kes	-11.2322
▁grasp	-11.2325
▁Ap	-11.2325
▁weren	-11.2326
▁Tar	-11.2326
east	-11.233
▁gaps	-11.2331
▁throwing	-11.2332
ost	-11.2334
▁representatives	-11.2337
▁bell	-11.2337
▁Writing	-11.2339
▁peers	-11.2339
▁reasoning	-11.2339
▁drag	-11.2339
▁Tree	-11.2343
▁Mat	-11.2344
▁attachment	-11.2345
kar	-11.235
▁Policy	-11.2354
▁psychology	-11.2354
▁Turkey	-11.2355
▁strings	-11.2357
▁sufficiently	-11.2358
▁abundant	-11.2367
stock	-11.2368
▁experimental	-11.2368
▁controlling	-11.2371
▁pregnant	-11.2371
▁pine	-11.2372
▁Cape	-11.2372
▁potatoes	-11.2375
▁employers	-11.2377
aud	-11.2377
▁intimate	-11.2377
▁colours	-11.2379
▁codes	-11.2379
▁generous	-11.2381
▁informal	-11.2385
▁alignment	-11.2386
▁boards	-11.2386
▁diagnostic	-11.2389
▁cheer	-11.2389
▁corruption	-11.239
▁transferred	-11.239
▁Local	-11.2391
▁Cy	-11.2393
berry	-11.2393
ject	-11.2399
▁pole	-11.2402
course	-11.2403
▁Je	-11.241
▁Cro	-11.2413
▁females	-11.2416
pg	-11.2419
▁indication	-11.242
bus	-11.2421
▁ceremony	-11.2423
▁Guidelines	-11.2423
▁cheaper	-11.2424
▁rolled	-11.2425
▁planting	-11.2428
tru	-11.2431
nan	-11.2432
▁coins	-11.2437
▁threatened	-11.2437
▁argued	-11.2438
▁cruel	-11.244
SD	-11.244
▁Math	-11.2441
▁invented	-11.2441
especially	-11.2442
▁mud	-11.2444
▁Francis	-11.2444
▁contracts	-11.2446
nate	-11.2446
▁Os	-11.2447
▁fifteen	-11.245
▁attributed	-11.2451
live	-11.2452
▁Arthur	-11.2453
ttle	-11.2455
▁accounting	-11.2457
▁compassion	-11.2457
▁vent	-11.2459
▁Sciences	-11.246
tile	-11.2461
mid	-11.2462
▁bands	-11.2464
htm	-11.2465
pal	-11.2465
▁photography	-11.2465
▁terror	-11.2468
▁attorney	-11.2469
▁Stra	-11.2469
▁Ann	-11.2473
▁ju	-11.2473
▁shops	-11.2477
▁Castle	-11.248
▁gains	-11.2486
▁outstanding	-11.2487
▁certification	-11.2492
▁inclusive	-11.2492
▁mature	-11.2495
outs	-11.2497
▁stranger	-11.2497
▁conducting	-11.2498
▁API	-11.2498
!!!	-11.2498
▁drives	-11.2501
▁Beyond	-11.2503
▁Oil	-11.2504
▁crossing	-11.2507
▁recycling	-11.251
▁lungs	-11.251
otic	-11.2511
natural	-11.2512
▁aging	-11.2513
paper	-11.2516
fat	-11.2516
▁rendered	-11.2517
▁caution	-11.2518
▁Nu	-11.2518
▁mom	-11.2519
▁visitor	-11.252
▁Following	-11.2521
▁Turn	-11.2521
▁defence	-11.2522
▁Fri	-11.2524
и	-11.2527
▁indigenous	-11.2527
rock	-11.2529
▁colon	-11.2529
▁sensors	-11.2531
Hu	-11.2535
▁controller	-11.2536
ace	-11.2536
▁Sand	-11.2537
▁genius	-11.2541
▁commander	-11.2543
▁fires	-11.2546
▁shake	-11.2548
writing	-11.2548
▁Android	-11.2549
ides	-11.2549
▁\-	-11.2552
▁configuration	-11.2553
▁bin	-11.2553
▁lamp	-11.2554
▁tro	-11.2554
Will	-11.2555
race	-11.2557
▁Pakistan	-11.2558
▁heal	-11.2559
RS	-11.256
▁est	-11.2561
▁administrative	-11.2562
ages	-11.2565
▁worker	-11.2569
▁cart	-11.2569
▁kidney	-11.2571
author	-11.2573
▁outline	-11.2576
▁Arm	-11.2576
▁executed	-11.2576
miss	-11.2576
▁BE	-11.2577
▁Down	-11.2578
▁tunnel	-11.2579
▁immigration	-11.2579
▁continually	-11.2583
nov	-11.2588
▁Pu	-11.2589
road	-11.2589
▁treaty	-11.2591
▁tar	-11.2591
▁restricted	-11.2591
left	-11.2592
Gu	-11.2593
▁laptop	-11.2597
▁accessibility	-11.2598
count	-11.2601
▁Unit	-11.2602
▁binding	-11.2603
▁Financial	-11.2605
▁pursuit	-11.2606
ask	-11.2608
EM	-11.2611
▁Mind	-11.2614
▁slot	-11.2614
▁Anne	-11.2614
▁ecological	-11.2614
▁Tur	-11.2615
▁Tax	-11.2618
gr	-11.2619
▁prey	-11.2621
▁cuts	-11.2627
emia	-11.2627
▁Hor	-11.2631
▁throne	-11.2631
▁defensive	-11.2632
▁partial	-11.2635
EE	-11.2637
▁san	-11.2637
▁Wales	-11.2637
▁Lewis	-11.2637
fulness	-11.2641
month	-11.2641
▁Gal	-11.2642
trans	-11.2642
▁constraints	-11.2644
▁behave	-11.2646
▁debris	-11.265
▁Pay	-11.265
▁timing	-11.265
▁integral	-11.2652
▁imply	-11.2654
aught	-11.2655
▁pulse	-11.2657
black	-11.2659
▁opponent	-11.266
▁dressed	-11.2661
▁versatile	-11.2667
minute	-11.2674
▁nuts	-11.2674
sc	-11.2676
▁exploit	-11.2678
▁retired	-11.2678
▁Ban	-11.2679
group	-11.2679
▁Form	-11.2681
▁Say	-11.2681
▁endless	-11.2682
▁sheets	-11.2682
▁WITH	-11.2685
▁ghost	-11.2685
▁und	-11.2689
▁basket	-11.2689
interest	-11.2692
found	-11.2699
itude	-11.27
▁flame	-11.27
▁merit	-11.2701
▁packaging	-11.2703
does	-11.2705
▁illustrated	-11.2706
▁rope	-11.2708
▁rational	-11.2708
▁Islam	-11.2709
▁paths	-11.271
▁Training	-11.2714
▁pause	-11.2717
▁disabilities	-11.2721
▁yoga	-11.2721
▁networking	-11.2726
▁Mont	-11.2727
Vi	-11.2729
▁modify	-11.273
▁Lab	-11.2732
sum	-11.2734
▁supplements	-11.2734
▁workshops	-11.2735
▁Tell	-11.2735
▁preference	-11.2736
▁garage	-11.2738
▁MD	-11.2739
▁Micro	-11.2741
▁announcement	-11.2742
ines	-11.2743
▁wit	-11.2745
▁asset	-11.2747
▁passionate	-11.2748
▁posting	-11.2752
▁promptly	-11.2753
▁generator	-11.2756
▁anybody	-11.2757
nn	-11.2758
▁injection	-11.2758
▁dam	-11.2764
nar	-11.2767
gress	-11.2769
▁excellence	-11.2774
▁inclusion	-11.2774
▁mercy	-11.2774
▁Cur	-11.2776
user	-11.2776
ander	-11.2783
question	-11.2784
▁Pri	-11.2786
▁pairs	-11.2786
▁Hope	-11.2786
▁diagram	-11.2787
verb	-11.2789
▁coastal	-11.2789
▁Roll	-11.2789
▁displays	-11.279
▁organizational	-11.279
▁restaurants	-11.279
NA	-11.2791
▁clarity	-11.2791
▁prioritize	-11.2792
▁letting	-11.2792
▁alternate	-11.2792
▁discourse	-11.2792
▁customs	-11.2799
second	-11.28
vision	-11.2805
LS	-11.2805
▁translate	-11.2806
▁bears	-11.2807
▁achievements	-11.281
▁telephone	-11.281
▁assault	-11.281
▁feast	-11.281
▁\	-11.281
▁vegetable	-11.2812
▁servers	-11.2813
ink	-11.2815
▁restored	-11.2815
▁opponents	-11.2816
▁certificate	-11.2816
▁algorithm	-11.2824
▁CON	-11.2824
ality	-11.2825
MB	-11.2826
▁conjunction	-11.2828
▁boasts	-11.2829
rry	-11.2831
▁Matt	-11.2832
▁protest	-11.2837
RC	-11.2837
▁desirable	-11.2841
--------------	-11.2845
▁approached	-11.2846
▁hook	-11.2848
▁Han	-11.2849
OD	-11.2849
▁competitors	-11.285
CT	-11.285
▁adverse	-11.2851
▁theatre	-11.2852
▁Cloud	-11.2862
fect	-11.2862
▁bottles	-11.2863
▁ruling	-11.2863
▁hungry	-11.2865
although	-11.2867
▁disability	-11.2867
HS	-11.2868
▁disappeared	-11.2869
iti	-11.287
▁spine	-11.2872
▁grains	-11.2874
▁compete	-11.2877
▁assumption	-11.2879
hir	-11.2879
▁bullet	-11.288
horse	-11.288
▁explaining	-11.2881
▁buyers	-11.2881
▁Convention	-11.2882
▁compromise	-11.2882
▁foam	-11.2882
cen	-11.2883
▁Islamic	-11.2884
nder	-11.2885
▁Story	-11.2887
II	-11.289
direct	-11.2891
lect	-11.2892
rit	-11.2892
▁Tra	-11.2893
а	-11.2899
▁mobility	-11.29
▁entity	-11.29
tha	-11.29
cker	-11.2901
▁raises	-11.2902
▁acceptance	-11.2903
▁importantly	-11.2903
▁beef	-11.2905
cum	-11.2912
▁duplicate	-11.2921
▁hoped	-11.2922
▁dragon	-11.2926
walk	-11.2927
▁spark	-11.2929
▁editing	-11.2933
▁emphasize	-11.2934
▁mortality	-11.2937
▁useless	-11.2938
talk	-11.2939
▁Bell	-11.294
▁hell	-11.294
▁surgeon	-11.2941
bank	-11.2943
▁sorrow	-11.2945
▁Travel	-11.2949
▁equality	-11.2951
▁constitution	-11.2951
base	-11.2951
▁joints	-11.2954
▁prescription	-11.2955
▁audit	-11.2956
Book	-11.2956
lis	-11.2956
▁Professional	-11.2957
▁fo	-11.2957
Sp	-11.2958
▁Chris	-11.2958
▁pets	-11.2959
fra	-11.2962
▁rot	-11.2963
▁geographical	-11.2963
▁Farm	-11.2965
▁sore	-11.2966
▁verify	-11.2967
▁asleep	-11.2967
nothing	-11.2967
▁fails	-11.2971
▁frozen	-11.2972
▁ranks	-11.2973
▁advances	-11.2973
▁Gas	-11.2974
mber	-11.2975
▁shots	-11.298
aver	-11.2981
news	-11.2983
▁thoughtful	-11.2986
dimensional	-11.299
▁admission	-11.299
▁·	-11.2991
▁varies	-11.2992
▁sensation	-11.2992
▁definite	-11.2993
▁oak	-11.2994
▁considerably	-11.2995
▁opens	-11.2998
▁Philadelphia	-11.2998
earth	-11.3002
▁affair	-11.3002
▁progressive	-11.3002
ome	-11.3003
▁mechanics	-11.3003
▁medieval	-11.3008
▁absent	-11.3008
▁protocol	-11.3008
▁replacing	-11.3009
▁Tro	-11.301
▁Between	-11.3011
▁Text	-11.3011
▁workout	-11.3014
CR	-11.3015
▁bark	-11.3016
CD	-11.3016
Pa	-11.3016
▁Print	-11.3021
▁employer	-11.3023
▁rotation	-11.3024
▁essays	-11.3024
NO	-11.3028
▁farther	-11.3032
▁mentions	-11.3032
▁masses	-11.3038
▁commands	-11.3038
cel	-11.3042
glo	-11.3044
▁Shakespeare	-11.3045
pid	-11.3045
proof	-11.3046
▁NC	-11.3047
▁Islands	-11.3048
cover	-11.3049
▁villages	-11.3051
▁grateful	-11.3052
▁educators	-11.3052
▁folk	-11.3053
▁incidents	-11.3056
▁advancements	-11.3056
▁Main	-11.3058
youtube	-11.3058
chu	-11.3058
▁velocity	-11.306
ien	-11.3061
rup	-11.3061
▁nursing	-11.3063
▁hypothesis	-11.3063
tag	-11.3064
▁accordance	-11.3064
▁Select	-11.3069
▁gratitude	-11.3071
LO	-11.3072
▁strengths	-11.3074
▁partially	-11.3076
▁odds	-11.3078
▁pressed	-11.308
ref	-11.3081
▁safer	-11.3081
▁imaging	-11.3082
▁dollar	-11.3083
OP	-11.3088
Am	-11.3089
LC	-11.3094
Qu	-11.3095
▁interfere	-11.31
▁loaded	-11.3101
▁Moses	-11.3101
▁classified	-11.3104
▁temper	-11.3105
▁viewing	-11.3105
media	-11.3105
▁Max	-11.3105
▁horizontal	-11.3106
Over	-11.3109
▁altered	-11.3109
▁Para	-11.311
kins	-11.3111
▁Prime	-11.3111
stead	-11.3114
lies	-11.3116
▁innocent	-11.3118
▁placement	-11.3118
▁cyber	-11.3118
▁regards	-11.3119
▁wherever	-11.3119
▁scan	-11.312
ika	-11.3121
▁pun	-11.3122
pit	-11.3124
▁insect	-11.3124
GA	-11.3125
duct	-11.3125
flow	-11.3126
▁soup	-11.3127
mouth	-11.313
▁pi	-11.313
▁Treatment	-11.3132
Star	-11.3133
▁elections	-11.3135
▁ruin	-11.3137
▁modest	-11.3138
▁Ever	-11.3139
Gra	-11.3143
▁underground	-11.3143
▁colony	-11.3146
▁whi	-11.3146
▁scales	-11.3146
▁SC	-11.3146
▁resistant	-11.3147
dog	-11.3147
▁dirt	-11.3148
▁possessed	-11.3151
▁Computer	-11.3152
RT	-11.3153
▁accidents	-11.3153
erg	-11.3153
▁societal	-11.3155
▁salmon	-11.3156
BA	-11.3156
▁transmitted	-11.3156
▁colonies	-11.3157
▁manufacture	-11.3157
inc	-11.3158
▁interviews	-11.3159
posed	-11.3174
▁highlighting	-11.3175
amine	-11.3176
▁rating	-11.318
▁SO	-11.318
▁shallow	-11.318
roid	-11.318
lus	-11.3182
fin	-11.3182
▁del	-11.3182
▁Award	-11.3183
▁warrant	-11.3183
▁conception	-11.3186
▁planted	-11.3187
▁purely	-11.319
▁Sol	-11.3192
▁grip	-11.3192
▁protocols	-11.3192
▁glucose	-11.3193
▁transparent	-11.3193
MC	-11.3194
▁floating	-11.3195
▁Room	-11.3195
thi	-11.3196
Take	-11.3201
ility	-11.3202
▁Create	-11.3204
once	-11.3205
ó	-11.3205
▁nail	-11.3206
▁badly	-11.3207
▁suited	-11.3207
small	-11.3209
turn	-11.321
▁threshold	-11.3211
▁thumb	-11.3211
▁scattered	-11.3211
▁straightforward	-11.3212
▁canal	-11.3213
▁propose	-11.3213
▁stir	-11.3214
oli	-11.3215
▁hormone	-11.3216
▁surgical	-11.3217
▁mighty	-11.3219
▁centered	-11.322
▁recovered	-11.3223
▁mistaken	-11.3224
▁monster	-11.3224
▁align	-11.3225
▁guided	-11.3226
▁Hy	-11.3226
ect	-11.323
▁insulin	-11.3231
having	-11.3232
▁Edition	-11.3232
Source	-11.3232
▁demanded	-11.3233
▁Arab	-11.3234
▁festival	-11.3234
▁Iran	-11.3235
ATION	-11.3235
│	-11.3236
▁Nazi	-11.3236
▁prone	-11.3239
lt	-11.3243
▁Fox	-11.3246
▁prim	-11.3246
▁approaching	-11.3248
▁Greece	-11.3249
▁pursuing	-11.3249
▁integrate	-11.325
lib	-11.3251
▁ro	-11.3251
▁Future	-11.3252
▁Yo	-11.3252
speed	-11.3255
ically	-11.3258
past	-11.3258
▁Romans	-11.3258
▁collections	-11.3261
▁solving	-11.3261
▁hospitals	-11.3265
El	-11.3265
▁crust	-11.3267
▁requested	-11.3268
▁Map	-11.3268
▁gang	-11.3271
▁automated	-11.3272
▁educated	-11.3273
▁Bat	-11.3274
hin	-11.3274
▁mg	-11.3276
▁Mag	-11.3278
bon	-11.3284
▁Dick	-11.3285
▁fosters	-11.3285
▁escaped	-11.3286
▁collapse	-11.3287
▁presenting	-11.329
▁Video	-11.3298
▁eligible	-11.33
▁Oregon	-11.3305
gal	-11.3305
▁Dun	-11.3305
▁proposition	-11.3306
▁Jr	-11.3307
▁receives	-11.3311
▁bits	-11.3313
▁Sel	-11.3314
TV	-11.3315
came	-11.3316
▁Iron	-11.3316
story	-11.3316
▁tries	-11.3317
▁fitted	-11.3318
▁exp	-11.3321
▁kindness	-11.3322
▁Ministry	-11.3324
umble	-11.3325
▁promotion	-11.3325
kh	-11.3326
▁HD	-11.3327
▁annually	-11.3327
▁Heaven	-11.3327
▁delightful	-11.3328
▁thrust	-11.3329
itive	-11.3329
always	-11.333
▁cited	-11.333
▁talks	-11.3331
▁Practice	-11.3332
▁mothers	-11.3336
▁damp	-11.3337
▁photograph	-11.3339
chen	-11.3341
▁Dy	-11.3341
▁operated	-11.3342
▁Str	-11.3342
▁Environment	-11.3342
▁handsome	-11.3342
▁practitioners	-11.3342
▁sur	-11.3343
▁Hay	-11.3344
nis	-11.3345
▁subsequently	-11.3348
▁Magic	-11.3352
▁colonial	-11.3355
▁targeting	-11.3355
▁Phil	-11.3357
fit	-11.3359
▁crimes	-11.336
▁dignity	-11.336
▁competing	-11.3361
▁memorable	-11.3361
▁Marketing	-11.3363
▁optimize	-11.3363
tens	-11.3365
▁Char	-11.3366
stic	-11.3367
▁Hal	-11.337
▁asthma	-11.3372
▁descriptions	-11.3374
▁neighbors	-11.3374
▁Fall	-11.3375
▁verbal	-11.338
▁Week	-11.3383
▁coating	-11.3385
▁classification	-11.3385
▁accountability	-11.3385
▁theoretical	-11.3387
since	-11.3389
▁stairs	-11.339
bat	-11.3393
▁enthusiasm	-11.3394
add	-11.3394
▁Luke	-11.3397
▁disposal	-11.3399
▁practicing	-11.3399
▁reliability	-11.3399
▁worried	-11.3399
▁Gulf	-11.34
▁addiction	-11.34
▁dawn	-11.34
▁wondered	-11.3402
▁epi	-11.3403
stein	-11.3406
▁Des	-11.3408
▁machinery	-11.3408
▁bulk	-11.341
▁seasons	-11.3412
▁timely	-11.3416
thy	-11.3416
common	-11.3418
▁aluminum	-11.3418
▁quantum	-11.3418
▁knees	-11.3419
▁intervals	-11.3422
▁publish	-11.3422
▁Golden	-11.3424
▁thickness	-11.3425
▁officially	-11.3431
kan	-11.3435
▁regret	-11.3436
▁dull	-11.3437
▁Account	-11.3437
▁swing	-11.3437
War	-11.3438
▁shook	-11.3439
▁Blood	-11.3439
another	-11.3441
▁soap	-11.3444
▁Clean	-11.3447
▁Physical	-11.3449
mine	-11.3449
▁transformed	-11.3449
▁prop	-11.3455
Come	-11.3457
▁liability	-11.3457
phi	-11.3458
claim	-11.3463
ern	-11.3464
MM	-11.3465
▁Drug	-11.3471
▁AT	-11.3471
web	-11.3474
▁Mil	-11.3474
▁libraries	-11.3476
▁heated	-11.3476
▁iPhone	-11.3476
tical	-11.3476
▁associations	-11.348
ART	-11.3482
▁Den	-11.3484
▁Ah	-11.3484
▁z	-11.3485
▁awarded	-11.3486
▁locked	-11.3491
▁compatibility	-11.3491
TION	-11.3492
▁lifted	-11.3495
▁tin	-11.3496
▁Wo	-11.3499
▁resident	-11.3499
▁Comp	-11.3499
▁disagree	-11.3502
guard	-11.3502
▁boss	-11.3507
tail	-11.3507
SL	-11.3507
▁iii	-11.3509
▁Download	-11.351
fur	-11.3511
Di	-11.3512
hoe	-11.3513
▁attracted	-11.3514
▁demonstrating	-11.3514
stick	-11.3515
ois	-11.3516
woman	-11.3518
plo	-11.3519
effect	-11.3521
lines	-11.3521
rist	-11.3522
PO	-11.3523
▁origins	-11.3524
Like	-11.3524
▁avoided	-11.3531
▁wholly	-11.3531
▁Gospel	-11.3533
▁Scripture	-11.3533
Sidenote	-11.3533
▁charity	-11.3533
▁drought	-11.3533
RM	-11.3534
▁jet	-11.3535
pra	-11.3536
gger	-11.3536
▁departments	-11.3537
Step	-11.3537
▁Poland	-11.3539
▁blast	-11.3541
▁Marine	-11.3544
▁Anna	-11.3552
▁completing	-11.3553
▁sentiment	-11.3553
Use	-11.3553
▁borders	-11.3554
▁Specifically	-11.3555
▁Ren	-11.3556
▁senses	-11.356
▁seamless	-11.3561
▁independently	-11.3561
wal	-11.3564
▁discount	-11.3564
week	-11.3565
▁jar	-11.3566
bad	-11.3568
tting	-11.357
▁(“	-11.3573
arian	-11.3573
▁dough	-11.3581
hol	-11.3581
dec	-11.3582
▁geo	-11.3583
▁qua	-11.3585
▁charming	-11.3586
▁seized	-11.3586
▁heading	-11.3587
pon	-11.3588
▁Wind	-11.3588
▁spec	-11.3589
▁blank	-11.359
▁mate	-11.3591
▁talents	-11.3592
Che	-11.3595
▁wool	-11.3597
▁arc	-11.36
▁rub	-11.3602
▁needle	-11.3607
▁neglect	-11.361
▁undoubtedly	-11.3611
▁Survey	-11.3611
▁counsel	-11.3611
▁fired	-11.3613
respect	-11.3613
▁Syn	-11.3618
Col	-11.3619
Google	-11.3619
▁attain	-11.362
sie	-11.362
▁cycles	-11.3621
▁utilized	-11.3622
EX	-11.3625
▁Bird	-11.3627
chan	-11.3627
▁formerly	-11.3628
nge	-11.3629
▁chains	-11.363
▁obscure	-11.363
▁contexts	-11.363
▁strictly	-11.3631
▁leap	-11.3634
▁Ye	-11.3636
▁upgrade	-11.364
ico	-11.3641
▁bomb	-11.3643
vic	-11.3643
PM	-11.3647
▁moist	-11.3648
udge	-11.3648
Time	-11.3649
▁champion	-11.3649
▁denied	-11.365
color	-11.3651
▁stopping	-11.3652
▁infinite	-11.3653
▁Persian	-11.3654
▁hinder	-11.3656
wed	-11.3657
▁profits	-11.3658
▁Silver	-11.366
▁puzzle	-11.3662
lig	-11.3664
ARD	-11.3664
written	-11.3668
▁instinct	-11.3669
again	-11.3671
▁anymore	-11.3674
▁relying	-11.3674
▁rays	-11.3677
▁Eu	-11.3684
▁hadn	-11.3685
▁backup	-11.3685
▁hosts	-11.3687
Fe	-11.3688
▁packed	-11.3689
▁gym	-11.3689
ere	-11.369
▁cultivate	-11.3691
▁Ol	-11.3692
▁wax	-11.3692
)_	-11.3695
oy	-11.3696
days	-11.3696
▁Cell	-11.3697
LP	-11.3699
▁Economic	-11.3701
▁extending	-11.3701
zen	-11.3701
▁likewise	-11.3703
▁drift	-11.3704
▁PS	-11.3704
▁twist	-11.3706
▁fantasy	-11.3706
▁adjacent	-11.3708
▁railroad	-11.3708
▁waited	-11.3709
▁gauge	-11.371
▁bias	-11.3711
▁coaching	-11.3711
▁meanings	-11.3713
▁farms	-11.3715
▁wizard	-11.3715
▁pepper	-11.3717
lation	-11.3717
▁equation	-11.3723
▁Carl	-11.3725
▁magnitude	-11.3728
▁cardiovascular	-11.3728
▁analytics	-11.3728
ELL	-11.3728
▁listing	-11.373
HA	-11.373
▁publishing	-11.3735
▁template	-11.3736
▁Bon	-11.3736
firm	-11.3737
cross	-11.3738
▁promotes	-11.3742
Great	-11.3744
pil	-11.3747
▁Link	-11.3748
▁niche	-11.3751
▁Essay	-11.3753
▁glasses	-11.3754
▁closest	-11.3756
▁prescribed	-11.3756
gro	-11.376
▁prevented	-11.3761
▁beds	-11.3762
rage	-11.3764
▁doi	-11.3766
▁despair	-11.3767
▁suspicion	-11.3768
rod	-11.3769
▁picking	-11.377
▁qui	-11.377
CI	-11.377
aria	-11.3771
▁lighter	-11.3772
▁rifle	-11.3772
▁appreciated	-11.3778
full	-11.3779
coming	-11.378
▁melt	-11.3781
▁rejected	-11.3784
▁wages	-11.3786
▁glimpse	-11.3787
▁resonate	-11.3787
▁locally	-11.379
phil	-11.3791
▁insult	-11.3792
▁Mis	-11.3792
▁accused	-11.3792
▁pulling	-11.3793
tent	-11.3796
▁fin	-11.3797
▁trips	-11.3798
profit	-11.3798
▁ME	-11.3798
▁Radio	-11.3799
▁absorbed	-11.38
▁Simon	-11.38
▁shifts	-11.3805
▁polar	-11.3806
▁emperor	-11.3806
▁loves	-11.3807
▁savage	-11.3808
▁inflation	-11.381
sight	-11.381
▁outlet	-11.3813
▁minority	-11.3813
▁dimension	-11.3818
▁NA	-11.3822
▁Custom	-11.3824
shot	-11.3826
▁CEO	-11.3827
▁linguistic	-11.3828
▁Aug	-11.3829
▁MP	-11.383
equen	-11.383
▁deadly	-11.3832
▁arrested	-11.3832
ulating	-11.3834
▁vague	-11.3834
Jo	-11.3834
▁Summer	-11.3839
▁highlighted	-11.3839
fri	-11.384
▁flavors	-11.384
▁Matthew	-11.3841
▁physicians	-11.3844
ech	-11.3846
▁vegetation	-11.3846
▁gases	-11.3846
▁prospects	-11.3847
▁Ob	-11.3848
###	-11.385
▁ecosystems	-11.385
о	-11.3852
bert	-11.3852
▁viable	-11.3853
▁travelling	-11.3854
▁sodium	-11.3856
▁rude	-11.3856
▁dwelling	-11.3857
▁landscapes	-11.3857
▁visibility	-11.3862
tch	-11.3863
ways	-11.3866
▁stupid	-11.3866
▁governing	-11.3866
ington	-11.3867
▁folder	-11.3867
▁trunk	-11.3868
▁magnet	-11.387
▁pur	-11.3873
▁firmly	-11.3875
▁slide	-11.3876
▁Historical	-11.3876
▁desires	-11.3877
▁exceed	-11.3878
gree	-11.3878
suit	-11.3878
▁Korean	-11.3879
▁cont	-11.3879
▁Steve	-11.388
minded	-11.3881
cil	-11.3882
▁awkward	-11.3886
▁fled	-11.3886
▁certified	-11.3888
ott	-11.3888
▁Self	-11.3888
large	-11.389
▁keyboard	-11.3893
▁stain	-11.3893
▁introducing	-11.3896
▁mixing	-11.39
anc	-11.3901
▁Bor	-11.3903
ures	-11.3903
▁Festival	-11.3906
▁securing	-11.3906
ress	-11.391
▁Samuel	-11.3913
ben	-11.3913
▁suspected	-11.3914
▁healthier	-11.3919
mil	-11.3921
nut	-11.3924
▁prospect	-11.3925
▁Prevention	-11.3926
▁SEO	-11.3927
▁olive	-11.3927
▁advised	-11.3927
▁hammer	-11.393
ense	-11.393
GE	-11.3933
SO	-11.3935
▁pest	-11.3937
Look	-11.3938
six	-11.394
▁graphics	-11.3941
▁producers	-11.3942
train	-11.3945
▁crazy	-11.3946
▁ministry	-11.3946
▁vector	-11.3946
times	-11.3946
▁PO	-11.3948
▁Fortunately	-11.3949
▁inclined	-11.395
plant	-11.3951
SON	-11.3955
▁lightning	-11.3956
▁attitudes	-11.3957
▁poison	-11.396
cia	-11.3961
▁ruled	-11.3961
▁von	-11.3961
▁weigh	-11.3963
sley	-11.3965
▁YouTube	-11.3966
▁bundle	-11.3967
▁governance	-11.3967
▁evidently	-11.3968
▁packages	-11.3972
▁mankind	-11.3973
▁laughing	-11.3973
ERS	-11.3974
▁logo	-11.3974
NE	-11.3977
▁pupils	-11.3978
▁sketch	-11.3981
▁tomb	-11.3981
▁linear	-11.3982
▁gum	-11.3983
▁forgot	-11.3984
▁explosion	-11.3986
▁discomfort	-11.3986
▁guides	-11.3987
▁accessories	-11.3987
wig	-11.3992
chin	-11.3993
▁printer	-11.3995
▁behavioral	-11.3995
▁recommendation	-11.3997
▁Ham	-11.3998
▁routes	-11.4
▁licensed	-11.4003
▁simplicity	-11.4006
▁correlation	-11.4006
▁preceding	-11.4007
▁generic	-11.4007
▁diamond	-11.4007
pat	-11.4011
▁Wilson	-11.4013
▁confined	-11.4014
▁separately	-11.4014
▁Solar	-11.4016
against	-11.4016
ele	-11.4017
▁Rod	-11.4018
▁designer	-11.4021
▁practically	-11.4021
▁assert	-11.4022
▁bench	-11.4025
▁loyal	-11.4025
▁wrap	-11.4027
▁prosperity	-11.4027
▁ceased	-11.4028
▁league	-11.4029
▁renowned	-11.4029
▁pity	-11.403
▁adjustments	-11.4031
▁Sign	-11.4032
▁fatty	-11.4032
▁Follow	-11.4034
wear	-11.4038
▁unfortunately	-11.4039
saw	-11.404
FO	-11.4041
FF	-11.4043
▁Mediterranean	-11.4047
▁Singapore	-11.4047
▁inquiry	-11.4047
▁touching	-11.4047
▁Judge	-11.4049
▁offense	-11.405
▁obtaining	-11.4051
▁Protestant	-11.4052
▁Living	-11.4052
▁adopting	-11.4053
control	-11.4056
rot	-11.4059
▁eco	-11.406
▁boil	-11.4061
▁Taylor	-11.4063
best	-11.4065
▁AR	-11.4065
▁cal	-11.4066
▁optimization	-11.4067
▁Ltd	-11.4068
Perhaps	-11.4069
Get	-11.4079
wind	-11.408
bro	-11.4082
ulate	-11.4083
▁rage	-11.4085
AA	-11.4086
mass	-11.4089
▁Quality	-11.409
size	-11.4092
▁spreading	-11.4093
▁wage	-11.4094
▁volunteer	-11.4094
▁Walter	-11.4098
tta	-11.4098
▁fears	-11.4098
▁seasonal	-11.4099
▁Brand	-11.4104
▁Res	-11.4107
▁reception	-11.4108
▁devotion	-11.4108
▁respiratory	-11.4108
done	-11.4109
tie	-11.4109
▁arrange	-11.4109
▁publicly	-11.4112
▁Tour	-11.4113
▁portable	-11.4116
▁unlock	-11.4116
▁agreements	-11.4118
▁Run	-11.4118
▁united	-11.4118
ges	-11.412
believe	-11.412
▁shifting	-11.412
▁incorporated	-11.4121
▁puts	-11.4124
▁Ty	-11.4125
MD	-11.4125
check	-11.4125
child	-11.4127
▁comprehend	-11.4128
▁Always	-11.4129
▁survived	-11.413
▁adventures	-11.413
▁rode	-11.4131
▁lemon	-11.4131
▁vitamins	-11.4133
▁smiled	-11.4136
▁Sy	-11.414
▁Madame	-11.4144
▁norms	-11.4144
▁Eye	-11.4148
▁straw	-11.4149
▁gentlemen	-11.4151
▁valued	-11.4152
▁uncommon	-11.4152
viv	-11.4152
▁Season	-11.4153
▁invisible	-11.4153
▁FA	-11.4157
▁specialists	-11.4157
cial	-11.4158
?**	-11.4161
▁swelling	-11.4163
years	-11.4164
iel	-11.4166
ante	-11.4166
motion	-11.4167
▁ISBN	-11.4169
▁severity	-11.4169
▁hollow	-11.4169
▁farmer	-11.4172
▁slower	-11.4174
ffer	-11.4182
▁nutrient	-11.4183
▁counts	-11.4186
▁si	-11.4186
main	-11.4186
▁phones	-11.4186
▁continuously	-11.4187
▁reflecting	-11.4188
▁lover	-11.4189
▁susceptible	-11.419
▁leak	-11.419
Fig	-11.4191
uous	-11.4192
hem	-11.4193
▁gross	-11.4193
▁particle	-11.4193
shall	-11.4195
▁Napoleon	-11.4196
▁deemed	-11.4197
▁pH	-11.4197
hot	-11.42
Nor	-11.4201
▁priests	-11.4202
▁op	-11.4203
bridge	-11.4204
▁CR	-11.4206
▁NY	-11.4209
Sha	-11.421
▁Harvard	-11.421
▁nut	-11.4213
▁tourism	-11.4214
▁pie	-11.4215
▁Square	-11.4217
▁pat	-11.4222
▁crowded	-11.4226
driven	-11.4227
▁Content	-11.423
▁Linux	-11.4231
▁uncomfortable	-11.4231
▁singer	-11.4233
▁circular	-11.4233
▁deer	-11.4235
eller	-11.4238
▁fierce	-11.4239
bag	-11.4239
keeper	-11.4245
▁narratives	-11.4247
▁Mission	-11.4247
IG	-11.4247
taking	-11.4251
▁eleven	-11.4252
!--	-11.4254
▁induced	-11.4254
▁Games	-11.4254
▁costly	-11.4255
▁cement	-11.4255
km	-11.4257
ML	-11.4258
▁punch	-11.4259
pes	-11.426
▁bleeding	-11.4261
▁showcase	-11.4261
▁poorly	-11.4262
▁remind	-11.4263
▁sustain	-11.4263
TR	-11.4265
▁Earl	-11.4265
▁kg	-11.4266
thing	-11.4266
jur	-11.4267
▁harness	-11.4267
▁Corporation	-11.4272
aunt	-11.4273
mini	-11.4275
vas	-11.4277
▁households	-11.4277
index	-11.4278
▁satisfy	-11.4281
▁assessments	-11.4281
▁Enter	-11.4282
▁Smart	-11.4285
mos	-11.4287
▁ba	-11.4292
▁Officer	-11.4292
▁tanks	-11.4293
▁tournament	-11.4293
▁Kit	-11.4295
yes	-11.4297
▁golf	-11.4299
▁outlined	-11.43
Ka	-11.43
▁explored	-11.4301
izer	-11.4302
▁cre	-11.4308
▁nearest	-11.4309
▁Ancient	-11.431
▁IS	-11.4311
▁Arizona	-11.4314
Figure	-11.4315
▁receiver	-11.4317
dro	-11.4317
llo	-11.4319
▁Bee	-11.432
jan	-11.4321
▁Happy	-11.4321
Da	-11.4322
▁Experience	-11.4322
▁Cost	-11.4324
▁bees	-11.4324
▁advocate	-11.4324
IE	-11.4327
ml	-11.433
▁ancestors	-11.433
▁Del	-11.4331
▁insist	-11.4333
▁evaluating	-11.4334
▁okay	-11.4335
▁spill	-11.4336
▁assure	-11.4337
▁Others	-11.4337
▁Burn	-11.4338
▁performances	-11.4347
tine	-11.4349
makers	-11.4349
Each	-11.4351
▁hunger	-11.4352
▁Tre	-11.4353
▁forum	-11.4354
▁durability	-11.4355
▁exterior	-11.4355
▁nitrogen	-11.4355
▁urine	-11.4356
general	-11.4357
▁stamp	-11.4357
▁Buy	-11.4359
State	-11.4363
▁pipes	-11.4364
▁Poly	-11.4367
▁graphic	-11.4367
▁BY	-11.4368
▁imposed	-11.437
▁spatial	-11.4371
▁viruses	-11.4372
▁stops	-11.4373
▁swim	-11.4374
▁hygiene	-11.4376
▁invitation	-11.4376
▁marble	-11.4377
▁Exchange	-11.4377
▁cleaner	-11.4379
▁Making	-11.4379
▁boundary	-11.438
▁unfortunate	-11.4381
▁Davis	-11.4381
▁poems	-11.4384
▁repeatedly	-11.4384
▁Executive	-11.4387
▁Sky	-11.4392
▁collaborate	-11.4397
▁timber	-11.4397
▁obligations	-11.4401
▁timeline	-11.4404
▁Pra	-11.4404
▁landed	-11.4404
Fa	-11.4405
▁Cre	-11.4406
ifies	-11.4407
oz	-11.4407
dor	-11.4407
gene	-11.4407
▁failing	-11.4408
▁modes	-11.4411
together	-11.4413
Any	-11.4413
▁specify	-11.4413
▁prevents	-11.4417
▁irregular	-11.4418
words	-11.4418
▁probable	-11.4418
▁submission	-11.4419
▁Ci	-11.4421
▁insulation	-11.4423
leveraging	-11.4426
▁statistical	-11.4428
▁Off	-11.443
Last	-11.4431
rah	-11.4431
▁tub	-11.4432
hit	-11.4434
▁souls	-11.4437
▁fu	-11.4438
▁sculpture	-11.4439
pel	-11.444
▁organisations	-11.444
eight	-11.4441
▁continent	-11.4442
magic	-11.4443
Part	-11.4443
▁Body	-11.4444
▁Jon	-11.4447
▁ski	-11.4448
▁Stay	-11.4448
▁Qu	-11.4449
▁TR	-11.4449
▁Throughout	-11.4452
▁finest	-11.4453
▁Pet	-11.4455
▁profiles	-11.4456
▁autumn	-11.446
▁relevance	-11.446
▁Avoid	-11.446
▁ambition	-11.446
▁loads	-11.4462
▁Country	-11.4463
▁Navy	-11.4464
▁owing	-11.4464
pain	-11.4464
▁stems	-11.4466
▁Paper	-11.4466
hole	-11.4468
▁mon	-11.447
▁Dragon	-11.4475
▁reinforce	-11.4479
▁Abraham	-11.4479
▁abnormal	-11.4481
▁intriguing	-11.4482
▁tolerance	-11.4482
▁pencil	-11.4482
▁penalty	-11.4482
▁prevalent	-11.4482
▁crafting	-11.4484
true	-11.4484
▁spoil	-11.4486
▁nerves	-11.4489
▁struggles	-11.4489
▁proceeded	-11.449
actic	-11.4491
▁handed	-11.4493
eye	-11.4498
tem	-11.4499
▁breathe	-11.45
▁zones	-11.45
market	-11.4501
▁cylinder	-11.4501
▁expressing	-11.4502
▁orientation	-11.4503
rive	-11.4503
▁coil	-11.4503
parent	-11.4505
▁amp	-11.4507
eat	-11.4507
▁unclear	-11.4507
dian	-11.4509
corp	-11.4511
▁boot	-11.4513
thus	-11.4514
erated	-11.4514
lings	-11.4514
▁defeated	-11.4516
▁guaranteed	-11.4518
weight	-11.4519
▁execute	-11.4521
family	-11.4522
▁Scholar	-11.4523
▁gallery	-11.4524
▁animation	-11.4524
Bu	-11.4525
▁agenda	-11.4525
▁retention	-11.4525
▁prospective	-11.4526
VI	-11.4527
▁stimulate	-11.4528
▁enhances	-11.453
▁assignment	-11.4531
▁rolls	-11.4534
▁filed	-11.4536
process	-11.4537
nz	-11.4538
▁Deep	-11.4539
▁cups	-11.454
enter	-11.4541
ddy	-11.4542
▁True	-11.4543
▁comprehension	-11.4545
held	-11.4545
▁breach	-11.4546
lk	-11.4546
▁priorities	-11.4548
▁supportive	-11.4549
▁cease	-11.455
perfect	-11.455
uz	-11.4553
▁Peace	-11.4554
▁bacterial	-11.4556
▁UV	-11.4557
▁chords	-11.4557
▁Assembly	-11.4559
rac	-11.4559
▁compatible	-11.456
People	-11.4561
▁lip	-11.4561
▁rocket	-11.4562
▁deserve	-11.4562
▁coupled	-11.4562
EP	-11.4565
▁barely	-11.4565
▁feat	-11.4565
▁absorption	-11.4567
▁bolster	-11.4567
▁vivid	-11.4567
▁Impact	-11.4568
▁oh	-11.4569
food	-11.4569
▁Sim	-11.457
▁hitting	-11.4573
▁fraud	-11.4576
▁str	-11.458
▁blessed	-11.4581
▁Illinois	-11.4583
▁ties	-11.4584
▁financing	-11.4586
▁listened	-11.4587
flower	-11.4587
▁Netherlands	-11.4588
▁impulse	-11.4588
posing	-11.459
▁poker	-11.4592
cultural	-11.4592
▁indicators	-11.4593
▁concentrations	-11.4593
▁Store	-11.4593
▁inventory	-11.4594
▁brass	-11.4594
▁Ross	-11.4596
▁Five	-11.4597
bot	-11.4599
▁lecture	-11.4599
aki	-11.4601
Har	-11.4606
▁Heritage	-11.4609
▁divorce	-11.4609
▁Magazine	-11.4609
▁Collection	-11.4609
▁terrain	-11.461
▁dump	-11.4611
dies	-11.4612
▁answering	-11.4613
lio	-11.4614
Mrs	-11.4618
_;	-11.4618
▁Share	-11.4619
RY	-11.462
para	-11.462
▁smallest	-11.462
▁objection	-11.4622
▁thinks	-11.4622
▁locate	-11.4622
maker	-11.4624
▁nevertheless	-11.4625
tics	-11.4629
▁alliance	-11.4631
▁Alaska	-11.4631
▁Neuro	-11.4632
▁flock	-11.4633
▁trash	-11.4633
▁Hot	-11.4633
oper	-11.4635
▁Hindu	-11.4637
▁motivated	-11.4637
▁Vitamin	-11.464
▁Six	-11.4642
wave	-11.4644
▁belonged	-11.4646
liness	-11.465
condition	-11.4651
▁speeds	-11.4656
▁responded	-11.4661
▁coaches	-11.4662
pass	-11.4664
▁gotten	-11.4665
smith	-11.4665
gui	-11.4665
?](	-11.4667
▁genre	-11.4668
IF	-11.4668
▁kings	-11.4668
Ver	-11.467
▁kiss	-11.4671
▁Century	-11.4671
▁splendid	-11.4673
elli	-11.4673
▁Kansas	-11.4674
VE	-11.4675
▁portions	-11.4675
▁highway	-11.4676
▁tones	-11.4678
▁bend	-11.4679
▁convention	-11.4679
▁ridge	-11.4679
▁duck	-11.4679
atic	-11.4682
▁analyses	-11.4685
▁Talk	-11.4685
ann	-11.4687
▁Mur	-11.469
▁comic	-11.4691
▁uncertain	-11.4691
▁parish	-11.4692
▁invite	-11.4693
perhaps	-11.4694
▁twin	-11.4694
▁strikes	-11.4694
▁genome	-11.4695
Mu	-11.4696
▁portal	-11.4696
version	-11.4698
▁occasional	-11.4698
▁Fu	-11.4698
▁musicians	-11.47
▁Knight	-11.4701
ATE	-11.4701
▁ON	-11.4703
friend	-11.4704
▁Syria	-11.4708
▁Things	-11.4712
▁conservative	-11.4713
▁negotiations	-11.4713
▁dip	-11.4716
▁facilitating	-11.4717
▁modifications	-11.4718
▁Bas	-11.4719
▁petition	-11.4721
▁employing	-11.4722
▁Guy	-11.4723
▁gaze	-11.4724
kel	-11.4726
matter	-11.4728
▁clubs	-11.473
▁Flow	-11.4732
▁Know	-11.4732
grad	-11.4732
▁Wars	-11.4733
▁indoor	-11.4735
▁chip	-11.4735
ION	-11.4736
▁columns	-11.4737
▁predicted	-11.4737
▁idiom	-11.4739
▁remarked	-11.4739
▁Democratic	-11.4739
IX	-11.474
▁grants	-11.474
▁acted	-11.4743
▁ignored	-11.4744
▁Everything	-11.4751
▁presently	-11.4754
▁boots	-11.4754
▁homework	-11.4756
▁Answer	-11.4759
▁inferior	-11.476
court	-11.476
▁voyage	-11.4761
arrow	-11.4761
▁inspiring	-11.4761
DE	-11.4763
▁metrics	-11.4764
powered	-11.4767
▁distances	-11.4767
nature	-11.4768
▁commanded	-11.4771
▁individually	-11.4774
▁Electric	-11.4774
▁Gall	-11.4778
▁Bad	-11.4779
OW	-11.478
▁lion	-11.4781
▁organism	-11.4781
▁nutritional	-11.4781
▁influential	-11.4782
▁sympathy	-11.4782
▁Bitcoin	-11.4782
▁Germans	-11.4784
store	-11.4785
▁Working	-11.4785
▁prophet	-11.4786
rad	-11.4789
▁dispute	-11.4789
language	-11.479
▁dirty	-11.4792
▁Object	-11.4792
plan	-11.4793
▁chips	-11.4795
dri	-11.4796
▁schemes	-11.4802
▁ink	-11.4802
▁Sil	-11.4803
▁Gri	-11.4806
▁proceedings	-11.4807
▁urgent	-11.4809
▁lately	-11.481
young	-11.4812
drop	-11.4812
▁dye	-11.4813
awn	-11.4816
▁synthetic	-11.4816
▁personalized	-11.4817
▁obligation	-11.4817
▁Credit	-11.4819
▁Image	-11.482
▁prisoner	-11.4821
▁Guard	-11.4823
▁interval	-11.4824
gre	-11.4825
▁basin	-11.4826
▁parks	-11.4826
▁dancing	-11.4826
▁embedded	-11.4826
▁fertilizer	-11.4826
▁Pack	-11.4827
▁stove	-11.4828
▁sixth	-11.4829
anna	-11.483
▁Mini	-11.483
▁homo	-11.483
gli	-11.4834
▁assembled	-11.4834
tree	-11.4837
▁rooted	-11.4838
▁magnificent	-11.4841
▁trains	-11.4842
▁caring	-11.4844
hon	-11.4844
oil	-11.4844
▁panic	-11.4849
▁horizon	-11.485
▁Choose	-11.4851
▁filters	-11.4851
▁Course	-11.4852
▁favorable	-11.4855
vine	-11.4859
▁awful	-11.486
▁controversial	-11.486
iers	-11.4862
▁acquaintance	-11.4863
▁seeks	-11.4865
una	-11.4866
▁jurisdiction	-11.4867
▁manufactured	-11.4869
▁dangers	-11.4869
▁tumor	-11.4869
given	-11.4869
MR	-11.4871
▁furnish	-11.4872
ready	-11.4872
▁dwell	-11.4872
▁emphasizes	-11.4872
MT	-11.4873
▁teaches	-11.4873
▁Cut	-11.4874
▁Fer	-11.4874
aux	-11.4879
▁handled	-11.488
ré	-11.488
----"	-11.488
▁canon	-11.4881
uf	-11.4884
Ed	-11.4885
Hz	-11.4885
▁missions	-11.4885
▁Daily	-11.4886
▁Winter	-11.4888
▁stiff	-11.489
ori	-11.4891
▁immigrants	-11.4892
▁widow	-11.4892
▁Margaret	-11.4893
eck	-11.4894
▁obey	-11.4895
rri	-11.4897
history	-11.4898
▁arose	-11.4898
▁weaknesses	-11.4899
▁spinal	-11.4901
pu	-11.4901
▁institutional	-11.4902
▁portrait	-11.4902
dress	-11.4906
▁Student	-11.4906
▁surveys	-11.4908
▁rust	-11.491
▁ingredient	-11.4912
pos	-11.4914
▁atmospheric	-11.4914
▁durable	-11.4914
▁suite	-11.4914
▁paramount	-11.4914
▁scholarship	-11.4915
▁capability	-11.4916
▁constitute	-11.4916
▁stolen	-11.4917
▁funded	-11.4918
▁careers	-11.4918
▁offset	-11.4921
bor	-11.4922
▁sees	-11.4924
▁adhere	-11.4924
travel	-11.4925
▁Princess	-11.4925
▁bind	-11.4928
yne	-11.4929
▁Ford	-11.4931
▁Kids	-11.4933
DC	-11.4935
▁grades	-11.4935
▁theater	-11.4935
▁constitutional	-11.4936
▁entries	-11.4936
▁Victoria	-11.4937
CHAPTER	-11.4937
▁robot	-11.4938
▁glow	-11.4938
▁deepen	-11.494
value	-11.4941
▁concentrate	-11.4941
super	-11.4943
Su	-11.4946
▁steal	-11.4947
CL	-11.4949
cost	-11.4949
data	-11.4952
▁Crown	-11.4955
▁Culture	-11.4958
dict	-11.4959
▁conclude	-11.4959
▁surroundings	-11.4966
▁Hart	-11.4968
▁Kong	-11.4969
▁earthquake	-11.497
▁rack	-11.4979
▁metabolism	-11.4981
▁vaccination	-11.4981
▁Op	-11.4981
▁Polish	-11.4983
▁Cold	-11.4984
▁----	-11.4986
▁upset	-11.4987
▁Gene	-11.4987
▁segments	-11.499
▁demanding	-11.4992
▁margin	-11.4996
▁matching	-11.4999
different	-11.5002
glass	-11.5003
west	-11.5004
▁enthusiasts	-11.5006
UD	-11.5009
▁boiling	-11.5009
▁dice	-11.5011
erson	-11.5017
▁remark	-11.5018
▁flights	-11.5021
▁overlooked	-11.5021
LL	-11.5023
▁heir	-11.5024
▁Alzheimer	-11.5025
▁seldom	-11.5025
▁transcend	-11.5025
▁dumpster	-11.5026
lee	-11.5031
▁organize	-11.5032
article	-11.5035
cause	-11.5041
▁cellular	-11.5044
▁qualify	-11.5044
▁hatch	-11.5045
▁relax	-11.5045
▁opera	-11.5045
chat	-11.5046
▁tile	-11.5047
™	-11.5047
▁assumptions	-11.5051
pul	-11.5051
▁comparable	-11.5053
keeping	-11.5054
▁elderly	-11.5058
▁Bun	-11.5058
▁teens	-11.5061
▁nouns	-11.5065
dging	-11.507
▁friction	-11.507
▁Software	-11.507
▁ka	-11.507
▁subscription	-11.5071
▁disciplines	-11.5072
effective	-11.5072
▁Feb	-11.5074
▁Sarah	-11.5074
▁stern	-11.5075
▁quarters	-11.5077
▁Fred	-11.508
FT	-11.5088
▁circles	-11.5091
▁coloring	-11.5091
▁comply	-11.5091
▁Geo	-11.5092
▁consensus	-11.5092
▁proficiency	-11.5092
▁rises	-11.5093
▁encounters	-11.5093
▁storytelling	-11.5093
▁salad	-11.5093
stra	-11.5094
rt	-11.5096
▁iconic	-11.5097
▁quit	-11.5097
Make	-11.5099
▁Along	-11.51
around	-11.5102
Gen	-11.5104
hat	-11.5105
"--	-11.5107
▁anticipated	-11.5107
▁climbing	-11.5109
▁Republican	-11.511
▁gates	-11.5111
▁shortage	-11.5111
▁Ven	-11.5112
▁operates	-11.5113
▁counterparts	-11.5114
prop	-11.5115
erate	-11.5116
allow	-11.5116
dem	-11.5117
meta	-11.5118
▁angles	-11.5121
▁knock	-11.5121
Work	-11.5121
aba	-11.5121
▁warmth	-11.5122
▁metaphor	-11.5123
▁_[	-11.5123
special	-11.5126
▁File	-11.5128
▁Austria	-11.5128
▁Bull	-11.5129
leave	-11.513
▁newspapers	-11.5131
▁Bow	-11.5132
purpose	-11.5136
Both	-11.5137
▁altitude	-11.5138
▁CT	-11.5138
▁summit	-11.5139
▁baseball	-11.514
▁Motor	-11.514
▁containers	-11.514
▁carrier	-11.5141
AB	-11.5142
▁educate	-11.5143
▁viewers	-11.5146
FS	-11.5147
▁lesser	-11.5148
esh	-11.5149
▁pronoun	-11.5151
▁u	-11.5151
stand	-11.5153
▁tailor	-11.5154
pho	-11.5154
▁cookies	-11.5154
▁limiting	-11.5154
▁cameras	-11.5155
▁sweat	-11.5156
▁Basic	-11.5157
▁Ur	-11.5158
▁facial	-11.516
▁salvation	-11.5161
▁AL	-11.5162
▁relaxation	-11.5163
aged	-11.5163
▁jacket	-11.5163
lau	-11.5163
▁Maryland	-11.5165
▁Advanced	-11.5166
▁boom	-11.5167
▁AN	-11.5168
fore	-11.5175
▁Snow	-11.5175
▁induce	-11.5176
zz	-11.5177
▁Different	-11.5178
▁compelled	-11.5178
Life	-11.5178
▁bat	-11.5179
▁preservation	-11.518
▁Hans	-11.5181
▁votes	-11.5182
Very	-11.5182
▁remarks	-11.5183
▁fuels	-11.5185
▁directory	-11.5186
▁systematic	-11.5186
▁operator	-11.5187
▁horn	-11.519
Miss	-11.5192
▁explicit	-11.5193
▁publications	-11.5195
▁optical	-11.5196
▁rod	-11.5197
▁tan	-11.5197
GB	-11.5198
mol	-11.5201
▁prejudice	-11.5204
τ	-11.5206
▁implied	-11.5206
▁balls	-11.5209
▁bugs	-11.521
▁innovations	-11.521
▁actor	-11.521
▁stepped	-11.521
▁relates	-11.5213
▁dressing	-11.5214
ulated	-11.5216
giving	-11.5217
▁painter	-11.5219
▁pal	-11.5219
▁powered	-11.522
strong	-11.5221
▁severely	-11.5223
▁concentrated	-11.5223
▁similarly	-11.5225
▁calculations	-11.5226
▁judges	-11.5228
▁appetite	-11.5228
▁inevitable	-11.5228
▁helmet	-11.5228
▁Sports	-11.523
▁def	-11.5235
▁interpreted	-11.5239
▁humor	-11.524
▁lifting	-11.5241
▁paintings	-11.5242
therapy	-11.5245
▁Sleep	-11.5246
▁revelation	-11.525
things	-11.5251
▁advancing	-11.5251
cies	-11.5252
▁undergo	-11.5254
▁laying	-11.5254
▁oils	-11.5256
▁reasonably	-11.5257
▁flowing	-11.5259
▁freeze	-11.526
▁Simply	-11.5261
▁Seven	-11.5263
children	-11.5265
fact	-11.5265
▁illnesses	-11.5266
▁idle	-11.5266
▁enjoyment	-11.5267
▁flush	-11.527
enberg	-11.5271
Out	-11.5273
▁Turkish	-11.5274
character	-11.5278
▁roar	-11.5279
FC	-11.5279
short	-11.5279
▁Tower	-11.528
▁canvas	-11.5283
▁beings	-11.5284
▁Cra	-11.5284
CU	-11.5285
inger	-11.5286
▁insufficient	-11.5287
▁appliances	-11.5288
▁Sto	-11.5288
▁companions	-11.5289
▁Hong	-11.5289
▁Sin	-11.5289
ologist	-11.529
▁atoms	-11.529
▁Sound	-11.5291
▁Arabic	-11.5292
▁infer	-11.5292
▁shaft	-11.5293
▁rigid	-11.5296
▁Conservation	-11.5297
▁absurd	-11.5297
quin	-11.5297
▁overnight	-11.5298
▁jewel	-11.5298
▁bump	-11.5299
radi	-11.5301
embl	-11.5304
▁episodes	-11.5305
▁Invest	-11.5306
▁conclusions	-11.5306
office	-11.5306
▁combinations	-11.5309
▁seated	-11.5312
wire	-11.5312
▁briefly	-11.5315
▁toys	-11.5321
▁constitutes	-11.5322
zar	-11.5322
▁Introduction	-11.5323
CP	-11.5323
▁deny	-11.5324
gno	-11.5326
ridge	-11.5328
▁dated	-11.5332
▁thesis	-11.5332
▁analyzed	-11.5333
loc	-11.5334
▁rendering	-11.5338
▁confess	-11.5339
▁insert	-11.5339
▁Cast	-11.5343
nit	-11.5343
▁Imperial	-11.5343
▁Bureau	-11.5343
▁Steel	-11.5344
▁exhaust	-11.5347
▁electro	-11.5347
▁Volume	-11.5348
▁flies	-11.5351
mato	-11.5351
▁Thor	-11.5352
anta	-11.5356
nine	-11.5357
▁amid	-11.5359
▁chapters	-11.5361
stat	-11.5362
▁declined	-11.5364
▁credibility	-11.5366
▁smiling	-11.5366
▁observing	-11.5366
▁Arctic	-11.5366
ira	-11.5367
▁unwanted	-11.5367
een	-11.5371
▁Example	-11.5371
bie	-11.5371
▁ritual	-11.5373
▁angel	-11.5375
▁lacking	-11.5377
▁justify	-11.5377
▁defines	-11.5377
▁banking	-11.5378
zing	-11.5379
▁Fun	-11.5379
▁Everyone	-11.538
▁lend	-11.538
▁Net	-11.538
▁limbs	-11.5381
normal	-11.5384
awa	-11.5387
certain	-11.5389
▁collision	-11.5389
Mi	-11.5392
▁Commons	-11.5393
▁PhD	-11.5398
worm	-11.5398
▁legend	-11.5398
hum	-11.5399
▁Fan	-11.5399
▁winner	-11.5401
lessness	-11.5402
▁customized	-11.5402
▁colored	-11.5403
▁arrow	-11.5404
▁jam	-11.5406
▁elevation	-11.5406
▁mounting	-11.5407
▁suspension	-11.5412
▁Missouri	-11.5412
King	-11.5413
▁colleges	-11.5414
▁fusion	-11.5414
High	-11.5418
▁^	-11.5421
▁Tr	-11.5421
Today	-11.5421
▁prolonged	-11.5421
Tu	-11.5423
▁artwork	-11.5425
▁beautifully	-11.5427
▁Fla	-11.5429
▁yields	-11.5429
▁travelers	-11.5433
answer	-11.5434
cott	-11.5434
tian	-11.5435
▁iPad	-11.5436
sburg	-11.5436
lob	-11.5437
adi	-11.5439
▁reject	-11.5439
▁Risk	-11.5441
▁passages	-11.5443
▁glorious	-11.5443
▁Ray	-11.5444
▁charging	-11.5444
▁Usually	-11.5452
public	-11.5455
▁drum	-11.5455
▁Researchers	-11.5455
▁visually	-11.5456
often	-11.5456
▁documented	-11.5459
▁coordination	-11.546
core	-11.5461
▁Police	-11.5463
▁wherein	-11.5465
tron	-11.5466
▁brains	-11.5468
▁graph	-11.5469
▁lawn	-11.547
yle	-11.547
World	-11.5474
▁Imagine	-11.5475
SM	-11.5477
girl	-11.5478
Introduction	-11.548
risk	-11.548
rent	-11.548
▁©	-11.5481
ν	-11.5482
▁Wisconsin	-11.5482
▁plasma	-11.5483
▁developer	-11.5483
▁Regular	-11.5485
dio	-11.5485
▁Sta	-11.5486
▁axis	-11.549
exp	-11.5493
▁mock	-11.5493
▁snake	-11.5493
ogen	-11.5496
cular	-11.5496
false	-11.5499
▁prayers	-11.5499
▁backgrounds	-11.5499
WS	-11.5499
Welcome	-11.55
stop	-11.5501
mph	-11.5502
▁hop	-11.5502
▁electronics	-11.5502
ij	-11.5504
▁balloon	-11.5507
gest	-11.5508
ali	-11.5508
▁myth	-11.5509
▁Cover	-11.551
aj	-11.551
▁Index	-11.5511
trust	-11.5511
beat	-11.5512
AI	-11.5516
▁psycho	-11.5518
▁heroes	-11.5519
▁infants	-11.5519
▁headed	-11.5521
▁dealt	-11.5525
▁accommodation	-11.5528
rm	-11.5529
▁Alabama	-11.5529
▁allies	-11.553
▁viral	-11.5531
Using	-11.5532
▁basement	-11.5532
▁shelf	-11.5532
▁sovereign	-11.5534
Bi	-11.5534
▁rushed	-11.5535
▁Stock	-11.5535
▁expose	-11.5536
▁nights	-11.5536
▁politicians	-11.5537
▁suspended	-11.5538
▁scar	-11.5538
▁Ice	-11.554
FE	-11.5541
lift	-11.5541
Christian	-11.5541
▁Lower	-11.5547
▁drunk	-11.5548
▁utter	-11.5549
oni	-11.5549
▁finishing	-11.555
▁Gr	-11.5551
▁imagined	-11.5552
RNA	-11.5552
cot	-11.5552
▁skull	-11.5553
▁Sweden	-11.5553
▁damaging	-11.5553
▁mortal	-11.5553
▁enduring	-11.5553
ACE	-11.5554
▁dropping	-11.5555
▁Core	-11.5557
fusion	-11.5557
▁Tor	-11.5558
Ac	-11.5561
▁pivotal	-11.5563
▁sixty	-11.5565
▁tourist	-11.5565
▁Agriculture	-11.5567
meaning	-11.5568
object	-11.557
▁rap	-11.557
▁Tip	-11.557
need	-11.5573
▁pioneer	-11.5574
▁Insurance	-11.5576
▁garlic	-11.5576
▁Capital	-11.5576
LD	-11.5578
▁"[	-11.5581
Ge	-11.5584
aga	-11.5584
▁intersection	-11.5586
rey	-11.559
Ab	-11.5591
quir	-11.5593
spell	-11.5595
culture	-11.5596
▁tire	-11.5596
▁conscience	-11.5601
▁attraction	-11.5602
▁Looking	-11.5603
▁evolutionary	-11.5604
ame	-11.5605
sil	-11.5607
definition	-11.5609
Ru	-11.5611
▁Mike	-11.5611
▁combines	-11.5611
▁counting	-11.5612
▁Angel	-11.5615
kill	-11.5615
▁float	-11.5616
rog	-11.5617
Find	-11.5617
▁beta	-11.5617
▁racing	-11.5617
▁Sk	-11.5624
▁installing	-11.5626
▁loading	-11.563
▁Lar	-11.563
▁holidays	-11.563
pathy	-11.563
▁lawyers	-11.5632
ncy	-11.5632
▁macro	-11.5635
▁utterly	-11.5637
▁Drive	-11.564
correct	-11.5641
ILL	-11.5641
▁Establish	-11.5641
▁hack	-11.5642
une	-11.5642
zu	-11.5643
▁sl	-11.5644
▁cite	-11.5647
▁deciding	-11.5648
▁metabolic	-11.5648
▁lets	-11.5648
fort	-11.565
▁fiscal	-11.565
▁Base	-11.5651
▁wealthy	-11.5653
ear	-11.5653
▁corporations	-11.5654
▁Past	-11.5656
▁exceptions	-11.5657
▁HE	-11.5658
▁cope	-11.5659
▁dr	-11.5661
▁Luc	-11.5662
commerce	-11.5663
▁vet	-11.5664
▁reviewed	-11.5667
Sh	-11.5668
lier	-11.567
Ga	-11.567
▁anniversary	-11.5671
▁tu	-11.5673
edit	-11.5674
▁Dam	-11.5678
▁Product	-11.5681
▁RA	-11.5684
bet	-11.5685
yet	-11.5685
▁hiding	-11.5686
ots	-11.569
▁shine	-11.5693
except	-11.5694
business	-11.5694
▁multitude	-11.5695
▁prevalence	-11.5695
▁thunder	-11.5695
gla	-11.5697
paid	-11.5698
▁voters	-11.5704
▁invasive	-11.5704
▁ter	-11.5705
mination	-11.5706
▁accepting	-11.5707
▁handy	-11.5707
▁sisters	-11.5707
ories	-11.5707
▁resting	-11.571
bone	-11.5714
▁reputable	-11.5719
▁holistic	-11.5719
▁ultra	-11.572
▁appearing	-11.572
▁perfection	-11.5721
▁clip	-11.5724
▁suck	-11.5725
lut	-11.5725
▁MI	-11.5726
▁releases	-11.5726
▁sciences	-11.5727
▁Box	-11.5727
hun	-11.5727
lea	-11.5729
▁cu	-11.5733
._--	-11.5734
git	-11.5735
health	-11.5735
▁shoe	-11.5738
▁operators	-11.5739
▁nearer	-11.5741
▁deposits	-11.5741
graphic	-11.5743
▁fulfill	-11.5745
▁altar	-11.5746
BO	-11.5747
▁Relations	-11.5747
▁saddle	-11.5749
▁que	-11.575
▁Allen	-11.5751
eno	-11.5751
▁ranges	-11.5752
▁Sw	-11.5755
mount	-11.5756
tier	-11.5756
SH	-11.5756
▁statue	-11.5759
qual	-11.5761
section	-11.5762
▁technically	-11.5762
▁Ang	-11.5764
virus	-11.5765
▁Minnesota	-11.5767
DP	-11.5767
▁disrupt	-11.5767
▁architectural	-11.5767
Up	-11.5772
▁dies	-11.5772
▁Mobile	-11.5773
better	-11.5773
▁fragments	-11.5775
▁hazards	-11.5776
▁rabbit	-11.5777
▁modeling	-11.5777
▁Dead	-11.5779
▁impressed	-11.5779
▁Iraq	-11.578
▁brew	-11.5781
▁manuscript	-11.5783
▁probe	-11.5783
▁variant	-11.5783
▁researcher	-11.5785
▁washed	-11.5785
▁hosted	-11.5788
season	-11.5789
▁amino	-11.579
▁Customer	-11.5791
▁sediment	-11.5791
▁alleviate	-11.5791
▁curtain	-11.5792
▁max	-11.5798
▁Helen	-11.5798
structure	-11.5798
▁figured	-11.5799
osa	-11.5799
▁teachings	-11.5799
▁owe	-11.58
lou	-11.5803
▁lid	-11.5805
DM	-11.5806
▁exquisite	-11.5806
▁lib	-11.5806
▁globally	-11.5808
▁arising	-11.581
▁efficacy	-11.5814
scape	-11.5814
Mon	-11.5815
cas	-11.5815
▁Vietnam	-11.5815
▁excerpt	-11.5815
▁announce	-11.5816
▁defining	-11.5817
BI	-11.5819
▁Value	-11.5821
▁Document	-11.5826
▁Clark	-11.5826
▁stake	-11.5827
").	-11.5828
skin	-11.5829
uma	-11.583
▁merchant	-11.5831
cles	-11.5831
▁paste	-11.5831
▁Wolf	-11.5832
▁refined	-11.5833
▁retained	-11.5835
ith	-11.5836
▁Cas	-11.5837
ī	-11.584
▁penalties	-11.584
▁footprint	-11.5841
▁Scottish	-11.5841
▁HP	-11.5844
NS	-11.5845
▁herbs	-11.5848
▁workforce	-11.5849
▁outbreak	-11.5849
▁Nick	-11.5851
▁Gre	-11.5851
▁Process	-11.5853
▁declaration	-11.5855
▁bride	-11.5855
▁suppress	-11.5859
▁sequences	-11.586
▁consuming	-11.5863
▁Sydney	-11.5864
▁Diego	-11.5865
▁hiring	-11.5865
▁beast	-11.5865
▁labels	-11.5866
▁lease	-11.5867
▁diagnose	-11.587
▁Vin	-11.5871
pose	-11.5872
▁gospel	-11.5879
▁spur	-11.5879
▁structured	-11.588
Black	-11.588
BL	-11.5881
▁Ana	-11.5883
fan	-11.5883
▁primitive	-11.5883
▁Sri	-11.5883
rose	-11.5884
Free	-11.5885
▁outward	-11.5885
▁witnessed	-11.5885
mur	-11.5887
▁Jordan	-11.5888
▁binary	-11.589
▁Theory	-11.589
Cc	-11.5892
▁strap	-11.5895
Finally	-11.5895
▁swift	-11.5896
rite	-11.5896
rr	-11.5906
▁illustration	-11.5907
▁Save	-11.591
▁sigh	-11.5911
▁oxide	-11.5912
▁remedy	-11.5913
▁assurance	-11.5913
▁wrist	-11.5913
▁wiring	-11.5913
▁descent	-11.5914
▁Israeli	-11.5918
▁refine	-11.5918
▁PRO	-11.5921
Ja	-11.5921
corn	-11.5926
▁Prior	-11.5928
figure	-11.5928
kg	-11.5929
▁relieve	-11.5929
▁Mississippi	-11.593
rc	-11.5932
ICE	-11.5932
income	-11.5932
tour	-11.5933
▁Dor	-11.5933
▁Coll	-11.5933
dam	-11.5934
▁ce	-11.5937
р	-11.5937
▁protagonist	-11.5937
▁hotels	-11.5937
▁USB	-11.5938
▁allocation	-11.5938
whether	-11.5939
mates	-11.5939
▁indirect	-11.594
rank	-11.5942
screen	-11.5942
▁frost	-11.5942
▁bolt	-11.5944
▁Kim	-11.5945
hab	-11.5947
Pi	-11.595
aut	-11.5951
▁delighted	-11.5953
▁guilt	-11.5953
Would	-11.5954
udi	-11.5956
aster	-11.5957
▁Rep	-11.5957
▁ruins	-11.5958
▁draws	-11.5961
▁Authority	-11.5965
▁Zo	-11.5965
▁supper	-11.5967
▁handful	-11.5969
▁confirmation	-11.5971
letter	-11.5971
▁Labor	-11.5972
▁deliberately	-11.5972
▁hy	-11.5974
▁travels	-11.5975
▁specialize	-11.5977
▁momentum	-11.5979
▁demonstration	-11.5982
▁guards	-11.5984
▁biblical	-11.5986
▁territories	-11.5986
▁economies	-11.5986
▁digestive	-11.5987
▁mainstream	-11.5987
pay	-11.599
▁unfold	-11.5991
▁snap	-11.5993
▁enters	-11.5995
▁FIG	-11.5999
▁bother	-11.6
▁daughters	-11.6001
▁feasible	-11.6003
▁Poor	-11.6005
▁guarantees	-11.6006
▁endeavor	-11.6007
▁digest	-11.6008
▁influencing	-11.6011
▁foremost	-11.6011
▁Lit	-11.6011
▁Wildlife	-11.6011
▁Solutions	-11.6011
▁Sar	-11.6012
blood	-11.6013
▁Dog	-11.6014
fast	-11.6014
break	-11.6016
▁knot	-11.6017
▁guardian	-11.6017
▁desperate	-11.6019
▁collar	-11.6019
▁exc	-11.6021
▁dash	-11.6022
▁urged	-11.6028
▁repairs	-11.6029
▁Olympic	-11.6035
▁Switzerland	-11.6035
▁imperative	-11.6035
▁Otherwise	-11.6036
▁invested	-11.6037
▁formats	-11.6037
▁accustomed	-11.6038
BE	-11.6038
▁relies	-11.604
NI	-11.6042
almost	-11.6042
ival	-11.6043
▁lu	-11.6045
subject	-11.6047
▁stretched	-11.6048
▁Effective	-11.6053
borne	-11.6053
big	-11.6056
▁AP	-11.6056
▁Kan	-11.6059
▁Toronto	-11.606
▁dementia	-11.606
▁penetrate	-11.6061
▁Easter	-11.6061
▁earnings	-11.6061
block	-11.6062
▁stainless	-11.6062
▁jury	-11.6063
blog	-11.6064
▁wo	-11.6067
▁doses	-11.6069
▁consisted	-11.6069
▁sits	-11.607
▁mines	-11.6072
▁stocks	-11.6073
ior	-11.6076
▁mandate	-11.6078
▁Moore	-11.6078
▁signing	-11.608
▁suspicious	-11.6081
▁boast	-11.6084
▁forcing	-11.6085
▁Nat	-11.6085
▁warfare	-11.6085
▁YOU	-11.6085
▁fats	-11.6085
▁pig	-11.6086
▁Pot	-11.6088
▁Sen	-11.609
▁tagged	-11.609
AGE	-11.6093
▁threatening	-11.6094
gus	-11.6095
vil	-11.6097
▁ok	-11.6098
▁kindly	-11.61
▁wars	-11.6101
▁Albert	-11.6101
▁ser	-11.6102
▁Philippines	-11.6105
▁stating	-11.6105
root	-11.6108
host	-11.6108
▁clue	-11.6108
▁tangible	-11.611
▁zinc	-11.611
▁quotation	-11.611
▁Annual	-11.611
▁salary	-11.6111
url	-11.6111
▁ethics	-11.6114
▁emails	-11.6114
solving	-11.6115
▁Current	-11.6116
pack	-11.6117
station	-11.6117
▁Direct	-11.6119
rpg	-11.6123
HO	-11.6124
▁deficiency	-11.6124
▁overhead	-11.6126
▁conform	-11.6127
▁damages	-11.6129
▁Hamilton	-11.6132
▁Der	-11.6133
▁develops	-11.6134
pent	-11.6134
▁Majesty	-11.6135
▁therapies	-11.6135
▁bicycle	-11.6135
▁Bush	-11.6135
▁corners	-11.6135
()	-11.6137
nish	-11.6137
▁Lan	-11.6141
▁chairs	-11.6144
vey	-11.6145
TON	-11.6146
Cha	-11.6147
▁crying	-11.6149
▁denote	-11.615
▁booking	-11.6151
▁advisor	-11.6151
▁Technical	-11.6152
▁strains	-11.6155
▁novels	-11.6157
access	-11.6158
among	-11.6158
AST	-11.6159
▁athletic	-11.616
▁ceramic	-11.616
▁manipulation	-11.616
▁biodiversity	-11.616
▁cottage	-11.616
▁speculation	-11.616
christ	-11.616
▁knight	-11.6161
App	-11.6164
▁elite	-11.6165
▁franchise	-11.6165
clear	-11.6165
▁pigment	-11.6166
doc	-11.6172
▁solemn	-11.6172
▁tags	-11.6173
shop	-11.6173
ALL	-11.6174
▁tastes	-11.6177
grass	-11.6177
▁privilege	-11.6179
greg	-11.6179
▁correction	-11.6179
rob	-11.618
learn	-11.6181
▁Foreign	-11.6181
▁Role	-11.6182
▁easiest	-11.6185
▁flavour	-11.6185
▁naked	-11.6185
AV	-11.6186
▁mal	-11.6188
▁Generally	-11.6191
▁legally	-11.6196
![	-11.6197
▁Kra	-11.6197
tend	-11.6198
▁earning	-11.6198
▁font	-11.6202
TP	-11.6202
atur	-11.6203
▁Companies	-11.6204
▁mammals	-11.6204
Whether	-11.6207
▁grams	-11.6207
▁Thi	-11.6209
▁harbor	-11.621
Though	-11.6213
▁polymer	-11.6214
native	-11.6215
▁entails	-11.6219
▁laughter	-11.6221
▁pm	-11.6221
▁authorized	-11.6222
apos	-11.6229
▁consulting	-11.623
▁Together	-11.6234
▁vulnerability	-11.6235
▁Pin	-11.6237
▁passenger	-11.6238
▁firing	-11.6243
▁refugees	-11.6243
▁Brook	-11.6243
▁hired	-11.6244
▁commerce	-11.6244
▁impose	-11.6244
▁acknowledged	-11.6246
▁specimens	-11.6246
▁defects	-11.6247
iate	-11.6249
▁Grade	-11.6252
please	-11.6254
▁coral	-11.6254
mill	-11.6256
took	-11.626
▁adaptability	-11.6262
▁reproduction	-11.6263
▁oneself	-11.6264
▁Lang	-11.6264
▁Corps	-11.6266
social	-11.6267
About	-11.6271
depend	-11.6272
▁Pla	-11.6273
▁seasoned	-11.6274
AND	-11.6275
▁Cru	-11.6275
▁relatives	-11.6276
▁tales	-11.6277
▁purchases	-11.6284
heim	-11.6286
▁emphasizing	-11.6286
▁wreck	-11.6286
▁Gor	-11.6286
enti	-11.6288
MAN	-11.629
▁revision	-11.629
poli	-11.6294
scribed	-11.6294
▁forgive	-11.6295
RD	-11.6297
▁vaccines	-11.6299
usually	-11.6299
ñ	-11.6301
▁pond	-11.6303
FR	-11.6307
▁sensory	-11.6309
▁acoustic	-11.6311
▁illusion	-11.6311
▁philosophical	-11.6311
▁scent	-11.6315
eri	-11.6316
▁Ak	-11.6317
▁shy	-11.6319
▁persist	-11.6319
Lord	-11.632
wh	-11.632
▁Works	-11.6323
▁wounds	-11.6324
borough	-11.6325
▁proactive	-11.6325
▁Mus	-11.6326
▁Sad	-11.6326
▁whispered	-11.6331
▁titled	-11.6333
▁Below	-11.6334
ibly	-11.6334
▁inviting	-11.6337
▁foolish	-11.6338
▁calculation	-11.634
▁ports	-11.634
▁sins	-11.634
▁amendment	-11.6341
▁suppliers	-11.6343
▁solved	-11.6344
▁echo	-11.6344
▁rows	-11.6345
▁respected	-11.6346
▁Available	-11.6348
▁Buck	-11.6348
shore	-11.6348
▁cargo	-11.635
▁phases	-11.635
▁fer	-11.6354
▁RO	-11.6355
▁dad	-11.6359
�	-11.6362
▁tragedy	-11.6362
▁Laboratory	-11.6362
▁Whatever	-11.6362
▁desktop	-11.6362
▁Hitler	-11.6363
lusion	-11.6363
▁cleared	-11.6364
▁abandon	-11.6366
▁EPA	-11.6366
▁vapor	-11.6369
turned	-11.6371
▁chase	-11.6371
▁alleged	-11.6375
map	-11.6376
▁Lock	-11.6377
Click	-11.6378
▁tubes	-11.6378
▁Jupiter	-11.6378
▁beg	-11.638
▁Better	-11.638
▁mindset	-11.6384
Im	-11.6385
▁Until	-11.6386
▁Avenue	-11.6388
▁Tennessee	-11.6388
▁ignorance	-11.6388
▁imperial	-11.6388
▁Adams	-11.6389
▁Universe	-11.6389
▁disabled	-11.6394
nell	-11.6395
Despite	-11.6397
VA	-11.64
▁stays	-11.6403
bing	-11.6403
▁Rob	-11.6405
▁testimony	-11.6405
▁Industrial	-11.6406
government	-11.6408
▁hike	-11.6409
▁Made	-11.6409
▁traders	-11.6409
▁apples	-11.641
▁triangle	-11.6413
▁rated	-11.6414
▁aunt	-11.6416
▁_**	-11.6417
▁administered	-11.6424
▁intensive	-11.6424
▁pursued	-11.6424
HER	-11.6424
▁Spi	-11.6426
wheel	-11.6427
▁streamline	-11.6427
▁makers	-11.6427
▁explanations	-11.6428
▁Regardless	-11.6428
▁Lawrence	-11.6435
▁Lin	-11.6436
▁cents	-11.6436
▁conductor	-11.6436
▁Senior	-11.6436
▁fake	-11.6438
▁Palace	-11.644
rise	-11.6446
▁console	-11.6446
▁Questions	-11.6447
▁Susan	-11.6448
▁haul	-11.6448
sail	-11.6449
▁voted	-11.645
fair	-11.645
▁Neither	-11.6454
▁tourists	-11.6454
plain	-11.6454
horn	-11.6455
▁Total	-11.6455
▁composer	-11.6455
Sir	-11.6457
с	-11.6457
▁heap	-11.6461
ops	-11.6464
AG	-11.6465
▁underneath	-11.6465
▁Trail	-11.6465
▁transplant	-11.6465
whole	-11.6466
▁jail	-11.6467
▁crawl	-11.6469
ishing	-11.6469
▁exile	-11.6469
▁bulb	-11.6472
▁NE	-11.6473
ils	-11.6476
national	-11.6478
▁specially	-11.648
▁Fast	-11.6481
▁pad	-11.6482
▁skip	-11.6485
▁backed	-11.6486
▁hurried	-11.6486
▁Log	-11.6488
▁contamination	-11.6489
▁believing	-11.6491
▁horrible	-11.6491
▁hurry	-11.6491
ike	-11.6491
▁govern	-11.6492
French	-11.6493
▁Miller	-11.6493
▁aligned	-11.6493
alter	-11.6494
ologists	-11.65
▁Gray	-11.65
▁cage	-11.6501
▁pronounce	-11.6501
▁maid	-11.6502
▁permits	-11.6503
View	-11.6506
▁Grey	-11.6508
▁scored	-11.6509
▁Var	-11.6517
▁safeguard	-11.6518
▁romance	-11.6518
▁Manual	-11.6519
▁Person	-11.6519
▁Potter	-11.6519
▁Band	-11.6519
▁col	-11.6519
▁Wy	-11.6522
▁broker	-11.6524
▁upward	-11.6528
▁awake	-11.6528
▁GPS	-11.6528
▁HA	-11.6532
EAR	-11.6533
IST	-11.6537
lv	-11.6539
▁goodness	-11.6541
▁Urban	-11.6541
fest	-11.6542
▁Something	-11.6542
▁ambitious	-11.6542
▁definitive	-11.6542
OE	-11.6542
▁wrapped	-11.6543
▁Biology	-11.6545
▁assign	-11.6545
OUR	-11.6545
AF	-11.6547
themselves	-11.6551
▁convince	-11.6551
biotic	-11.6552
▁distribute	-11.6552
▁raid	-11.6554
▁streaming	-11.6554
▁Bri	-11.6554
Art	-11.6555
▁Tan	-11.6557
▁Eric	-11.6558
▁earnest	-11.6559
▁Rule	-11.656
Hello	-11.656
lev	-11.6563
asse	-11.6563
▁investigations	-11.6564
hear	-11.6566
▁traveled	-11.6566
▁Kings	-11.6566
IO	-11.6567
▁cavalry	-11.6569
▁controversy	-11.6569
▁Studio	-11.6569
▁Provide	-11.6569
▁opposing	-11.6569
▁flew	-11.6569
▁processor	-11.6571
▁Muslims	-11.6571
▁FDA	-11.6573
▁disappointed	-11.6573
▁reside	-11.6577
ional	-11.6581
close	-11.6582
knowledge	-11.6583
jun	-11.6583
▁detector	-11.6583
ota	-11.6583
▁Unless	-11.6583
▁threaten	-11.6584
▁Cam	-11.6584
▁succession	-11.6585
▁surge	-11.6587
NR	-11.6591
▁walks	-11.6592
▁cab	-11.6592
tho	-11.6594
▁Instagram	-11.6595
▁ignorant	-11.6595
▁unpleasant	-11.6596
▁pension	-11.6596
▁reproductive	-11.6596
▁dramatically	-11.6596
▁robots	-11.6597
▁await	-11.6598
▁blessing	-11.6598
mart	-11.6599
▁illustrations	-11.6601
ault	-11.6602
▁reactor	-11.6607
▁BA	-11.6609
▁outfit	-11.6613
▁unconscious	-11.6614
▁notification	-11.6614
▁endure	-11.6614
▁supporters	-11.6615
▁admiration	-11.6616
▁outlets	-11.6618
Home	-11.6619
▁believers	-11.662
▁culinary	-11.6621
▁plausible	-11.6621
▁Freedom	-11.6621
▁Private	-11.6622
pound	-11.6624
▁solo	-11.6624
▁seventh	-11.6627
▁feared	-11.6629
▁ads	-11.6631
▁optional	-11.6632
▁descended	-11.6633
▁Mod	-11.6634
▁cla	-11.6634
▁Currently	-11.6635
doubt	-11.6635
▁iv	-11.664
▁candle	-11.6643
▁bush	-11.6644
▁Defn	-11.6644
▁neural	-11.6648
▁strengthening	-11.6648
lug	-11.6648
▁regain	-11.6649
▁silly	-11.665
▁Malaysia	-11.6652
▁surrender	-11.6653
▁battles	-11.6654
▁cancel	-11.6654
pla	-11.6654
▁dock	-11.6655
▁lakes	-11.6664
thal	-11.6666
OH	-11.6668
▁shirt	-11.667
▁talented	-11.6672
▁frustration	-11.6673
▁nurturing	-11.6673
▁swept	-11.6673
Pe	-11.6673
▁Airport	-11.6675
▁diving	-11.6675
thorn	-11.6676
….	-11.6677
▁surround	-11.668
▁critics	-11.6681
▁suits	-11.6681
went	-11.6682
▁Either	-11.6683
▁warn	-11.6683
▁Reserve	-11.6683
▁Nar	-11.6686
▁complaint	-11.6686
Add	-11.6688
▁whisper	-11.669
▁sticks	-11.6694
bla	-11.6696
▁fold	-11.6696
▁expecting	-11.6698
▁wicked	-11.6698
▁eliminating	-11.67
▁turbine	-11.67
▁humidity	-11.6701
Those	-11.6704
ege	-11.6704
▁stressed	-11.6704
▁underscores	-11.6707
rooms	-11.6707
CK	-11.6708
▁pockets	-11.6708
grav	-11.6708
▁pipeline	-11.6709
lex	-11.6709
iva	-11.6711
lag	-11.6713
▁chiefly	-11.6714
▁specifications	-11.6716
▁inhibit	-11.6716
▁intuitive	-11.6719
lder	-11.672
tiv	-11.672
▁sealed	-11.6723
▁Donald	-11.6725
Based	-11.6725
▁posture	-11.6726
▁simpler	-11.6727
▁Assessment	-11.6728
▁hostile	-11.6728
▁nonprofit	-11.6729
▁spacecraft	-11.6729
▁newer	-11.6732
▁erected	-11.6741
Could	-11.6741
▁Mas	-11.6742
▁limb	-11.6742
depth	-11.6742
▁recognised	-11.6742
olo	-11.6743
▁originated	-11.6744
▁urge	-11.6744
▁supreme	-11.6746
▁coding	-11.6751
Roman	-11.6751
▁lightly	-11.6752
▁Intelligence	-11.6753
▁kilometers	-11.6753
▁sends	-11.6753
▁mapping	-11.6755
▁compression	-11.6755
▁trails	-11.6755
▁discoveries	-11.6758
▁ALL	-11.6759
▁enforce	-11.6761
▁Connect	-11.6763
MENT	-11.6765
Trans	-11.6766
hearted	-11.6766
morph	-11.6767
▁soda	-11.6769
▁potent	-11.6769
▁evaluated	-11.6771
▁advancement	-11.6771
▁Nation	-11.6776
PG	-11.6776
▁scarce	-11.6776
cord	-11.6776
Edit	-11.6777
ECT	-11.6778
▁frequencies	-11.6779
▁citizenship	-11.6781
reference	-11.6782
LT	-11.6784
▁writings	-11.6784
▁Animal	-11.6786
▁CC	-11.6791
▁Path	-11.6791
▁flip	-11.6793
Next	-11.6793
▁exhibited	-11.6795
sometimes	-11.6796
▁Alice	-11.6796
▁arises	-11.6796
organ	-11.6797
▁Shak	-11.6799
▁poster	-11.68
however	-11.68
▁hormones	-11.68
▁noon	-11.68
▁cultivated	-11.6802
▁Mah	-11.6802
archive	-11.6802
▁Chan	-11.6805
▁communicating	-11.6806
▁hurricane	-11.6806
л	-11.6806
▁bronze	-11.6806
▁socket	-11.6806
▁garbage	-11.6806
▁unhappy	-11.6807
▁Planning	-11.6808
▁Norway	-11.6808
▁Cer	-11.6809
▁extinction	-11.6809
▁treats	-11.6811
camp	-11.6812
coat	-11.6814
▁plague	-11.6815
▁imported	-11.6816
▁permanently	-11.6817
either	-11.6817
speak	-11.6817
▁promoted	-11.6818
▁clicking	-11.6818
▁Hunt	-11.6821
harm	-11.6822
vian	-11.6822
fly	-11.6823
BB	-11.6824
tti	-11.6826
▁nodes	-11.6827
▁transmit	-11.6828
Old	-11.6829
▁Clo	-11.683
▁Picture	-11.683
▁utmost	-11.6833
▁frameworks	-11.6834
▁offspring	-11.6835
ook	-11.6835
▁poured	-11.684
▁revised	-11.684
▁Jay	-11.684
▁node	-11.684
third	-11.6842
▁Cel	-11.6843
▁Reference	-11.6844
▁cows	-11.6844
RR	-11.6844
generation	-11.6846
▁elect	-11.685
experience	-11.6854
▁Caesar	-11.6857
▁stretching	-11.6857
▁furnished	-11.6858
Back	-11.6858
▁bishop	-11.6859
▁spouse	-11.686
▁Kat	-11.686
▁scroll	-11.686
ume	-11.6861
▁notably	-11.6865
▁selective	-11.6865
▁switching	-11.6866
toxic	-11.6866
▁torn	-11.6872
▁trim	-11.6872
rough	-11.6873
trip	-11.6876
uni	-11.688
pus	-11.6881
▁developmental	-11.6881
▁enjoyable	-11.6882
▁Anthony	-11.6883
▁delayed	-11.6884
▁bro	-11.6885
ú	-11.6886
▁Industry	-11.6886
▁congregation	-11.6886
▁monetary	-11.6886
▁steadily	-11.6886
▁messaging	-11.6887
▁interference	-11.6887
▁lap	-11.6887
▁empowerment	-11.6888
▁pardon	-11.6888
▁livestock	-11.6889
illi	-11.6891
quest	-11.6891
▁historians	-11.6891
escent	-11.6891
▁undertaking	-11.6891
▁attacking	-11.6893
ckle	-11.6895
pop	-11.6896
▁admire	-11.6896
▁fig	-11.6897
▁threads	-11.6897
▁Barb	-11.6898
join	-11.6899
▁§	-11.6899
ended	-11.6899
▁Date	-11.69
▁apt	-11.6901
TM	-11.6902
rail	-11.6903
▁Brain	-11.6903
bur	-11.6908
▁burial	-11.6914
▁posed	-11.6915
▁oath	-11.6916
▁freezing	-11.6916
▁elementary	-11.6919
▁alphabet	-11.6919
cis	-11.6919
▁leisure	-11.6919
▁elder	-11.692
TY	-11.692
rap	-11.6922
▁improves	-11.6924
seven	-11.6927
sheet	-11.6927
ANT	-11.693
▁Horse	-11.6932
reading	-11.6933
▁intermediate	-11.6933
lap	-11.6934
▁dominated	-11.6938
▁reap	-11.6939
▁LE	-11.694
▁reserves	-11.694
▁gorgeous	-11.694
▁automation	-11.694
▁genus	-11.6941
▁traces	-11.6942
▁traditionally	-11.6942
▁DI	-11.6943
▁spike	-11.6943
▁lining	-11.6944
▁historically	-11.6945
▁Mountains	-11.6945
▁Ros	-11.6945
uit	-11.6947
urge	-11.6948
▁shout	-11.6949
▁ja	-11.695
ao	-11.6952
find	-11.6952
CM	-11.6953
▁conditioning	-11.6953
taken	-11.6955
▁literal	-11.6955
pens	-11.6956
▁Indigenous	-11.6957
ée	-11.6959
eli	-11.6959
▁monarch	-11.696
▁refuge	-11.696
▁Leave	-11.696
▁Too	-11.6961
▁Express	-11.6962
rig	-11.6967
▁Ukraine	-11.6968
▁advocacy	-11.6968
▁Eagle	-11.6968
DB	-11.6968
rio	-11.697
▁brow	-11.6974
defined	-11.6974
▁sunset	-11.6974
▁charter	-11.6975
▁tre	-11.6976
clo	-11.6978
▁renewed	-11.698
▁activated	-11.698
▁subjective	-11.6985
team	-11.6986
▁extraction	-11.6987
▁assessing	-11.6988
▁CE	-11.6989
▁symbolic	-11.6991
▁Penn	-11.6992
▁crystals	-11.6992
▁Palestinian	-11.6995
▁degradation	-11.6995
▁versatility	-11.6995
▁telescope	-11.6995
▁adverb	-11.6995
▁repetition	-11.6996
bird	-11.6996
operative	-11.6997
▁tablets	-11.6998
▁swear	-11.6999
▁Song	-11.6999
oso	-11.7002
▁towel	-11.7003
▁Pur	-11.7004
▁Indiana	-11.7005
▁Schools	-11.7007
tia	-11.7008
account	-11.7009
Mor	-11.7011
▁interrupted	-11.7011
temp	-11.7012
▁hazard	-11.7013
lice	-11.7015
▁Tech	-11.7016
cht	-11.7019
iki	-11.702
▁Met	-11.702
▁presumably	-11.7021
▁offence	-11.7021
onia	-11.7023
▁seminar	-11.7023
▁heater	-11.7024
Ber	-11.7024
lux	-11.7026
▁overlap	-11.703
handed	-11.703
ience	-11.7031
itz	-11.7032
▁hue	-11.7032
▁hopefully	-11.7033
▁modules	-11.7035
▁Howard	-11.7036
mut	-11.7037
frame	-11.7037
AU	-11.7039
▁acquainted	-11.7039
headed	-11.7039
reason	-11.7041
▁Lea	-11.7043
▁downward	-11.7047
▁receipt	-11.7049
IES	-11.705
▁Psychology	-11.705
▁neurons	-11.7051
▁provinces	-11.7052
▁contaminated	-11.7053
▁Dream	-11.7053
tam	-11.7053
▁catching	-11.7057
▁Less	-11.7058
Thus	-11.7059
share	-11.7059
HC	-11.7061
vac	-11.7062
OK	-11.7065
yu	-11.7066
▁nurses	-11.7067
▁violation	-11.7068
▁Nutrition	-11.7069
▁Performance	-11.707
▁SS	-11.707
material	-11.7072
lying	-11.7072
▁extensively	-11.7073
Sc	-11.7074
ender	-11.7075
gold	-11.7076
▁Pain	-11.7076
▁fare	-11.7076
 	-11.7076
▁gambling	-11.7077
▁guiding	-11.7077
▁Patrick	-11.7077
▁Cause	-11.7078
▁Film	-11.7078
▁Front	-11.7078
▁Complete	-11.7079
▁halt	-11.7079
▁Ruth	-11.7082
▁administrators	-11.7082
▁shells	-11.7084
agon	-11.7085
▁negatively	-11.7085
hound	-11.7085
▁elevate	-11.7087
▁habitats	-11.7087
BT	-11.7088
▁Norman	-11.7089
▁downtown	-11.7089
▁lust	-11.709
▁Communication	-11.709
▁sized	-11.7092
▁fragment	-11.7093
▁depths	-11.7094
▁openly	-11.7095
wo	-11.7099
▁Ker	-11.71
death	-11.71
carbon	-11.7101
lem	-11.7101
▁positioning	-11.7101
▁Quick	-11.7101
efficient	-11.7102
▁correspondence	-11.7102
ō	-11.7104
▁Ontario	-11.7104
▁longevity	-11.7104
▁compensate	-11.7104
▁funeral	-11.7104
▁autism	-11.7104
▁idiomatic	-11.7104
▁Franklin	-11.7106
▁google	-11.7106
▁deployment	-11.7107
▁settlers	-11.7107
▁synthesis	-11.7107
▁landmark	-11.7108
EG	-11.7109
▁marketplace	-11.711
▁pathways	-11.7112
▁critic	-11.7113
▁successor	-11.7116
▁Estate	-11.7116
▁deserves	-11.7117
▁DA	-11.7117
▁modifier	-11.712
▁perceptions	-11.7121
▁attribute	-11.7127
▁Meta	-11.7127
▁cute	-11.7128
▁fog	-11.7128
▁balancing	-11.7129
▁Steven	-11.7129
storm	-11.7132
▁instrumental	-11.7132
▁producer	-11.7132
▁tragic	-11.7132
▁Creative	-11.7133
▁pumps	-11.7133
tig	-11.7133
▁blocked	-11.7133
ska	-11.7137
▁Pal	-11.7138
ometer	-11.7138
Second	-11.7139
▁Rich	-11.7141
▁claiming	-11.7141
▁inscription	-11.7143
▁rats	-11.7143
ello	-11.7145
т	-11.7145
inus	-11.7145
▁CH	-11.7148
▁Clinical	-11.7149
▁curse	-11.7149
▁seamlessly	-11.715
▁Bru	-11.7152
▁hi	-11.7154
lessly	-11.7157
Example	-11.7159
▁intricacies	-11.7159
▁auction	-11.7159
MI	-11.716
▁Portuguese	-11.716
▁naval	-11.716
▁je	-11.716
▁mast	-11.7162
DD	-11.7162
cycle	-11.7162
webster	-11.7163
▁databases	-11.7163
▁refresh	-11.7164
▁remainder	-11.7164
▁jumped	-11.7164
scription	-11.7167
▁cooler	-11.7169
▁canoe	-11.717
III	-11.7172
▁schedules	-11.7173
▁Half	-11.7174
vor	-11.7174
▁medicines	-11.7174
▁Sci	-11.7175
▁HR	-11.7177
▁Additional	-11.7178
▁Rh	-11.718
▁Lead	-11.7182
▁Roger	-11.7184
lav	-11.7185
▁Record	-11.7186
▁warned	-11.7187
▁cultivating	-11.7187
▁epidemic	-11.7187
▁Defense	-11.7187
▁storing	-11.7187
▁concise	-11.7187
▁batter	-11.7191
▁complain	-11.7192
VP	-11.7193
▁sensible	-11.7193
▁armies	-11.7193
▁Ky	-11.7193
▁publisher	-11.7194
▁Staff	-11.7194
▁mist	-11.7195
ón	-11.7196
▁peel	-11.7196
▁Ter	-11.7197
▁Overall	-11.72
▁Tin	-11.7201
▁Secondly	-11.7202
▁entrepreneurs	-11.7202
eff	-11.7204
▁Perfect	-11.7205
▁upright	-11.7207
▁compliment	-11.7207
▁qu	-11.7208
▁eagerly	-11.7208
▁indicator	-11.7209
hau	-11.7209
LES	-11.721
▁beating	-11.7212
▁Vice	-11.7212
▁Question	-11.7213
▁Douglas	-11.7214
▁ambiguous	-11.7215
▁plaque	-11.7215
▁myriad	-11.7215
▁chaos	-11.7215
Maybe	-11.7215
▁midnight	-11.7217
▁Holland	-11.7217
▁Letter	-11.7218
▁instructor	-11.7218
▁Upper	-11.7219
formed	-11.7219
houses	-11.7219
uer	-11.722
Speak	-11.722
illo	-11.7221
▁secretary	-11.7221
▁cough	-11.7221
▁Steam	-11.7221
▁Cool	-11.7222
uel	-11.7222
corpus	-11.7222
▁counseling	-11.7224
▁revealing	-11.7225
loss	-11.7226
án	-11.7227
dark	-11.7227
▁Double	-11.7228
▁ram	-11.7232
▁Oak	-11.7232
▁domains	-11.7235
▁bulbs	-11.7236
▁digit	-11.7238
▁Proc	-11.7238
mmer	-11.724
▁adjustment	-11.724
ager	-11.7241
▁Bern	-11.7241
urg	-11.7242
▁acquiring	-11.7243
▁galaxy	-11.7243
´	-11.7243
▁courtesy	-11.7243
tir	-11.7246
▁startup	-11.7246
▁batch	-11.7247
▁undertake	-11.7249
pie	-11.725
▁substantially	-11.7252
Act	-11.7253
▁outdoors	-11.7254
▁Taking	-11.7255
▁antibiotics	-11.7256
▁witnesses	-11.7257
▁behold	-11.7259
spire	-11.7259
voc	-11.726
▁candy	-11.726
Only	-11.7261
▁triggers	-11.7262
ipe	-11.7265
▁enhancement	-11.7265
▁simulation	-11.7265
▁frontier	-11.7268
▁Side	-11.7269
▁legislative	-11.7271
▁Agreement	-11.7271
▁Orleans	-11.7271
▁Jefferson	-11.7271
▁radar	-11.7271
▁transforming	-11.7271
▁wagon	-11.7272
▁adjusted	-11.7272
▁tiger	-11.7272
▁dependence	-11.7273
▁commenced	-11.7274
▁reminded	-11.7275
ific	-11.7277
▁lasted	-11.7277
lb	-11.7279
Was	-11.7281
▁assertion	-11.7282
Je	-11.7282
▁slots	-11.7283
▁GA	-11.7284
▁activate	-11.7287
personal	-11.7287
▁XX	-11.7287
▁imagery	-11.7287
▁Close	-11.7288
▁duct	-11.7288
rain	-11.7288
▁punish	-11.7288
ode	-11.7292
Key	-11.7293
dq	-11.7293
▁historian	-11.7294
▁afterward	-11.7297
▁artillery	-11.7299
▁furnace	-11.7299
▁wilderness	-11.7299
▁cathedral	-11.7299
▁encryption	-11.7299
▁revolutionary	-11.7302
▁Style	-11.7302
▁assessed	-11.7304
▁wellness	-11.7304
▁crafts	-11.7306
hydr	-11.7307
▁clearer	-11.7308
▁Village	-11.731
▁spear	-11.7312
▁Faith	-11.7312
▁delete	-11.7313
▁parliament	-11.7315
▁Uncle	-11.7316
GS	-11.7317
ela	-11.7317
▁failures	-11.7317
brook	-11.732
filled	-11.732
iya	-11.7324
merriam	-11.7327
▁Afghanistan	-11.7327
▁proximity	-11.7327
▁surviving	-11.7327
▁radius	-11.7327
▁clerk	-11.7327
counter	-11.733
▁temp	-11.7333
▁Sab	-11.7333
▁Scientific	-11.7334
▁assisted	-11.7335
grove	-11.7336
Inter	-11.7337
▁camps	-11.7339
▁depart	-11.7342
gl	-11.7342
▁Honor	-11.7344
▁odor	-11.7344
▁airline	-11.7345
▁SD	-11.7346
▁grammatically	-11.7348
▁Newton	-11.7348
quite	-11.7348
hur	-11.7351
▁veins	-11.7353
▁preliminary	-11.7355
▁amenities	-11.7355
▁infectious	-11.7355
▁conquest	-11.7355
▁Eve	-11.7356
ament	-11.7357
spot	-11.7358
▁EV	-11.7358
▁Ron	-11.7358
▁divisions	-11.7359
▁upload	-11.736
▁counties	-11.736
▁Deb	-11.7361
▁nowhere	-11.7366
▁rotate	-11.7368
▁grinding	-11.737
▁fro	-11.7372
▁Heat	-11.7373
▁spa	-11.7373
▁presentations	-11.7376
▁potato	-11.7378
▁Sept	-11.7378
phor	-11.7378
▁Mix	-11.7379
▁Cr	-11.7379
▁proposals	-11.7381
▁nicely	-11.7381
▁aggregate	-11.7383
▁reservation	-11.7383
▁ridiculous	-11.7383
▁temporarily	-11.7383
▁banana	-11.7384
▁Frederick	-11.7384
▁URL	-11.7385
▁tricks	-11.7387
▁sponsor	-11.739
vocation	-11.739
dead	-11.7392
▁Pie	-11.7393
money	-11.7394
▁litter	-11.7394
Au	-11.7394
▁verses	-11.7395
location	-11.7398
working	-11.7401
▁lace	-11.7403
▁fluids	-11.7404
dry	-11.7405
▁Protect	-11.7408
▁Chronic	-11.7408
▁projected	-11.7408
▁natives	-11.741
▁unprecedented	-11.7411
▁voluntary	-11.7411
▁Statistics	-11.7411
▁pillow	-11.7412
▁fridge	-11.7412
▁Almost	-11.7413
▁query	-11.7414
▁fourteen	-11.7415
▁Shop	-11.7415
▁grandfather	-11.7418
▁empower	-11.7419
▁Server	-11.7421
▁recognise	-11.7422
bring	-11.7423
▁Dia	-11.7425
▁awards	-11.7425
▁warmer	-11.7426
▁aspirations	-11.7428
▁strongest	-11.7432
▁survivors	-11.7432
▁Brian	-11.7436
▁poses	-11.7438
azi	-11.7438
▁Simple	-11.7438
▁drawings	-11.744
bow	-11.744
▁shining	-11.744
▁organizing	-11.7441
▁sailing	-11.7441
▁Movement	-11.7442
▁Aunt	-11.7443
▁wives	-11.7443
▁Excel	-11.7443
▁Morgan	-11.7444
▁hum	-11.7444
vie	-11.7445
▁saint	-11.7447
▁Grace	-11.7448
▁Write	-11.7448
mul	-11.7448
string	-11.745
atus	-11.7451
▁manually	-11.7452
▁intentions	-11.7452
▁sway	-11.7453
▁Political	-11.7453
seem	-11.7453
▁assignments	-11.7453
▁Allow	-11.7455
▁deliberate	-11.7456
▁User	-11.7457
▁Bin	-11.7457
aro	-11.7459
▁static	-11.746
▁contend	-11.746
▁Forum	-11.7462
ledge	-11.7462
▁knowledgeable	-11.7462
▁lime	-11.7463
OM	-11.7463
genic	-11.7466
psi	-11.7467
▁modification	-11.7468
▁Kentucky	-11.7468
▁dwarf	-11.7468
▁vinegar	-11.7468
▁dictate	-11.7471
return	-11.7472
▁vest	-11.7473
▁whale	-11.7473
UC	-11.7473
▁Develop	-11.7475
▁templates	-11.7476
▁Editor	-11.7476
click	-11.7477
Water	-11.7478
▁SH	-11.7479
seen	-11.7479
stream	-11.748
▁argues	-11.7481
deep	-11.7482
▁attractions	-11.7484
▁counted	-11.7484
ido	-11.7486
▁shades	-11.7487
▁mob	-11.7487
▁None	-11.7491
▁onset	-11.7491
mean	-11.7492
stage	-11.7495
ε	-11.7497
▁census	-11.7497
▁consequently	-11.7497
▁quarrel	-11.7497
▁thriving	-11.7497
gua	-11.7497
▁coarse	-11.7498
▁psychologist	-11.7499
pick	-11.7499
AW	-11.7499
▁aspiring	-11.7499
▁electron	-11.7499
▁wins	-11.75
▁tumors	-11.7501
probably	-11.7501
imi	-11.7503
poor	-11.7505
uro	-11.7506
▁disposed	-11.7507
deal	-11.7513
agh	-11.7517
▁comedy	-11.7519
▁Attack	-11.7521
▁nails	-11.7521
lop	-11.7522
▁relaxed	-11.7523
▁villain	-11.7523
▁val	-11.7524
▁bas	-11.7525
▁mould	-11.7526
▁burnt	-11.7526
▁fibre	-11.7526
▁forehead	-11.7526
▁microwave	-11.7526
▁Divine	-11.7526
▁wolf	-11.7528
INE	-11.7531
▁Youth	-11.7532
chemical	-11.7534
Si	-11.7537
ternal	-11.7537
▁Bol	-11.7539
asp	-11.754
▁beaten	-11.7541
▁acknowledging	-11.7542
▁envelope	-11.7542
▁Khan	-11.7545
▁Present	-11.7546
▁Soon	-11.7546
dium	-11.7547
▁prohibit	-11.7548
▁Allah	-11.7549
▁Diet	-11.7549
▁Pel	-11.755
▁neighboring	-11.755
▁Teaching	-11.7551
▁genetics	-11.7552
mitted	-11.7552
▁bot	-11.7553
▁($	-11.7553
▁ratings	-11.7553
▁Pick	-11.7554
▁arriving	-11.7554
▁podcast	-11.7554
▁unfamiliar	-11.7555
▁Years	-11.7556
▁Senator	-11.7558
activity	-11.7561
TU	-11.7561
▁collectively	-11.7561
cate	-11.7563
Learn	-11.7564
▁hesitate	-11.7566
LAN	-11.7567
▁regulated	-11.7567
▁VII	-11.7572
▁labeled	-11.7573
▁sperm	-11.7574
END	-11.7574
blue	-11.758
GO	-11.7581
▁Visual	-11.7581
▁Mason	-11.7582
within	-11.7582
▁composite	-11.7583
▁maneuver	-11.7583
▁surveillance	-11.7583
▁allergies	-11.7583
▁elbow	-11.7583
▁mimic	-11.7584
▁hazardous	-11.7584
▁unemployment	-11.7584
▁storms	-11.7585
▁stool	-11.7586
cit	-11.7586
▁bloom	-11.7587
▁neat	-11.759
▁Focus	-11.7592
London	-11.7592
▁patches	-11.7594
▁anticipate	-11.7595
▁Las	-11.7598
▁successive	-11.7599
▁boiler	-11.7606
calc	-11.7606
ema	-11.7607
▁switches	-11.7609
▁encompass	-11.7609
keep	-11.7611
▁pedal	-11.7614
▁Chemical	-11.7614
▁constructive	-11.7614
▁vow	-11.7615
▁floors	-11.7615
▁tomatoes	-11.7616
▁Gil	-11.7618
▁liable	-11.7619
witch	-11.762
centric	-11.7621
izz	-11.7622
▁axe	-11.7623
▁summon	-11.7623
▁competent	-11.7625
▁sang	-11.7626
▁lest	-11.7627
▁CPU	-11.7627
▁Wal	-11.7627
▁Standards	-11.7627
▁beaches	-11.7629
▁eu	-11.7632
▁cannon	-11.7638
▁Dave	-11.7639
owned	-11.764
aid	-11.764
Keep	-11.7641
▁Affairs	-11.7641
▁acceleration	-11.7641
▁cushion	-11.7641
▁Therapy	-11.7641
▁buzz	-11.7642
▁Orange	-11.7645
▁Sho	-11.7645
attack	-11.7646
CF	-11.7647
▁Anderson	-11.7647
nam	-11.765
uh	-11.765
eria	-11.7651
▁chap	-11.7652
▁marched	-11.7652
▁Jew	-11.7653
▁Money	-11.7654
▁rob	-11.7657
volution	-11.7659
visit	-11.7659
▁beard	-11.766
sti	-11.7661
▁entertaining	-11.7661
▁charts	-11.7664
Wi	-11.7664
▁strangers	-11.7665
oids	-11.7665
▁predators	-11.7668
▁deeds	-11.7668
Str	-11.7668
ι	-11.767
″	-11.767
▁Buddhist	-11.767
▁deficit	-11.767
▁rebellion	-11.767
gor	-11.767
▁basketball	-11.767
▁dial	-11.7674
▁bon	-11.7676
▁bases	-11.768
▁rash	-11.7682
▁discovering	-11.7685
HD	-11.7686
▁Din	-11.7686
▁wallet	-11.7686
▁Maine	-11.7686
HT	-11.7689
vat	-11.769
later	-11.7691
▁jumping	-11.7692
mode	-11.7693
pool	-11.7694
polis	-11.7697
▁Ok	-11.7697
▁CL	-11.7697
▁GDP	-11.7698
▁daylight	-11.7699
▁cosmetic	-11.7699
▁explosive	-11.7699
▁Nicholas	-11.7699
▁Prophet	-11.7699
▁semantic	-11.7699
▁compost	-11.77
▁flank	-11.77
▁circumstance	-11.7702
▁attendance	-11.7702
▁religions	-11.7703
▁chapel	-11.7704
▁GR	-11.7705
built	-11.7705
hai	-11.7706
▁equip	-11.7706
nk	-11.7708
▁IBM	-11.771
▁polished	-11.771
▁affiliate	-11.7711
▁dislike	-11.7712
boo	-11.7714
lyn	-11.7716
▁Kn	-11.772
▁dia	-11.7721
▁proves	-11.7723
Sal	-11.7723
ugh	-11.7725
▁sal	-11.7726
conven	-11.7728
▁cricket	-11.7728
▁utilization	-11.7728
▁Knowledge	-11.7729
▁dreadful	-11.7729
neu	-11.7732
▁carved	-11.7733
▁tablet	-11.7734
cci	-11.7735
▁responding	-11.7738
▁terrorist	-11.7738
▁Kate	-11.7739
▁transported	-11.774
▁oceans	-11.7741
▁debut	-11.7741
▁ge	-11.7742
▁Kill	-11.7744
▁Friends	-11.7746
▁complaints	-11.7747
strange	-11.7748
ologies	-11.7748
▁Ages	-11.7748
▁Neu	-11.7749
▁metric	-11.775
reach	-11.775
▁shouted	-11.7751
imo	-11.7752
▁Teachers	-11.7756
▁accumulation	-11.7758
▁Houston	-11.7758
▁Memorial	-11.7758
German	-11.7758
▁Disorder	-11.7759
onym	-11.776
oot	-11.7761
▁chin	-11.7762
▁Rio	-11.7762
▁appropriately	-11.7762
▁rim	-11.7765
▁Phase	-11.7766
cop	-11.7766
▁markers	-11.7766
";	-11.7767
▁melting	-11.7767
▁Eat	-11.777
▁deployed	-11.777
▁LO	-11.7772
▁Marie	-11.7772
▁Kal	-11.7773
▁bur	-11.7773
▁depicted	-11.7776
▁incidence	-11.7778
maid	-11.7779
▁screws	-11.7781
▁Method	-11.7783
ents	-11.7784
▁sheer	-11.7785
▁diamonds	-11.7786
▁Caribbean	-11.7787
▁empirical	-11.7787
▁memorial	-11.7787
▁reservoir	-11.7787
▁automobile	-11.7787
▁Disney	-11.7789
▁Zoo	-11.779
▁thereof	-11.7792
▁zoo	-11.7792
▁molecule	-11.7794
▁touches	-11.7795
▁Easy	-11.7797
wy	-11.7802
▁fortunate	-11.7804
bol	-11.7805
rather	-11.7806
uda	-11.7808
▁continuity	-11.7817
▁stigma	-11.7817
▁skirt	-11.7817
▁ugly	-11.7817
▁Jeff	-11.7817
▁generates	-11.7819
▁discusses	-11.782
▁picturesque	-11.782
▁bucket	-11.782
optic	-11.7821
▁elephant	-11.7823
▁smartphone	-11.7823
▁honestly	-11.7825
rop	-11.7825
▁predictions	-11.7826
>>	-11.7826
▁uncover	-11.7831
▁mac	-11.7832
uzz	-11.7832
thinking	-11.7833
▁demo	-11.7834
▁Py	-11.784
forward	-11.784
zel	-11.784
▁Sep	-11.7842
▁Near	-11.7843
▁reads	-11.7845
▁inherited	-11.7846
▁immunity	-11.7846
spirit	-11.7846
▁smoothly	-11.7847
▁FREE	-11.7848
▁contempt	-11.785
▁por	-11.7851
▁imbalance	-11.7851
▁Row	-11.7851
▁filing	-11.7852
▁disputes	-11.7853
▁methodology	-11.7854
▁initiated	-11.7854
sent	-11.7854
tribu	-11.7856
▁Regional	-11.7856
▁undertaken	-11.7857
San	-11.7857
wish	-11.7857
trap	-11.7858
▁quicker	-11.7858
▁Gro	-11.7858
▁invalid	-11.786
▁Arch	-11.786
▁jack	-11.786
TT	-11.7861
▁foundations	-11.7865
▁affirm	-11.7867
▁surprisingly	-11.7869
▁Stage	-11.7873
▁subjected	-11.7874
▁cavity	-11.7876
▁cuisine	-11.7876
▁celebrating	-11.7876
ifer	-11.7876
▁decorative	-11.7877
▁heightened	-11.7877
energy	-11.7878
eva	-11.7881
▁withdrawal	-11.7882
▁Rad	-11.7882
lank	-11.7883
vable	-11.7883
▁Sor	-11.7884
▁Ensure	-11.7885
▁variants	-11.7886
▁cone	-11.7887
▁Sure	-11.7887
Check	-11.7887
▁editors	-11.7888
pac	-11.7892
▁emit	-11.7895
ila	-11.7895
▁Fat	-11.7895
▁SW	-11.7897
▁Construction	-11.7901
▁Mit	-11.7902
iac	-11.7902
thro	-11.7905
▁malicious	-11.7906
▁fellows	-11.7906
▁destroying	-11.7908
▁plugin	-11.7908
▁Prize	-11.7909
▁disposition	-11.7909
▁gel	-11.791
▁caps	-11.7911
NT	-11.7912
eyes	-11.7912
dig	-11.7912
▁pic	-11.7913
▁Bed	-11.7914
current	-11.7914
river	-11.7914
▁scout	-11.7916
▁restrict	-11.7918
▁Limited	-11.792
)||	-11.792
▁frames	-11.7922
chief	-11.7923
dol	-11.7924
▁ko	-11.7927
forth	-11.7932
▁inventor	-11.7932
mag	-11.7932
▁exhausted	-11.7932
fici	-11.7932
tract	-11.7933
▁withstand	-11.7934
▁aloud	-11.7935
ا	-11.7935
▁arthritis	-11.7936
[...]
