<pad>	0
</s>	0
<unk>	0
<extra_id_0>	0
<extra_id_1>	0
<extra_id_2>	0
<extra_id_3>	0
<extra_id_4>	0
<extra_id_5>	0
<extra_id_6>	0
<extra_id_7>	0
<extra_id_8>	0
<extra_id_9>	0
<extra_id_10>	0
<extra_id_11>	0
<extra_id_12>	0
<extra_id_13>	0
<extra_id_14>	0
<extra_id_15>	0
<extra_id_16>	0
<extra_id_17>	0
<extra_id_18>	0
<extra_id_19>	0
<extra_id_20>	0
<extra_id_21>	0
<extra_id_22>	0
<extra_id_23>	0
<extra_id_24>	0
<extra_id_25>	0
<extra_id_26>	0
<extra_id_27>	0
<extra_id_28>	0
<extra_id_29>	0
<extra_id_30>	0
<extra_id_31>	0
<extra_id_32>	0
<extra_id_33>	0
<extra_id_34>	0
<extra_id_35>	0
<extra_id_36>	0
<extra_id_37>	0
<extra_id_38>	0
<extra_id_39>	0
<extra_id_40>	0
<extra_id_41>	0
<extra_id_42>	0
<extra_id_43>	0
<extra_id_44>	0
<extra_id_45>	0
<extra_id_46>	0
<extra_id_47>	0
<extra_id_48>	0
<extra_id_49>	0
<extra_id_50>	0
<extra_id_51>	0
<extra_id_52>	0
<extra_id_53>	0
<extra_id_54>	0
<extra_id_55>	0
<extra_id_56>	0
<extra_id_57>	0
<extra_id_58>	0
<extra_id_59>	0
<extra_id_60>	0
<extra_id_61>	0
<extra_id_62>	0
<extra_id_63>	0
<extra_id_64>	0
<extra_id_65>	0
<extra_id_66>	0
<extra_id_67>	0
<extra_id_68>	0
<extra_id_69>	0
<extra_id_70>	0
<extra_id_71>	0
<extra_id_72>	0
<extra_id_73>	0
<extra_id_74>	0
<extra_id_75>	0
<extra_id_76>	0
<extra_id_77>	0
<extra_id_78>	0
<extra_id_79>	0
<extra_id_80>	0
<extra_id_81>	0
<extra_id_82>	0
<extra_id_83>	0
<extra_id_84>	0
<extra_id_85>	0
<extra_id_86>	0
<extra_id_87>	0
<extra_id_88>	0
<extra_id_89>	0
<extra_id_90>	0
<extra_id_91>	0
<extra_id_92>	0
<extra_id_93>	0
<extra_id_94>	0
<extra_id_95>	0
<extra_id_96>	0
<extra_id_97>	0
<extra_id_98>	0
<extra_id_99>	0
<extra_id_100>	0
<extra_id_101>	0
<extra_id_102>	0
<extra_id_103>	0
<extra_id_104>	0
<extra_id_105>	0
<extra_id_106>	0
<extra_id_107>	0
<extra_id_108>	0
<extra_id_109>	0
<extra_id_110>	0
<extra_id_111>	0
<extra_id_112>	0
<extra_id_113>	0
<extra_id_114>	0
<extra_id_115>	0
<extra_id_116>	0
<extra_id_117>	0
<extra_id_118>	0
<extra_id_119>	0
<extra_id_120>	0
<extra_id_121>	0
<extra_id_122>	0
<extra_id_123>	0
<extra_id_124>	0
<extra_id_125>	0
<extra_id_126>	0
<extra_id_127>	0
<extra_id_128>	0
<extra_id_129>	0
<extra_id_130>	0
<extra_id_131>	0
<extra_id_132>	0
<extra_id_133>	0
<extra_id_134>	0
<extra_id_135>	0
<extra_id_136>	0
<extra_id_137>	0
<extra_id_138>	0
<extra_id_139>	0
<extra_id_140>	0
<extra_id_141>	0
<extra_id_142>	0
<extra_id_143>	0
<extra_id_144>	0
<extra_id_145>	0
<extra_id_146>	0
<extra_id_147>	0
<extra_id_148>	0
<extra_id_149>	0
<extra_id_150>	0
<extra_id_151>	0
<extra_id_152>	0
<extra_id_153>	0
<extra_id_154>	0
<extra_id_155>	0
<extra_id_156>	0
<extra_id_157>	0
<extra_id_158>	0
<extra_id_159>	0
<extra_id_160>	0
<extra_id_161>	0
<extra_id_162>	0
<extra_id_163>	0
<extra_id_164>	0
<extra_id_165>	0
<extra_id_166>	0
<extra_id_167>	0
<extra_id_168>	0
<extra_id_169>	0
<extra_id_170>	0
<extra_id_171>	0
<extra_id_172>	0
<extra_id_173>	0
<extra_id_174>	0
<extra_id_175>	0
<extra_id_176>	0
<extra_id_177>	0
<extra_id_178>	0
<extra_id_179>	0
<extra_id_180>	0
<extra_id_181>	0
<extra_id_182>	0
<extra_id_183>	0
<extra_id_184>	0
<extra_id_185>	0
<extra_id_186>	0
<extra_id_187>	0
<extra_id_188>	0
<extra_id_189>	0
<extra_id_190>	0
<extra_id_191>	0
<extra_id_192>	0
<extra_id_193>	0
<extra_id_194>	0
<extra_id_195>	0
<extra_id_196>	0
<extra_id_197>	0
<extra_id_198>	0
<extra_id_199>	0
<extra_id_200>	0
<extra_id_201>	0
<extra_id_202>	0
<extra_id_203>	0
<extra_id_204>	0
<extra_id_205>	0
<extra_id_206>	0
<extra_id_207>	0
<extra_id_208>	0
<extra_id_209>	0
<extra_id_210>	0
<extra_id_211>	0
<extra_id_212>	0
<extra_id_213>	0
<extra_id_214>	0
<extra_id_215>	0
<extra_id_216>	0
<extra_id_217>	0
<extra_id_218>	0
<extra_id_219>	0
<extra_id_220>	0
<extra_id_221>	0
<extra_id_222>	0
<extra_id_223>	0
<extra_id_224>	0
<extra_id_225>	0
<extra_id_226>	0
<extra_id_227>	0
<extra_id_228>	0
<extra_id_229>	0
<extra_id_230>	0
<extra_id_231>	0
<extra_id_232>	0
<extra_id_233>	0
<extra_id_234>	0
<extra_id_235>	0
<extra_id_236>	0
<extra_id_237>	0
<extra_id_238>	0
<extra_id_239>	0
<extra_id_240>	0
<extra_id_241>	0
<extra_id_242>	0
<extra_id_243>	0
<extra_id_244>	0
<extra_id_245>	0
<extra_id_246>	0
<extra_id_247>	0
<extra_id_248>	0
<extra_id_249>	0
<extra_id_250>	0
<extra_id_251>	0
<extra_id_252>	0
<extra_id_253>	0
<extra_id_254>	0
<extra_id_255>	0
[R]	0
[X]	0
[S]	0
<style:grammar>	0
<style:concise>	0
<style:elaborate>	0
<style:professional>	0
<style:friendly>	0
<style:assertive>	0
<style:empathetic>	0
<style:fluent>	0
<style:formal>	0
<style:paraphrase>	0
<style:polite>	0
<style:simplify>	0
<text_to_rewrite>	0
</text_to_rewrite>	0
<reserved_0>	0
<reserved_1>	0
<reserved_2>	0
<reserved_3>	0
<reserved_4>	0
<reserved_5>	0
<reserved_6>	0
<reserved_7>	0
<reserved_8>	0
<reserved_9>	0
<reserved_10>	0
<reserved_11>	0
<reserved_12>	0
<reserved_13>	0
<reserved_14>	0
<reserved_15>	0
<reserved_16>	0
<reserved_17>	0
<reserved_18>	0
<reserved_19>	0
<reserved_20>	0
<reserved_21>	0
<reserved_22>	0
<reserved_23>	0
<reserved_24>	0
<reserved_25>	0
<reserved_26>	0
<reserved_27>	0
<reserved_28>	0
<reserved_29>	0
<reserved_30>	0
<reserved_31>	0
<reserved_32>	0
<reserved_33>	0
<reserved_34>	0
<reserved_35>	0
<cli_reserved_0>	0
<cli_reserved_1>	0
<cli_reserved_2>	0
<cli_reserved_3>	0
<cli_reserved_4>	0
<cli_reserved_5>	0
<cli_reserved_6>	0
<cli_reserved_7>	0
<cli_reserved_8>	0
<cli_reserved_9>	0
<cli_reserved_10>	0
<cli_reserved_11>	0
<cli_reserved_12>	0
<cli_reserved_13>	0
<cli_reserved_14>	0
<cli_reserved_15>	0
<cli_reserved_16>	0
<cli_reserved_17>	0
<cli_reserved_18>	0
<cli_reserved_19>	0
<cli_reserved_20>	0
<cli_reserved_21>	0
<cli_reserved_22>	0
<cli_reserved_23>	0
<cli_reserved_24>	0
<cli_reserved_25>	0
<cli_reserved_26>	0
<cli_reserved_27>	0
<cli_reserved_28>	0
<cli_reserved_29>	0
<cli_reserved_30>	0
<cli_reserved_31>	0
<cli_reserved_32>	0
<cli_reserved_33>	0
<cli_reserved_34>	0
<cli_reserved_35>	0
<cli_reserved_36>	0
<cli_reserved_37>	0
<cli_reserved_38>	0
<cli_reserved_39>	0
<cli_reserved_40>	0
<cli_reserved_41>	0
<cli_reserved_42>	0
<cli_reserved_43>	0
<cli_reserved_44>	0
<cli_reserved_45>	0
<cli_reserved_46>	0
<cli_reserved_47>	0
<cli_reserved_48>	0
<cli_reserved_49>	0
<cli_reserved_50>	0
<cli_reserved_51>	0
<cli_reserved_52>	0
<cli_reserved_53>	0
<cli_reserved_54>	0
<cli_reserved_55>	0
<cli_reserved_56>	0
<cli_reserved_57>	0
<cli_reserved_58>	0
<cli_reserved_59>	0
<cli_reserved_60>	0
<cli_reserved_61>	0
<cli_reserved_62>	0
<cli_reserved_63>	0
▁add-apt-repository	0
▁adduser	0
▁afplay	0
▁anacron	0
▁ansible	0
▁apt-cache	0
▁apt-get	0
▁apt-key	0
▁apt-mark	0
▁atq	0
▁atrm	0
▁automake	0
▁badblocks	0
▁base64	0
▁blkid	0
▁blockdev	0
▁buildah	0
▁bunzip2	0
▁byobu	0
▁bzip2	0
▁caffeinate	0
▁cfdisk	0
▁chattr	0
▁chfn	0
▁chgrp	0
▁chpasswd	0
▁chsh	0
▁cksum	0
▁codesign	0
▁conda	0
▁containerd	0
▁crictl	0
▁cscope	0
▁csplit	0
▁csrutil	0
▁ctags	0
▁deluser	0
▁deno	0
▁depmod	0
▁dirname	0
▁diskutil	0
▁dmesg	0
▁dmidecode	0
▁do-release-upgrade	0
▁docker-compose	0
▁dpkg-deb	0
▁dpkg-query	0
▁dpkg-reconfigure	0
▁dscl	0
▁dseditgroup	0
▁dtrace	0
▁dtruss	0
▁e2fsck	0
▁fgrep	0
▁firewalld	0
▁flatpak	0
▁fs_usage	0
▁fuser	0
▁getent	0
▁getfacl	0
▁getopts	0
▁gparted	0
▁gpg2	0
▁groupadd	0
▁groupdel	0
▁groupmod	0
▁gunzip	0
▁hdiutil	0
▁hdparm	0
▁hexdump	0
▁hostnamectl	0
▁htop	0
▁hwclock	0
▁initctl	0
▁insmod	0
▁install_name_tool	0
▁ioreg	0
▁iostat	0
▁ip6tables	0
▁iwconfig	0
▁iwlist	0
▁javac	0
▁kextload	0
▁kextstat	0
▁kextunload	0
▁killall	0
▁lastlog	0
▁ldconfig	0
▁libtool	0
▁lldb	0
▁localectl	0
▁loginctl	0
▁lpadmin	0
▁lpstat	0
▁lsattr	0
▁lsblk	0
▁lscpu	0
▁lshw	0
▁lsmod	0
▁lspci	0
▁lsusb	0
▁ltrace	0
▁mawk	0
▁md5sum	0
▁mdfind	0
▁mdimport	0
▁mdls	0
▁mdutil	0
▁minikube	0
▁mktemp	0
▁mpstat	0
▁mvn	0
▁ncal	0
▁networksetup	0
▁newgrp	0
▁nmap	0
▁nmcli	0
▁nohup	0
▁nproc	0
▁npx	0
▁nsenter	0
▁nvim	0
▁nvram	0
▁objdump	0
▁osascript	0
▁otool	0
▁pbcopy	0
▁pbpaste	0
▁pgrep	0
▁pidof	0
▁ping6	0
▁pip3	0
▁pkg-config	0
▁pkgutil	0
▁pkill	0
▁plutil	0
▁pmset	0
▁pnpm	0
▁podman	0
▁printenv	0
▁pvcreate	0
▁pyenv	0
▁python3	0
▁qlmanage	0
▁rbenv	0
▁readelf	0
▁readlink	0
▁realpath	0
▁renice	0
▁resize2fs	0
▁rgrep	0
▁rmdir	0
▁rmmod	0
▁rustc	0
▁rustup	0
▁screencapture	0
▁scutil	0
▁setfacl	0
▁setopt	0
▁setterm	0
▁sfdisk	0
▁sha1sum	0
▁sha256sum	0
▁sha512sum	0
▁shasum	0
▁shopt	0
▁shuf	0
▁skopeo	0
▁smartctl	0
▁softwareupdate	0
▁spctl	0
▁ssh-add	0
▁ssh-agent	0
▁ssh-copy-id	0
▁ssh-keygen	0
▁stty	0
▁subl	0
▁sw_vers	0
▁swapoff	0
▁swapon	0
▁system_profiler	0
▁systemd-analyze	0
▁systemd-run	0
▁textutil	0
▁timedatectl	0
▁tldr	0
▁tmutil	0
▁tracepath	0
▁tune2fs	0
▁ubuntu-drivers	0
▁ulimit	0
▁unalias	0
▁uname	0
▁unattended-upgrade	0
▁uncompress	0
▁unexpand	0
▁unxz	0
▁unzstd	0
▁update-alternatives	0
▁update-grub	0
▁update-initramfs	0
▁updatedb	0
▁useradd	0
▁userdel	0
▁usermod	0
▁valgrind	0
▁vgcreate	0
▁virtualenv	0
▁visudo	0
▁vmstat	0
▁whereis	0
▁xattr	0
▁xcode-select	0
▁xcodebuild	0
▁xcrun	0
▁xxd	0
▁zcat	0
▁zless	0
▁zstd	0
▁.DS_Store	0
▁.bash_history	0
▁.bash_logout	0
▁.bash_profile	0
▁.bashrc	0
▁.cache	0
▁.condarc	0
▁.config/nvim	0
▁.curlrc	0
▁.dockerignore	0
▁.editorconfig	0
▁.env	0
▁.gitattributes	0
▁.gitconfig	0
▁.gitignore	0
▁.gitmodules	0
▁.htaccess	0
▁.htpasswd	0
▁.inputrc	0
▁.local/bin	0
▁.netrc	0
▁.npmrc	0
▁.nvmrc	0
▁.profile	0
▁.python-version	0
▁.ruby-version	0
▁.screenrc	0
▁.ssh/authorized_keys	0
▁.ssh/config	0
▁.ssh/id_ed25519	0
▁.ssh/id_rsa	0
▁.ssh/known_hosts	0
▁.tmux.conf	0
▁.viminfo	0
▁.vimrc	0
▁.wgetrc	0
▁.yarnrc	0
▁.zprofile	0
▁.zshenv	0
▁.zshrc	0
▁/Applications	0
▁/Library	0
▁/Library/Extensions	0
▁/Library/Frameworks	0
▁/Library/LaunchAgents	0
▁/Library/LaunchDaemons	0
▁/Library/Logs	0
▁/Library/Preferences	0
▁/Network	0
▁/System	0
▁/System/Applications	0
▁/System/Library	0
▁/System/Library/LaunchDaemons	0
▁/Users	0
▁/Users/Guest	0
▁/Users/Shared	0
▁/Volumes	0
▁/Volumes/Macintosh	0
▁/bin/bash	0
▁/bin/cat	0
▁/bin/csh	0
▁/bin/dash	0
▁/bin/echo	0
▁/bin/ls	0
▁/bin/rm	0
▁/bin/sh	0
▁/bin/zsh	0
▁/boot	0
▁/boot/grub	0
▁/dev/console	0
▁/dev/disk0	0
▁/dev/disk1	0
▁/dev/fd	0
▁/dev/full	0
▁/dev/loop0	0
▁/dev/mapper	0
▁/dev/md0	0
▁/dev/mmcblk0	0
▁/dev/null	0
▁/dev/nvme0n1	0
▁/dev/nvme0n1p1	0
▁/dev/ptmx	0
▁/dev/random	0
▁/dev/sda	0
▁/dev/sda1	0
▁/dev/sda2	0
▁/dev/sdb	0
▁/dev/sdb1	0
▁/dev/sdc	0
▁/dev/shm	0
▁/dev/stderr	0
▁/dev/stdin	0
▁/dev/stdout	0
▁/dev/tty	0
▁/dev/urandom	0
▁/dev/vda	0
▁/dev/xvda	0
▁/dev/zero	0
▁/etc/apache2	0
▁/etc/apt/preferences	0
▁/etc/apt/sources.list	0
▁/etc/apt/sources.list.d	0
▁/etc/bash.bashrc	0
▁/etc/cron.d	0
▁/etc/cron.daily	0
▁/etc/crontab	0
▁/etc/default/grub	0
▁/etc/environment	0
▁/etc/fstab	0
▁/etc/group	0
▁/etc/hostname	0
▁/etc/hosts	0
▁/etc/hosts.allow	0
▁/etc/hosts.deny	0
▁/etc/init.d	0
▁/etc/inputrc	0
▁/etc/issue	0
▁/etc/localtime	0
▁/etc/logrotate.conf	0
▁/etc/lsb-release	0
▁/etc/machine-id	0
▁/etc/modprobe.d	0
▁/etc/modules	0
▁/etc/motd	0
▁/etc/mysql	0
▁/etc/netplan	0
▁/etc/network/interfaces	0
▁/etc/nginx	0
▁/etc/os-release	0
▁/etc/pam.d	0
▁/etc/passwd	0
▁/etc/php	0
▁/etc/profile	0
▁/etc/protocols	0
▁/etc/resolv.conf	0
▁/etc/rsyslog.conf	0
▁/etc/samba	0
▁/etc/security/limits.conf	0
▁/etc/services	0
▁/etc/shadow	0
▁/etc/ssh/ssh_config	0
▁/etc/ssh/sshd_config	0
▁/etc/sudoers	0
▁/etc/sysctl.conf	0
▁/etc/sysctl.d	0
▁/etc/systemd/network	0
▁/etc/systemd/system	0
▁/etc/timezone	0
▁/etc/udev/rules.d	0
▁/home	0
▁/lib	0
▁/lib64	0
▁/media	0
▁/mnt	0
▁/opt	0
▁/opt/homebrew	0
▁/opt/homebrew/bin	0
▁/opt/local	0
▁/opt/local/bin	0
▁/private/etc	0
▁/private/tmp	0
▁/private/var	0
▁/private/var/log	0
▁/proc/cpuinfo	0
▁/proc/filesystems	0
▁/proc/interrupts	0
▁/proc/loadavg	0
▁/proc/meminfo	0
▁/proc/modules	0
▁/proc/mounts	0
▁/proc/net	0
▁/proc/partitions	0
▁/proc/self	0
▁/proc/stat	0
▁/proc/sys/kernel	0
▁/proc/sys/net/ipv4	0
▁/proc/sys/vm	0
▁/proc/uptime	0
▁/proc/version	0
▁/root	0
▁/run/lock	0
▁/run/systemd	0
▁/run/user	0
▁/sbin	0
▁/snap/bin	0
▁/srv	0
▁/sys/block	0
▁/sys/class	0
▁/sys/class/net	0
▁/sys/class/power_supply	0
▁/sys/devices	0
▁/sys/firmware	0
▁/sys/fs/cgroup	0
▁/sys/kernel	0
▁/sys/module	0
▁/tmp	0
▁/usr/bin	0
▁/usr/bin/env	0
▁/usr/bin/python3	0
▁/usr/games	0
▁/usr/include	0
▁/usr/lib	0
▁/usr/lib/systemd	0
▁/usr/lib/x86_64-linux-gnu	0
▁/usr/libexec	0
▁/usr/local	0
▁/usr/local/Cellar	0
▁/usr/local/bin	0
▁/usr/local/etc	0
▁/usr/local/include	0
▁/usr/local/lib	0
▁/usr/local/opt	0
▁/usr/local/sbin	0
▁/usr/local/share	0
▁/usr/sbin	0
▁/usr/share	0
▁/usr/share/applications	0
▁/usr/share/doc	0
▁/usr/share/keyrings	0
▁/usr/share/man	0
▁/usr/share/zoneinfo	0
▁/var/cache	0
▁/var/lib	0
▁/var/lib/apt	0
▁/var/lib/docker	0
▁/var/lib/dpkg	0
▁/var/lib/mysql	0
▁/var/lib/postgresql	0
▁/var/lib/systemd	0
▁/var/log	0
▁/var/log/apache2	0
▁/var/log/apt	0
▁/var/log/auth.log	0
▁/var/log/dmesg	0
▁/var/log/journal	0
▁/var/log/kern.log	0
▁/var/log/messages	0
▁/var/log/nginx	0
▁/var/log/syslog	0
▁/var/log/wtmp	0
▁/var/mail	0
▁/var/opt	0
▁/var/run	0
▁/var/spool	0
▁/var/tmp	0
▁/var/www	0
▁/var/www/html	0
▁CMakeLists.txt	0
▁Cargo.toml	0
▁Dockerfile	0
▁Gemfile	0
▁Vagrantfile	0
▁authorized_keys	0
▁build.gradle	0
▁crontab.txt	0
▁docker-compose.yml	0
▁go.mod	0
▁id_ed25519.pub	0
▁id_rsa.pub	0
▁known_hosts	0
▁nsswitch.conf	0
▁package-lock.json	0
▁package.json	0
▁pom.xml	0
▁pyproject.toml	0
▁requirements.txt	0
▁resolv.conf	0
▁setup.py	0
▁sources.list	0
▁sshd_config	0
▁~/.aws	0
▁~/.bashrc	0
▁~/.cache	0
▁~/.config	0
▁~/.docker	0
▁~/.gitconfig	0
▁~/.kube	0
▁~/.local	0
▁~/.local/bin	0
▁~/.npm	0
▁~/.profile	0
▁~/.ssh	0
▁~/.vimrc	0
▁~/.zshrc	0
▁~/Desktop	0
▁~/Documents	0
▁~/Downloads	0
▁~/Library	0
▁~/Library/Application	0
▁~/Library/Preferences	0
▁~/Movies	0
▁~/Music	0
▁~/Pictures	0
▁--abort	0
▁--add	0
▁--address	0
▁--after	0
▁--all	0
▁--allow-downgrades	0
▁--allow-empty	0
▁--allow-empty-message	0
▁--allow-unauthenticated	0
▁--amend	0
▁--apparent-size	0
▁--append	0
▁--archive	0
▁--assume-yes	0
▁--author	0
▁--author-date-is-committer-date	0
▁--background	0
▁--backup	0
▁--bare	0
▁--binary	0
▁--binary-files	0
▁--bind	0
▁--block-size	0
▁--boot	0
▁--branch	0
▁--break-system-packages	0
▁--bwlimit	0
▁--bytes	0
▁--cacert	0
▁--cached	0
▁--cert	0
▁--check	0
▁--checksum	0
▁--color	0
▁--compress	0
▁--config	0
▁--config-file	0
▁--context	0
▁--continue	0
▁--count	0
▁--create	0
▁--csv	0
▁--daemon	0
▁--data	0
▁--data-binary	0
▁--data-urlencode	0
▁--date	0
▁--debug	0
▁--delete	0
▁--delete-after	0
▁--delete-during	0
▁--delete-excluded	0
▁--depth	0
▁--dereference	0
▁--detach	0
▁--devices	0
▁--dir	0
▁--directory	0
▁--disable	0
▁--dns	0
▁--domain	0
▁--dry-run	0
▁--edit	0
▁--enable	0
▁--env	0
▁--exclude	0
▁--exclude-dir	0
▁--exclude-from	0
▁--extended-regexp	0
▁--extra-index-url	0
▁--extract	0
▁--fail	0
▁--field-separator	0
▁--file	0
▁--filename	0
▁--files-with-matches	0
▁--files-without-match	0
▁--files0-from	0
▁--filter	0
▁--fix-broken	0
▁--fixed-strings	0
▁--follow	0
▁--force	0
▁--force-with-lease	0
▁--foreground	0
▁--format	0
▁--full	0
▁--get	0
▁--global	0
▁--graph	0
▁--grep	0
▁--group	0
▁--hard	0
▁--head	0
▁--header	0
▁--help	0
▁--host	0
▁--hostname	0
▁--http2	0
▁--human-numeric-sort	0
▁--human-readable	0
▁--ignore	0
▁--ignore-case	0
▁--image	0
▁--include	0
▁--inodes	0
▁--input	0
▁--insecure	0
▁--insecure-skip-tls-verify	0
▁--interactive	0
▁--invert-match	0
▁--ipv4	0
▁--ipv6	0
▁--iso-8601	0
▁--jobs	0
▁--json	0
▁--keep	0
▁--keep-old-files	0
▁--key	0
▁--label	0
▁--legacy-peer-deps	0
▁--limit	0
▁--limit-rate	0
▁--line-buffered	0
▁--lines	0
▁--list	0
▁--listen	0
▁--local	0
▁--location	0
▁--logfile	0
▁--long	0
▁--match	0
▁--max-count	0
▁--max-depth	0
▁--max-line-length	0
▁--max-size	0
▁--max-unchanged-stats	0
▁--memory	0
▁--merge	0
▁--mirror	0
▁--mode	0
▁--mount	0
▁--name	0
▁--name-only	0
▁--name-status	0
▁--namespace	0
▁--network	0
▁--no-cache-filter	0
▁--no-clobber	0
▁--no-color	0
▁--no-dereference	0
▁--no-ff	0
▁--no-follow-symlinks	0
▁--no-headers	0
▁--no-install-recommends	0
▁--no-optional-locks	0
▁--no-pager	0
▁--no-verify	0
▁--no-warn-script-location	0
▁--now	0
▁--null	0
▁--numeric-ids	0
▁--numstat	0
▁--offline	0
▁--one-file-system	0
▁--oneline	0
▁--only-matching	0
▁--output	0
▁--output-format	0
▁--overwrite	0
▁--owner	0
▁--parallel	0
▁--parents	0
▁--partial	0
▁--password	0
▁--patch	0
▁--pattern	0
▁--perms	0
▁--pid	0
▁--pidfile	0
▁--platform	0
▁--porcelain	0
▁--port	0
▁--prefix	0
▁--priority	0
▁--progress	0
▁--protocol	0
▁--proxy	0
▁--prune	0
▁--purge	0
▁--quiet	0
▁--range	0
▁--read-only	0
▁--recurse-submodules	0
▁--recursive	0
▁--reference	0
▁--regex	0
▁--reinstall	0
▁--release	0
▁--reload	0
▁--remote	0
▁--remote-name	0
▁--request	0
▁--retry	0
▁--reverse	0
▁--rfc-3339	0
▁--rm	0
▁--rotate	0
▁--rsh	0
▁--rsync-path	0
▁--runtime	0
▁--server	0
▁--set	0
▁--short	0
▁--si	0
▁--signoff	0
▁--silent	0
▁--simplify-by-decoration	0
▁--since	0
▁--skip	0
▁--socks5	0
▁--sort	0
▁--sparse	0
▁--squash	0
▁--staged	0
▁--stat	0
▁--state	0
▁--status	0
▁--stdin	0
▁--strict-host-key-checking	0
▁--suffix	0
▁--summary	0
▁--system	0
▁--tabs	0
▁--tag	0
▁--tags	0
▁--target	0
▁--target-directory	0
▁--template	0
▁--text	0
▁--threads	0
▁--time	0
▁--timeout	0
▁--total	0
▁--track	0
▁--transform	0
▁--tty	0
▁--type	0
▁--unique	0
▁--unit	0
▁--unix-byte-offsets	0
▁--until	0
▁--update	0
▁--upgrade	0
▁--user	0
▁--username	0
▁--utc	0
▁--verbose	0
▁--verify	0
▁--version	0
▁--wait	0
▁--watch	0
▁--width	0
▁--with-filename	0
▁--word-regexp	0
▁--zero	0
▁--zero-terminated	0
▁-A	0
▁-B	0
▁-C	0
▁-D	0
▁-E	0
▁-F	0
▁-G	0
▁-H	0
▁-I	0
▁-J	0
▁-K	0
▁-L	0
▁-M	0
▁-N	0
▁-O	0
▁-P	0
▁-Q	0
▁-R	0
▁-S	0
▁-Ss	0
▁-T	0
▁-U	0
▁-V	0
▁-W	0
▁-X	0
▁-Y	0
▁-Z	0
▁-a	0
▁-al	0
▁-and	0
▁-atime	0
▁-av	0
▁-b	0
▁-c	0
▁-cf	0
▁-ctime	0
▁-cvf	0
▁-czf	0
▁-czvf	0
▁-d	0
▁-delete	0
▁-depth	0
▁-e	0
▁-ef	0
▁-empty	0
▁-eo	0
▁-exec	0
▁-execdir	0
▁-f	0
▁-follow	0
▁-g	0
▁-group	0
▁-h	0
▁-i	0
▁-iname	0
▁-iregex	0
▁-it	0
▁-j	0
▁-k	0
▁-l	0
▁-la	0
▁-lah	0
▁-lh	0
▁-lname	0
▁-ls	0
▁-lt	0
▁-ltr	0
▁-m	0
▁-maxdepth	0
▁-mindepth	0
▁-mmin	0
▁-mtime	0
▁-n	0
▁-name	0
▁-newer	0
▁-nogroup	0
▁-not	0
▁-nouser	0
▁-nr	0
▁-o	0
▁-ok	0
▁-or	0
▁-p	0
▁-path	0
▁-perm	0
▁-print	0
▁-print0	0
▁-printf	0
▁-prune	0
▁-q	0
▁-ql	0
▁-qq	0
▁-quit	0
▁-r	0
▁-regex	0
▁-rf	0
▁-rl	0
▁-rn	0
▁-s	0
▁-sS	0
▁-sf	0
▁-size	0
▁-t	0
▁-tf	0
▁-type	0
▁-u	0
▁-user	0
▁-v	0
▁-vv	0
▁-vvv	0
▁-w	0
▁-x	0
▁-xdev	0
▁-xf	0
▁-xvf	0
▁-y	0
▁-z	0
<0x00>	0
<0x01>	0
<0x02>	0
<0x03>	0
<0x04>	0
<0x05>	0
<0x06>	0
<0x07>	0
<0x08>	0
<0x09>	0
<0x0A>	0
<0x0B>	0
<0x0C>	0
<0x0D>	0
<0x0E>	0
<0x0F>	0
<0x10>	0
<0x11>	0
<0x12>	0
<0x13>	0
<0x14>	0
<0x15>	0
<0x16>	0
<0x17>	0
<0x18>	0
<0x19>	0
<0x1A>	0
<0x1B>	0
<0x1C>	0
<0x1D>	0
<0x1E>	0
<0x1F>	0
<0x20>	0
<0x21>	0
<0x22>	0
<0x23>	0
<0x24>	0
<0x25>	0
<0x26>	0
<0x27>	0
<0x28>	0
<0x29>	0
<0x2A>	0
<0x2B>	0
<0x2C>	0
<0x2D>	0
<0x2E>	0
<0x2F>	0
<0x30>	0
<0x31>	0
<0x32>	0
<0x33>	0
<0x34>	0
<0x35>	0
<0x36>	0
<0x37>	0
<0x38>	0
<0x39>	0
<0x3A>	0
<0x3B>	0
<0x3C>	0
<0x3D>	0
<0x3E>	0
<0x3F>	0
<0x40>	0
<0x41>	0
<0x42>	0
<0x43>	0
<0x44>	0
<0x45>	0
<0x46>	0
<0x47>	0
<0x48>	0
<0x49>	0
<0x4A>	0
<0x4B>	0
<0x4C>	0
<0x4D>	0
<0x4E>	0
<0x4F>	0
<0x50>	0
<0x51>	0
<0x52>	0
<0x53>	0
<0x54>	0
<0x55>	0
<0x56>	0
<0x57>	0
<0x58>	0
<0x59>	0
<0x5A>	0
<0x5B>	0
<0x5C>	0
<0x5D>	0
<0x5E>	0
<0x5F>	0
<0x60>	0
<0x61>	0
<0x62>	0
<0x63>	0
<0x64>	0
<0x65>	0
<0x66>	0
<0x67>	0
<0x68>	0
<0x69>	0
<0x6A>	0
<0x6B>	0
<0x6C>	0
<0x6D>	0
<0x6E>	0
<0x6F>	0
<0x70>	0
<0x71>	0
<0x72>	0
<0x73>	0
<0x74>	0
<0x75>	0
<0x76>	0
<0x77>	0
<0x78>	0
<0x79>	0
<0x7A>	0
<0x7B>	0
<0x7C>	0
<0x7D>	0
<0x7E>	0
<0x7F>	0
<0x80>	0
<0x81>	0
<0x82>	0
<0x83>	0
<0x84>	0
<0x85>	0
<0x86>	0
<0x87>	0
<0x88>	0
<0x89>	0
<0x8A>	0
<0x8B>	0
<0x8C>	0
<0x8D>	0
<0x8E>	0
<0x8F>	0
<0x90>	0
<0x91>	0
<0x92>	0
<0x93>	0
<0x94>	0
<0x95>	0
<0x96>	0
<0x97>	0
<0x98>	0
<0x99>	0
<0x9A>	0
<0x9B>	0
<0x9C>	0
<0x9D>	0
<0x9E>	0
<0x9F>	0
<0xA0>	0
<0xA1>	0
<0xA2>	0
<0xA3>	0
<0xA4>	0
<0xA5>	0
<0xA6>	0
<0xA7>	0
<0xA8>	0
<0xA9>	0
<0xAA>	0
<0xAB>	0
<0xAC>	0
<0xAD>	0
<0xAE>	0
<0xAF>	0
<0xB0>	0
<0xB1>	0
<0xB2>	0
<0xB3>	0
<0xB4>	0
<0xB5>	0
<0xB6>	0
<0xB7>	0
<0xB8>	0
<0xB9>	0
<0xBA>	0
<0xBB>	0
<0xBC>	0
<0xBD>	0
<0xBE>	0
<0xBF>	0
<0xC0>	0
<0xC1>	0
<0xC2>	0
<0xC3>	0
<0xC4>	0
<0xC5>	0
<0xC6>	0
<0xC7>	0
<0xC8>	0
<0xC9>	0
<0xCA>	0
<0xCB>	0
<0xCC>	0
<0xCD>	0
<0xCE>	0
<0xCF>	0
<0xD0>	0
<0xD1>	0
<0xD2>	0
<0xD3>	0
<0xD4>	0
<0xD5>	0
<0xD6>	0
<0xD7>	0
<0xD8>	0
<0xD9>	0
<0xDA>	0
<0xDB>	0
<0xDC>	0
<0xDD>	0
<0xDE>	0
<0xDF>	0
<0xE0>	0
<0xE1>	0
<0xE2>	0
<0xE3>	0
<0xE4>	0
<0xE5>	0
<0xE6>	0
<0xE7>	0
<0xE8>	0
<0xE9>	0
<0xEA>	0
<0xEB>	0
<0xEC>	0
<0xED>	0
<0xEE>	0
<0xEF>	0
<0xF0>	0
<0xF1>	0
<0xF2>	0
<0xF3>	0
<0xF4>	0
<0xF5>	0
<0xF6>	0
<0xF7>	0
<0xF8>	0
<0xF9>	0
<0xFA>	0
<0xFB>	0
<0xFC>	0
<0xFD>	0
<0xFE>	0
<0xFF>	0
.	-3.2673
,	-3.39187
▁	-3.39701
▁the	-3.44355
s	-4.06401
▁of	-4.07944
▁and	-4.09498
▁to	-4.11044
▁a	-4.31695
-	-4.5363
▁in	-4.53959
0	-4.62105
1	-4.73341
▁is	-4.8303
'	-4.89665
2	-5.00811
▁for	-5.14043
▁that	-5.14358
_	-5.19381
/	-5.24528
:	-5.33251
▁with	-5.41824
)	-5.43438
▁(	-5.47562
▁it	-5.52148
▁on	-5.54787
▁be	-5.56371
3	-5.62668
▁as	-5.63875
▁are	-5.65288
▁I	-5.67021
▁you	-5.69956
5	-5.7416
▁The	-5.75734
▁or	-5.75768
▁"	-5.78372
4	-5.79152
"	-5.82479
▁by	-5.84003
9	-5.89022
▁▁▁▁▁▁	-5.90398
8	-5.90853
▁from	-5.92181
▁this	-5.92937
6	-5.94345
▁was	-5.96028
t	-5.97282
▁not	-5.98192
(	-6.02269
▁can	-6.04138
▁have	-6.05307
▁an	-6.09485
7	-6.11988
▁at	-6.1379
;	-6.17845
ing	-6.23615
d	-6.2912
▁will	-6.30825
▁all	-6.31959
▁your	-6.33717
▁▁▁▁▁▁▁▁▁▁	-6.34791
▁which	-6.39588
ed	-6.40308
▁but	-6.4745
▁their	-6.5181
?	-6.57074
▁has	-6.59461
▁they	-6.60653
▁one	-6.60685
▁if	-6.64245
▁more	-6.65228
▁we	-6.68138
▁his	-6.68534
▁▁▁▁▁▁▁▁▁▁▁▁▁▁	-6.68554
}}	-6.71635
▁he	-6.72646
a	-6.72978
▁▁▁	-6.78791
▁▁▁▁▁▁▁	-6.78953
▁This	-6.80133
e	-6.81041
▁{{	-6.82065
▁▁▁▁▁▁▁▁▁▁▁▁▁	-6.84449
▁A	-6.84667
▁also	-6.85201
▁▁▁▁	-6.85216
▁when	-6.85581
to	-6.89767
▁so	-6.90167
▁about	-6.90858
▁were	-6.91186
▁▁▁▁▁▁▁▁▁▁▁	-6.92836
▁other	-6.93299
▁had	-6.94123
n	-6.95412
▁file	-6.96207
).	-6.96211
▁time	-6.96272
▁In	-6.9828
]	-6.98634
▁It	-6.9986
▁into	-7.00852
▁do	-7.01421
▁$	-7.01933
I	-7.01958
m	-7.03089
The	-7.03556
▁use	-7.03801
▁may	-7.04351
▁my	-7.04632
▁there	-7.0464
ly	-7.04651
▁up	-7.04754
▁-	-7.05209
▁only	-7.05646
▁been	-7.06366
▁out	-7.06798
▁would	-7.06999
▁than	-7.0744
▁them	-7.07964
>	-7.08088
i	-7.09152
▁|	-7.09842
▁who	-7.1157
=	-7.11733
▁no	-7.11739
▁some	-7.12614
x	-7.14831
▁its	-7.15294
▁any	-7.155
▁=	-7.15978
▁like	-7.16054
!	-7.16568
),	-7.17083
://	-7.1718
▁our	-7.17483
y	-7.17578
▁used	-7.18136
▁what	-7.18273
er	-7.18329
▁`	-7.18365
▁│	-7.19458
▁new	-7.19508
▁these	-7.20008
`	-7.21216
▁▁▁▁▁▁▁▁▁▁▁▁▁▁▁▁	-7.2339
in	-7.24561
S	-7.25213
A	-7.25625
▁her	-7.26252
▁information	-7.27399
▁[	-7.28769
▁If	-7.29291
r	-7.30004
▁<	-7.31355
▁such	-7.32156
▁'	-7.32429
re	-7.32699
▁should	-7.32793
▁first	-7.33044
▁how	-7.35963
▁--	-7.36371
▁then	-7.36868
c	-7.40641
▁two	-7.41108
▁over	-7.42737
}	-7.43073
▁files	-7.43191
\	-7.43519
▁get	-7.43529
▁people	-7.45186
▁most	-7.45672
path	-7.46417
▁using	-7.46804
▁set	-7.47597
▁just	-7.49896
."	-7.50069
▁work	-7.51708
▁me	-7.51712
▁could	-7.51759
https	-7.51874
▁make	-7.52213
com	-7.52718
▁*	-7.52892
▁system	-7.5302
|	-7.54965
the	-7.5554
g	-7.55661
▁where	-7.55974
▁many	-7.56736
▁through	-7.56995
or	-7.5941
▁after	-7.60028
▁way	-7.60173
▁well	-7.60788
p	-7.62074
%	-7.62765
▁see	-7.62802
▁need	-7.62906
▁same	-7.63409
▁data	-7.63428
▁said	-7.63535
[	-7.65021
▁very	-7.65837
C	-7.66052
▁between	-7.66608
▁each	-7.67889
▁help	-7.68404
▁she	-7.68471
file	-7.6994
▁current	-7.70007
o	-7.72713
f	-7.72721
]}}	-7.72751
es	-7.72776
b	-7.7358
▁even	-7.73849
▁number	-7.74263
▁him	-7.74301
{	-7.74589
▁For	-7.74642
▁name	-7.74951
▁–	-7.76023
▁{	-7.76083
▁C	-7.76211
$	-7.76283
▁before	-7.76297
▁those	-7.76454
▁being	-7.77521
h	-7.77696
al	-7.7807
▁under	-7.79131
▁He	-7.79754
▁because	-7.80652
,"	-7.81822
▁value	-7.82322
);	-7.82423
▁know	-7.82757
▁directory	-7.83489
▁while	-7.83699
▁years	-7.84191
▁must	-7.84509
▁command	-7.84577
▁now	-7.84606
and	-7.84659
k	-7.84816
|--	-7.85183
▁much	-7.85252
▁us	-7.85535
▁both	-7.86568
▁option	-7.87145
▁S	-7.87489
▁different	-7.87541
▁We	-7.87803
name	-7.88226
▁does	-7.88643
▁{{[-	-7.88981
D	-7.89419
▁You	-7.89474
find	-7.89974
th	-7.90291
▁made	-7.91091
▁long	-7.91715
▁\	-7.92993
▁good	-7.93298
B	-7.93307
▁back	-7.93563
org	-7.94002
▁But	-7.95976
l	-7.96441
ve	-7.97218
▁process	-7.97893
▁take	-7.98062
▁want	-7.98781
▁without	-7.99017
▁found	-7.99919
▁world	-8.00578
▁part	-8.01186
▁To	-8.01596
v	-8.02281
▁don	-8.02811
▁user	-8.03416
▁&	-8.03921
▁▁▁▁▁▁▁▁▁▁▁▁▁▁▁	-8.04299
▁during	-8.0448
on	-8.0458
▁life	-8.04906
▁own	-8.0512
▁might	-8.06467
▁water	-8.06685
▁still	-8.06744
▁day	-8.06888
▁E	-8.07069
▁find	-8.07211
▁here	-8.07328
▁example	-8.07519
▁default	-8.07536
▁list	-8.07596
▁More	-8.07769
ll	-8.07785
#	-8.07791
▁line	-8.08353
*	-8.08426
▁When	-8.08924
en	-8.08974
▁B	-8.0901
▁down	-8.09323
▁high	-8.09693
no	-8.10038
id	-8.10268
▁last	-8.10456
()	-8.10476
▁case	-8.1064
u	-8.10736
▁And	-8.1082
▁right	-8.11131
▁specific	-8.12116
▁year	-8.12329
▁key	-8.12839
▁re	-8.1303
F	-8.13279
▁As	-8.13613
--	-8.13793
▁▁▁▁▁▁▁▁	-8.13815
▁They	-8.14044
▁go	-8.14304
▁every	-8.14495
▁given	-8.14509
::	-8.15403
▁did	-8.15405
@	-8.16149
▁another	-8.16198
ers	-8.16769
E	-8.17218
‐	-8.17235
▁available	-8.18464
▁change	-8.20092
▁great	-8.20355
In	-8.20624
▁following	-8.20687
able	-8.20754
▁around	-8.21146
M	-8.2215
▁type	-8.22206
▁There	-8.22437
▁think	-8.22514
▁end	-8.2317
▁within	-8.23969
<	-8.24134
▁output	-8.24571
▁version	-8.24704
▁off	-8.25672
▁three	-8.25708
▁M	-8.25884
▁best	-8.26007
▁D	-8.26387
is	-8.26703
▁specified	-8.26843
▁too	-8.27172
▁place	-8.27369
▁home	-8.27462
man	-8.27621
P	-8.27643
▁support	-8.28661
▁important	-8.296
▁man	-8.30553
▁run	-8.31367
▁including	-8.31742
▁power	-8.31958
▁order	-8.32096
▁often	-8.32463
+	-8.32508
▁un	-8.32868
▁So	-8.33298
▁function	-8.33405
▁little	-8.33498
▁state	-8.33682
▁These	-8.34141
▁since	-8.34148
▁P	-8.34183
of	-8.34523
▁children	-8.34726
▁f	-8.35114
This	-8.353
T	-8.35425
▁am	-8.35854
="	-8.36314
>.	-8.36393
▁create	-8.36454
▁health	-8.36756
▁read	-8.36897
▁look	-8.36949
▁called	-8.37055
▁group	-8.37684
▁public	-8.38191
▁size	-8.38454
—	-8.38533
▁local	-8.38582
▁de	-8.38614
▁possible	-8.38884
X	-8.39109
▁per	-8.39206
▁few	-8.39514
▁+	-8.39613
▁better	-8.39642
▁#	-8.39755
▁always	-8.39915
▁something	-8.41222
▁come	-8.41733
net	-8.42215
▁class	-8.42414
▁small	-8.42741
▁i	-8.43145
▁device	-8.43176
▁What	-8.43215
▁_	-8.43917
an	-8.43964
▁show	-8.44209
▁However	-8.44256
▁program	-8.44442
▁U	-8.44566
z	-8.44787
▁R	-8.45106
",	-8.45684
▁against	-8.46058
▁problem	-8.46313
▁return	-8.46344
▁form	-8.46916
▁point	-8.46969
▁open	-8.47547
▁non	-8.47581
N	-8.47691
G	-8.48554
▁F	-8.48763
▁New	-8.48786
R	-8.48902
▁means	-8.49096
▁/	-8.49147
▁less	-8.49158
▁things	-8.49249
▁say	-8.4926
▁start	-8.49358
▁options	-8.49473
get	-8.49868
it	-8.50246
▁large	-8.506
▁never	-8.50911
▁students	-8.5094
▁provide	-8.51031
w	-8.51204
▁second	-8.51304
▁T	-8.51536
**	-8.52083
▁old	-8.5218
▁access	-8.52236
▁known	-8.5236
▁G	-8.52404
▁able	-8.5335
as	-8.53476
▁working	-8.53683
▁code	-8.53944
▁space	-8.5399
▁service	-8.54072
](	-8.54178
▁research	-8.54191
V	-8.54358
▁next	-8.54371
html	-8.54411
K	-8.54585
It	-8.55226
▁above	-8.55406
▁full	-8.55847
▁result	-8.5623
▁several	-8.56306
L	-8.56404
▁error	-8.56481
▁include	-8.56882
▁body	-8.56913
▁give	-8.56915
▁sure	-8.56946
▁By	-8.57132
H	-8.57523
▁control	-8.5754
▁going	-8.57627
▁free	-8.58052
->	-8.58287
▁again	-8.58619
▁really	-8.59328
▁based	-8.59644
▁O	-8.59731
▁upon	-8.59906
▁J	-8.60028
▁question	-8.60156
▁level	-8.60436
▁See	-8.60479
▁p	-8.60821
us	-8.60876
▁address	-8.6181
▁development	-8.61877
ation	-8.6286
▁family	-8.6294
www	-8.63262
▁study	-8.63418
set	-8.63457
▁why	-8.63465
▁until	-8.6383
▁test	-8.64054
if	-8.64103
▁done	-8.64265
▁left	-8.64323
▁server	-8.64664
▁field	-8.64687
▁experience	-8.64707
▁put	-8.64775
▁human	-8.65046
▁various	-8.65113
ic	-8.65258
▁add	-8.65261
▁source	-8.65463
▁become	-8.65567
▁L	-8.65769
ity	-8.65834
▁side	-8.6586
O	-8.66051
▁already	-8.66223
▁single	-8.66236
▁K	-8.66309
▁project	-8.66364
▁days	-8.6677
ness	-8.66771
▁mode	-8.67011
▁area	-8.67171
If	-8.67213
▁call	-8.67344
▁either	-8.67395
▁below	-8.67775
▁keep	-8.67909
▁child	-8.67927
▁environment	-8.68026
▁common	-8.68085
▁times	-8.68622
▁On	-8.68707
▁N	-8.68728
▁business	-8.68779
▁school	-8.6975
▁food	-8.69777
▁page	-8.69819
▁image	-8.70169
▁whether	-8.71098
▁One	-8.71142
▁path	-8.71525
▁history	-8.71552
▁string	-8.71808
time	-8.71903
▁having	-8.71932
▁X	-8.71935
▁That	-8.72141
▁God	-8.72478
▁course	-8.7252
▁social	-8.72576
▁due	-8.72587
▁making	-8.72687
▁values	-8.72896
▁hand	-8.72987
▁least	-8.73271
▁present	-8.73668
▁once	-8.737
▁far	-8.73923
...	-8.74209
▁tree	-8.743
▁true	-8.74317
▁across	-8.74372
▁She	-8.74428
▁others	-8.74446
▁changes	-8.74745
▁enough	-8.74916
</	-8.7505
▁though	-8.75334
▁away	-8.75406
▁person	-8.75532
line	-8.7572
▁instead	-8.75811
▁among	-8.75978
up	-8.7614
▁light	-8.76547
▁care	-8.766
▁text	-8.76619
j	-8.76701
▁network	-8.76766
▁H	-8.76835
▁—	-8.77288
▁energy	-8.77313
▁men	-8.77496
▁try	-8.77824
▁came	-8.77832
▁low	-8.78021
▁running	-8.78535
▁All	-8.7891
at	-8.79056
▁cause	-8.79255
▁systems	-8.79312
▁cannot	-8.79429
▁together	-8.79497
▁services	-8.79716
–	-8.79871
▁self	-8.7991
▁At	-8.80073
▁country	-8.80159
▁results	-8.80385
▁early	-8.80956
▁No	-8.81043
▁real	-8.81056
▁e	-8.81063
▁With	-8.81092
▁format	-8.81191
▁multiple	-8.81274
▁thing	-8.81399
▁let	-8.81729
▁needs	-8.81917
q	-8.82037
▁range	-8.82187
?"	-8.82288
▁An	-8.82426
▁doesn	-8.82675
▁answer	-8.8289
You	-8.82941
▁fact	-8.83077
▁V	-8.83094
▁top	-8.83163
▁women	-8.83584
▁understand	-8.83824
▁future	-8.84222
▁along	-8.84258
▁University	-8.84594
We	-8.84822
▁yet	-8.8495
sudo	-8.84981
▁further	-8.8504
▁love	-8.85062
for	-8.8516
▁government	-8.85225
▁rather	-8.85454
▁American	-8.85492
▁book	-8.85647
▁object	-8.85749
▁lot	-8.85761
List	-8.86246
W	-8.86947
▁short	-8.87161
▁says	-8.87183
▁hard	-8.87449
▁How	-8.87573
▁configuration	-8.87669
▁main	-8.8772
▁check	-8.88248
▁however	-8.8867
▁later	-8.88739
key	-8.89297
▁works	-8.89525
("	-8.8954
▁W	-8.8975
▁certain	-8.90186
Display	-8.90274
▁design	-8.90354
▁team	-8.90385
▁head	-8.90562
▁package	-8.90651
▁company	-8.90666
end	-8.90677
▁play	-8.90703
▁risk	-8.90824
▁community	-8.90843
un	-8.90875
▁@	-8.91022
▁four	-8.91189
▁makes	-8.91246
▁post	-8.91358
▁created	-8.91572
▁got	-8.9185
▁similar	-8.92048
io	-8.92127
▁via	-8.92147
http	-8.92174
▁thought	-8.92239
▁seen	-8.92786
▁required	-8.92931
▁looking	-8.93101
▁x	-8.93268
▁potential	-8.93532
▁bit	-8.93838
▁section	-8.93968
▁standard	-8.93974
▁message	-8.94015
▁character	-8.9436
▁Linux	-8.94364
▁issue	-8.94392
▁today	-8.94558
▁content	-8.94704
▁heart	-8.94816
▁lines	-8.94828
▁whole	-8.95488
el	-8.95566
▁site	-8.95781
ism	-8.95817
▁Do	-8.96006
▁Windows	-8.96239
▁memory	-8.96615
▁word	-8.97
▁names	-8.97169
^	-8.97338
▁young	-8.9745
▁itself	-8.9754
ion	-8.9768
▁words	-8.98011
▁Some	-8.98324
▁United	-8.98386
▁likely	-8.98408
▁effect	-8.98438
all	-8.98485
▁ever	-8.98614
▁input	-8.98733
▁online	-8.98826
▁application	-8.98906
out	-8.99108
git	-8.99175
▁write	-8.99461
▁build	-8.99637
▁age	-8.99857
▁learning	-8.99953
de	-9.00003
▁method	-9.00168
txt	-9.0044
▁individual	-9.00451
▁comes	-9.00563
▁}	-9.00623
▁pre	-9.0063
▁▁▁▁▁	-9.00634
▁**	-9.00659
▁special	-9.00744
▁install	-9.00858
▁feel	-9.00977
▁simple	-9.01244
▁doing	-9.01442
▁provided	-9.01578
type	-9.01582
&	-9.01673
▁problems	-9.01687
▁actually	-9.01761
le	-9.01785
▁past	-9.01794
▁variable	-9.01851
▁systemd	-9.01968
▁general	-9.02001
▁Re	-9.02023
▁air	-9.02161
▁quality	-9.0221
▁table	-9.02251
static	-9.02301
Y	-9.02338
▁higher	-9.02411
▁taken	-9.02415
ment	-9.02588
▁live	-9.02746
sh	-9.02778
▁usually	-9.02847
▁learn	-9.02851
▁technology	-9.02961
▁kernel	-9.02996
log	-9.03063
▁mind	-9.03212
by	-9.033
▁search	-9.03334
▁issues	-9.03652
▁•	-9.03848
▁blood	-9.03942
▁report	-9.04004
To	-9.04103
co	-9.04245
▁role	-9.04473
▁took	-9.04567
▁types	-9.04607
▁natural	-9.0471
▁areas	-9.04778
▁particular	-9.04817
▁added	-9.0484
▁allow	-9.04892
▁After	-9.0497
st	-9.05211
be	-9.05248
▁kind	-9.05589
J	-9.05632
▁original	-9.05704
▁amount	-9.05913
▁white	-9.05978
▁details	-9.06212
▁disease	-9.06426
Find	-9.06469
▁folder	-9.06671
▁root	-9.0675
What	-9.06781
▁idea	-9.07026
▁increase	-9.07053
▁clear	-9.07071
▁machine	-9.07163
▁levels	-9.07176
▁etc	-9.07233
▁city	-9.07293
For	-9.07333
dir	-9.07449
▁event	-9.07505
▁language	-9.07839
▁link	-9.08268
age	-9.08291
▁treatment	-9.08376
▁cases	-9.08388
▁status	-9.08419
▁products	-9.08497
▁account	-9.08521
▁model	-9.08542
int	-9.08655
▁While	-9.08722
▁regular	-9.0887
▁law	-9.08925
▁face	-9.08964
▁St	-9.09002
▁necessary	-9.09057
▁lead	-9.09077
▁users	-9.09095
ist	-9.091
▁went	-9.09122
▁setting	-9.09186
U	-9.0948
list	-9.09519
new	-9.09619
▁needed	-9.0974
▁structure	-9.09821
▁c	-9.09857
▁money	-9.09864
▁events	-9.0988
▁game	-9.09967
▁half	-9.10053
▁action	-9.10127
▁software	-9.10164
▁especially	-9.10276
▁physical	-9.10472
rs	-9.10514
▁devices	-9.10536
▁conditions	-9.10539
▁associated	-9.10997
▁resources	-9.11228
▁LETTER	-9.11286
▁house	-9.1133
▁period	-9.11359
dev	-9.11361
li	-9.11432
▁mean	-9.11813
user	-9.11815
less	-9.12146
▁host	-9.12272
▁argument	-9.1232
▁States	-9.12375
▁anything	-9.12444
▁education	-9.1246
▁*/	-9.1261
ton	-9.1275
▁nothing	-9.12798
▁computer	-9.12897
▁provides	-9.13286
▁reason	-9.13518
▁allows	-9.13616
):	-9.13619
one	-9.14008
▁management	-9.14238
my	-9.14284
▁connection	-9.14312
▁unique	-9.14441
▁personal	-9.14563
▁port	-9.14652
▁addition	-9.14698
▁tell	-9.14732
▁night	-9.14787
▁b	-9.14794
▁story	-9.14802
▁writing	-9.15204
▁ensure	-9.15244
▁easy	-9.15291
▁lower	-9.15455
▁written	-9.15495
▁▁▁▁▁▁▁▁▁▁▁▁	-9.15503
▁performance	-9.15567
data	-9.15675
▁building	-9.15686
▁close	-9.15812
▁move	-9.16034
▁growth	-9.16144
ar	-9.16169
▁else	-9.16225
▁almost	-9.16385
ul	-9.16403
▁knowledge	-9.16437
▁installed	-9.16497
▁view	-9.16505
est	-9.16729
▁color	-9.16745
▁rate	-9.1693
▁major	-9.16964
▁million	-9.16979
▁seems	-9.17175
this	-9.17351
▁members	-9.17493
▁sub	-9.17543
▁security	-9.17678
▁offer	-9.17762
▁m	-9.17854
▁private	-9.18035
▁ways	-9.18276
▁five	-9.18355
conf	-9.18415
▁drive	-9.18418
▁week	-9.18418
▁sense	-9.18445
▁trying	-9.18507
▁National	-9.18649
▁consider	-9.1875
▁turn	-9.18921
▁whose	-9.18927
▁significant	-9.19348
▁additional	-9.19425
▁Note	-9.19529
▁target	-9.19661
▁related	-9.19719
▁cost	-9.19773
▁market	-9.19798
▁His	-9.19803
son	-9.19862
▁job	-9.19935
▁themselves	-9.19978
▁probably	-9.2011
▁complete	-9.2014
▁total	-9.20344
▁instance	-9.20402
Q	-9.20475
▁matter	-9.20481
ian	-9.20508
▁v	-9.20572
▁processes	-9.20625
png	-9.20802
▁quite	-9.20882
that	-9.21107
▁script	-9.21147
▁$\	-9.21186
▁impact	-9.21242
▁global	-9.21354
▁built	-9.21624
▁display	-9.21642
▁questions	-9.21668
▁black	-9.21672
▁hours	-9.21693
▁paper	-9.21806
▁directly	-9.21905
see	-9.22044
▁big	-9.2221
NAME	-9.22308
▁approach	-9.22337
▁print	-9.22447
test	-9.22464
▁features	-9.2255
▁git	-9.22562
▁war	-9.22574
▁position	-9.22696
based	-9.22838
▁shall	-9.22869
▁industry	-9.22968
▁longer	-9.22978
▁believe	-9.23076
▁functions	-9.23183
ry	-9.23322
ip	-9.23324
▁solution	-9.23327
▁getting	-9.23331
ro	-9.23338
▁taking	-9.23367
▁media	-9.23378
▁room	-9.23388
▁shows	-9.23397
▁production	-9.23524
▁didn	-9.24012
▁product	-9.24022
▁success	-9.241
!"	-9.24195
▁material	-9.24433
▁land	-9.24469
▁share	-9.24567
▁understanding	-9.24639
As	-9.24658
▁English	-9.24727
▁Dr	-9.24785
te	-9.24816
▁Mr	-9.24833
▁cells	-9.2486
▁tool	-9.24896
▁according	-9.25172
")	-9.25372
▁himself	-9.25478
size	-9.25486
▁currently	-9.25527
Z	-9.25529
▁started	-9.25564
▁tried	-9.25729
ive	-9.25848
▁property	-9.25853
▁near	-9.25883
▁terms	-9.26199
ent	-9.26366
▁nature	-9.26574
▁unit	-9.26581
ch	-9.26624
directory	-9.26691
▁simply	-9.27002
▁De	-9.27024
`.	-9.27074
with	-9.27097
▁groups	-9.27225
▁co	-9.27226
▁throughout	-9.27259
▁My	-9.27289
▁uses	-9.27293
▁inside	-9.2743
▁everything	-9.27433
ra	-9.27561
▁Then	-9.27706
Print	-9.27742
ia	-9.2778
▁art	-9.2783
▁considered	-9.27963
▁...	-9.2822
">	-9.28242
▁block	-9.28259
▁shell	-9.28371
▁towards	-9.28459
ter	-9.28642
▁won	-9.28643
▁strong	-9.28684
▁response	-9.28772
▁screen	-9.28865
▁programs	-9.28887
▁percent	-9.28904
();	-9.28905
▁policy	-9.28924
which	-9.28947
▁[-	-9.28963
▁entire	-9.28985
▁contains	-9.29125
▁death	-9.29193
▁living	-9.29261
▁plan	-9.29458
▁Now	-9.29541
▁skills	-9.29552
ie	-9.29685
▁John	-9.29721
▁modern	-9.29742
▁remote	-9.2989
▁match	-9.30018
▁useful	-9.30032
▁>	-9.30244
▁directories	-9.30249
▁months	-9.30308
▁website	-9.30351
not	-9.30684
||	-9.30786
▁characters	-9.30925
There	-9.30973
When	-9.31261
▁State	-9.31342
▁log	-9.31578
▁d	-9.31609
▁video	-9.3166
do	-9.31809
▁existing	-9.31914
▁countries	-9.31939
ting	-9.31948
▁World	-9.32004
▁pay	-9.32048
ling	-9.32049
▁practice	-9.32214
▁step	-9.32297
▁named	-9.32301
▁essential	-9.32364
▁recent	-9.324
▁effective	-9.32544
▁ago	-9.32637
▁music	-9.32653
so	-9.3266
▁sent	-9.32699
me	-9.32704
▁became	-9.32823
▁outside	-9.3287
go	-9.33274
▁takes	-9.33549
▁window	-9.33569
▁interface	-9.33701
▁car	-9.3377
▁someone	-9.33885
bit	-9.33893
▁copy	-9.34046
▁al	-9.34064
▁cut	-9.34258
▁require	-9.34275
▁n	-9.34291
▁individuals	-9.34501
▁defined	-9.34714
▁save	-9.34716
▁remove	-9.3476
▁asked	-9.34816
▁update	-9.34961
code	-9.34975
▁date	-9.35222
▁continue	-9.35342
▁length	-9.35407
▁{}	-9.35497
ies	-9.35533
▁supported	-9.35612
▁location	-9.35625
▁requires	-9.35712
▁effects	-9.35781
▁reduce	-9.35861
▁Use	-9.35878
▁passed	-9.36045
▁final	-9.36233
▁species	-9.36288
▁article	-9.36335
he	-9.36444
…	-9.36473
▁reading	-9.36496
▁IP	-9.36573
▁web	-9.36703
▁minutes	-9.36719
▁normal	-9.3692
And	-9.36928
▁prevent	-9.37173
▁designed	-9.37343
▁points	-9.37353
▁record	-9.3741
▁shown	-9.37656
▁plant	-9.37748
▁client	-9.37767
▁methods	-9.37813
▁told	-9.37872
▁changed	-9.37877
▁fine	-9.37964
▁behind	-9.37965
github	-9.38229
▁et	-9.38299
▁contain	-9.38304
▁follow	-9.38322
▁soon	-9.38348
▁US	-9.38353
▁series	-9.38445
▁force	-9.38685
▁numbers	-9.38777
▁training	-9.38777
▁weight	-9.38779
▁tools	-9.38789
▁patients	-9.38865
▁activities	-9.38865
py	-9.38892
▁focus	-9.38925
var	-9.39098
▁saw	-9.39118
▁thus	-9.39583
▁interest	-9.39675
output	-9.39694
▁eyes	-9.39907
value	-9.39966
▁creating	-9.39969
etc	-9.40026
▁parts	-9.4015
▁active	-9.40199
▁safety	-9.40224
▁medical	-9.40443
▁send	-9.4053
▁includes	-9.40584
▁loss	-9.40648
▁received	-9.4069
▁rest	-9.40785
▁wide	-9.40866
▁offers	-9.409
im	-9.40912
▁returned	-9.41046
▁third	-9.41129
▁ability	-9.41185
▁seem	-9.41209
`,	-9.41217
▁isn	-9.41257
▁increased	-9.41341
▁behavior	-9.41343
na	-9.41405
▁//	-9.41451
ne	-9.41495
▁operation	-9.41616
▁followed	-9.41659
▁ask	-9.41722
▁avoid	-9.41828
▁stop	-9.4185
────────────────	-9.41878
ine	-9.41986
▁settings	-9.41988
▁population	-9.42023
▁century	-9.42161
▁sound	-9.42173
▁May	-9.42213
ate	-9.4232
ization	-9.42536
▁subject	-9.42555
▁base	-9.42625
▁feature	-9.42647
ant	-9.42647
▁South	-9.42733
▁ID	-9.42823
am	-9.42847
▁Your	-9.42855
▁factors	-9.43006
▁signal	-9.43008
▁red	-9.43026
▁America	-9.43076
Name	-9.43085
▁political	-9.43146
▁greater	-9.43225
▁contact	-9.43395
▁bad	-9.43664
land	-9.43858
▁front	-9.43884
▁bytes	-9.43898
docs	-9.43917
info	-9.43931
▁activity	-9.43979
Set	-9.44031
▁condition	-9.44064
▁companies	-9.4407
il	-9.44095
▁York	-9.44202
▁difficult	-9.44238
um	-9.44288
▁enabled	-9.44445
▁studies	-9.44494
▁From	-9.4456
▁%	-9.44613
▁sort	-9.44665
▁develop	-9.44939
▁context	-9.4498
command	-9.44989
source	-9.44992
old	-9.45017
▁commands	-9.45186
▁attention	-9.45201
▁leading	-9.45208
▁held	-9.45222
▁materials	-9.45275
He	-9.45433
▁pain	-9.45463
▁began	-9.45572
text	-9.45659
▁ground	-9.45716
like	-9.45719
▁library	-9.45726
▁▁▁▁▁▁▁▁▁	-9.45728
▁brain	-9.45738
▁moment	-9.4582
▁applications	-9.45888
▁cell	-9.45949
▁positive	-9.45949
▁elements	-9.4597
▁difference	-9.46034
▁exit	-9.46076
▁benefits	-9.461
▁disk	-9.46112
▁skin	-9.46123
▁surface	-9.46242
os	-9.46372
▁term	-9.46378
▁evidence	-9.4644
▁analysis	-9.46596
ID	-9.46634
▁Here	-9.47102
▁improve	-9.47266
▁described	-9.47394
▁request	-9.47487
ary	-9.47491
▁sometimes	-9.47513
ized	-9.47601
▁previous	-9.47636
▁leave	-9.47908
▁entry	-9.47938
▁sea	-9.47993
▁beyond	-9.48001
▁Be	-9.48017
▁complex	-9.48153
▁pressure	-9.48159
▁boot	-9.48167
▁choose	-9.48229
ma	-9.48249
port	-9.48359
per	-9.48433
▁array	-9.48544
▁bring	-9.48559
ce	-9.4869
bar	-9.48693
▁region	-9.48987
▁forward	-9.49058
ad	-9.49143
▁easily	-9.49182
▁traditional	-9.49203
▁included	-9.4925
from	-9.49322
//	-9.49413
▁password	-9.49417
▁popular	-9.49727
▁lives	-9.49738
▁session	-9.49772
▁providing	-9.49816
ful	-9.49865
▁shared	-9.49963
▁style	-9.49998
term	-9.50057
▁developed	-9.50098
▁correct	-9.50107
▁Not	-9.5015
▁produce	-9.50174
▁purpose	-9.50185
▁science	-9.5025
Create	-9.50276
But	-9.503
▁particularly	-9.50303
▁Or	-9.5033
▁flag	-9.50356
▁Also	-9.50381
▁national	-9.50683
ally	-9.50745
▁Co	-9.50767
▁please	-9.50916
▁store	-9.51082
use	-9.51163
▁North	-9.51235
ish	-9.5132
▁rules	-9.51458
▁plants	-9.51602
▁returns	-9.51707
▁hope	-9.51746
▁basic	-9.52052
▁average	-9.52177
▁beginning	-9.52207
▁states	-9.52326
ty	-9.52405
▁expected	-9.52493
So	-9.52715
▁heat	-9.52857
▁economic	-9.52895
▁receive	-9.53052
▁pass	-9.5313
bin	-9.5317
▁fire	-9.53222
▁Our	-9.53307
▁speed	-9.53393
em	-9.53464
▁pattern	-9.53464
▁System	-9.53487
▁dis	-9.53513
▁hands	-9.5352
ating	-9.53603
▁involved	-9.53766
▁therefore	-9.53796
▁yourself	-9.53867
string	-9.53949
▁rights	-9.53956
▁parents	-9.54118
▁digital	-9.54125
▁hold	-9.54209
▁wrong	-9.54216
▁images	-9.54225
▁http	-9.54461
▁overall	-9.54511
▁g	-9.54631
How	-9.54665
cli	-9.54763
▁published	-9.5484
▁financial	-9.54847
include	-9.54912
▁oil	-9.54946
▁successful	-9.55
▁War	-9.55038
Start	-9.55096
▁starting	-9.55119
▁helps	-9.55317
▁friends	-9.55411
▁meet	-9.55598
▁terminal	-9.55739
▁safe	-9.55754
return	-9.55784
▁lost	-9.55815
▁cancer	-9.56024
lib	-9.56034
but	-9.56182
▁Ubuntu	-9.56214
▁six	-9.56302
▁limit	-9.56401
▁generally	-9.56465
▁fast	-9.56511
▁late	-9.56629
▁caused	-9.56635
▁coming	-9.56763
▁quickly	-9.56833
▁Since	-9.56882
config	-9.569
▁larger	-9.56977
▁objects	-9.57125
ence	-9.57209
▁operations	-9.5734
▁=>	-9.57463
▁]	-9.57559
▁zero	-9.57583
▁feet	-9.57759
ca	-9.57773
▁eye	-9.57913
▁decision	-9.58026
▁app	-9.58073
▁exactly	-9.58145
et	-9.58287
Show	-9.58497
▁packages	-9.58507
map	-9.58599
▁extra	-9.58635
▁except	-9.58645
▁causes	-9.58674
▁module	-9.58682
▁Health	-9.58722
service	-9.58751
ous	-9.58798
▁green	-9.5896
ls	-9.58961
▁appear	-9.59101
▁healthy	-9.59308
▁allowed	-9.59459
▁student	-9.59474
▁price	-9.59475
example	-9.59527
▁sleep	-9.59587
▁international	-9.5966
▁rule	-9.59907
▁Can	-9.59991
ley	-9.60008
▁society	-9.60091
ut	-9.60129
▁poor	-9.60163
▁communication	-9.60343
▁index	-9.60394
▁father	-9.60426
▁ideas	-9.60456
▁primary	-9.60796
▁note	-9.60851
▁filesystem	-9.60932
▁fields	-9.61081
▁apply	-9.61258
▁task	-9.61357
men	-9.61368
▁Let	-9.61427
▁led	-9.61458
Type	-9.6163
ac	-9.61679
▁\;	-9.6175
▁remember	-9.61887
▁steps	-9.61963
▁woman	-9.62004
day	-9.62028
▁empty	-9.62047
len	-9.62183
▁meaning	-9.62226
her	-9.62285
▁exist	-9.62324
▁gives	-9.62344
▁situation	-9.62399
▁variety	-9.62461
▁climate	-9.62494
▁month	-9.62534
add	-9.62649
▁compared	-9.62714
div	-9.62733
▁visit	-9.62767
▁Each	-9.62793
▁determine	-9.62809
ner	-9.6281
ance	-9.62985
tic	-9.63088
▁{{[	-9.6321
▁otherwise	-9.63294
▁maximum	-9.63364
▁everyone	-9.63439
▁gave	-9.63568
mp	-9.63585
▁brought	-9.63625
▁usage	-9.63662
▁deep	-9.63685
off	-9.63699
▁culture	-9.63803
▁Of	-9.63918
▁India	-9.63943
▁LATIN	-9.63977
▁direct	-9.64002
▁limited	-9.64132
▁opportunity	-9.64264
▁worked	-9.64288
▁mother	-9.64376
▁opportunities	-9.64412
▁fall	-9.64537
frac	-9.64596
DESCRIPTION	-9.64625
▁Many	-9.64955
▁connected	-9.65024
($	-9.65196
ir	-9.65389
host	-9.65432
▁==	-9.65467
▁sources	-9.65549
la	-9.65656
▁grep	-9.65698
▁appropriate	-9.65815
▁daily	-9.6585
lo	-9.65855
image	-9.6586
▁Most	-9.65873
▁damage	-9.65887
▁goes	-9.65913
_{	-9.65921
ted	-9.65941
▁member	-9.65989
▁symptoms	-9.6602
▁sign	-9.66031
▁automatically	-9.66056
▁progress	-9.66061
▁grow	-9.66063
▁temperature	-9.66067
▁projects	-9.6616
▁British	-9.66168
▁break	-9.66181
▁looked	-9.6627
▁partition	-9.66432
print	-9.66443
/*	-9.66453
▁properties	-9.66522
▁critical	-9.66582
▁deal	-9.66609
▁Y	-9.6661
▁release	-9.66692
▁card	-9.66722
▁reported	-9.66756
▁stay	-9.66758
▁double	-9.6701
▁perfect	-9.6706
▁professional	-9.67086
No	-9.6716
▁Al	-9.67299
▁containing	-9.67312
con	-9.67384
run	-9.6743
▁although	-9.67467
server	-9.67479
default	-9.6748
▁separate	-9.67542
▁turned	-9.67693
▁begin	-9.67703
se	-9.67772
▁gas	-9.67778
▁reference	-9.67879
▁clean	-9.67942
▁select	-9.67999
▁heard	-9.68089
▁author	-9.68098
▁challenges	-9.68114
▁forms	-9.6832
▁French	-9.68326
▁round	-9.684
▁enable	-9.68506
▁multi	-9.68536
▁located	-9.68542
ize	-9.68584
Get	-9.68644
▁First	-9.68655
ol	-9.68662
▁season	-9.68668
▁office	-9.6878
▁organization	-9.68854
input	-9.68875
▁thinking	-9.69069
▁database	-9.69124
ED	-9.69229
▁contents	-9.69305
▁growing	-9.69366
▁removed	-9.69423
▁document	-9.69564
right	-9.69633
pdf	-9.69646
))	-9.69788
▁connect	-9.69817
▁anyone	-9.69855
▁fully	-9.69879
systemd	-9.69973
manned	-9.70034
▁recently	-9.70157
▁wanted	-9.70313
▁arguments	-9.70365
▁remain	-9.70439
▁messages	-9.7057
freedesktop	-9.70595
▁protection	-9.706
▁act	-9.70639
▁commit	-9.70646
▁typically	-9.70666
▁La	-9.70696
ated	-9.70794
▁element	-9.70942
▁driver	-9.70968
▁talk	-9.70983
op	-9.71236
▁produced	-9.71265
▁becomes	-9.71352
class	-9.71375
▁maintain	-9.71408
▁virtual	-9.71416
Re	-9.71421
▁party	-9.71509
▁custom	-9.7151
▁expression	-9.71521
▁morning	-9.71537
package	-9.71651
nd	-9.71756
▁books	-9.71789
My	-9.71915
▁eat	-9.71988
▁looks	-9.72012
▁pretty	-9.7207
▁components	-9.72228
▁false	-9.72261
▁City	-9.72311
▁internal	-9.72371
▁reach	-9.72492
▁items	-9.72635
year	-9.72739
▁alone	-9.72822
▁remains	-9.72949
▁download	-9.73017
▁immediately	-9.73108
▁ready	-9.73119
▁stage	-9.73127
▁importance	-9.73139
▁animals	-9.7314
▁beautiful	-9.73258
▁completely	-9.73273
▁email	-9.73289
▁negative	-9.73316
import	-9.73339
On	-9.73558
▁highly	-9.73841
▁staff	-9.73868
▁School	-9.73913
▁pages	-9.73961
▁protect	-9.74009
Run	-9.7401
group	-9.74076
▁serve	-9.74116
version	-9.74119
▁Even	-9.74181
▁branch	-9.74181
▁actual	-9.74185
▁mount	-9.74189
▁volume	-9.74194
▁established	-9.74214
▁trade	-9.74294
▁perhaps	-9.74372
▁review	-9.74389
▁European	-9.74477
▁choice	-9.74514
▁worth	-9.74705
▁rates	-9.74746
our	-9.74772
▁perform	-9.74775
▁earlier	-9.74824
▁storage	-9.74858
}}"	-9.74924
▁click	-9.74975
▁load	-9.75054
was	-9.75112
▁benefit	-9.75226
Search	-9.75278
▁core	-9.75331
▁background	-9.75409
▁developing	-9.7548
▁k	-9.75497
▁China	-9.75515
▁collection	-9.75599
▁regarding	-9.75615
ref	-9.75642
▁solutions	-9.75765
▁wait	-9.75826
▁legal	-9.75943
▁son	-9.75986
▁calls	-9.76033
▁xargs	-9.76214
▁efforts	-9.76259
▁supply	-9.76279
▁environmental	-9.7631
▁hear	-9.76337
▁letter	-9.76389
we	-9.76528
▁trust	-9.76735
cat	-9.7676
▁influence	-9.76809
▁practices	-9.76849
▁repository	-9.76876
▁Although	-9.76897
▁kids	-9.77051
▁initial	-9.77128
▁town	-9.77134
▁older	-9.77193
▁latest	-9.77206
▁nearly	-9.77298
▁map	-9.77342
▁March	-9.77368
▁London	-9.77497
▁piece	-9.77579
▁nor	-9.7758
▁chance	-9.77599
▁relationship	-9.77603
▁unless	-9.77616
doc	-9.77629
mo	-9.77713
ur	-9.77732
▁crucial	-9.77746
▁con	-9.77808
▁cover	-9.77847
▁flow	-9.77896
▁mentioned	-9.77896
min	-9.77933
▁occur	-9.78004
▁West	-9.78079
▁patient	-9.78535
▁Center	-9.78556
you	-9.78556
▁parameter	-9.7863
▁identify	-9.78704
▁Con	-9.78825
only	-9.78828
▁count	-9.7885
▁interesting	-9.78935
tar	-9.78942
▁box	-9.7895
▁England	-9.79092
▁anti	-9.79094
▁Europe	-9.79124
root	-9.79183
▁fun	-9.79194
ge	-9.79276
▁modified	-9.79319
▁"$	-9.79467
▁distribution	-9.79513
▁Go	-9.79523
▁description	-9.79747
By	-9.7993
▁friend	-9.80025
ta	-9.80055
▁hot	-9.80133
▁placed	-9.8015
▁resource	-9.80188
▁bar	-9.80223
▁costs	-9.8027
mm	-9.80287
é	-9.80321
led	-9.80379
▁mental	-9.80454
▁SMALL	-9.8048
top	-9.80494
▁void	-9.80566
▁applied	-9.80746
▁ones	-9.80771
▁movement	-9.80779
▁giving	-9.80817
▁variables	-9.8089
▁researchers	-9.80953
▁cold	-9.80956
▁int	-9.8097
▁parent	-9.81031
▁communities	-9.81105
▁strategies	-9.81105
app	-9.81176
▁"{{	-9.81182
▁affect	-9.81243
▁whom	-9.81294
back	-9.81296
▁knew	-9.81329
▁valid	-9.8135
▁Z	-9.81465
▁summer	-9.81503
▁errors	-9.81517
▁goal	-9.81642
▁requirements	-9.81644
▁Research	-9.81671
▁board	-9.81747
▁techniques	-9.81788
▁stress	-9.81821
some	-9.81855
const	-9.81919
▁weeks	-9.81987
▁soil	-9.82
tr	-9.82013
way	-9.82115
▁THE	-9.822
▁testing	-9.82209
▁statement	-9.82228
▁fish	-9.82272
over	-9.82281
▁handle	-9.82283
read	-9.82298
ology	-9.82318
▁Why	-9.82347
▁Day	-9.82354
▁General	-9.82417
index	-9.82418
▁domain	-9.8249
pm	-9.82504
▁listed	-9.82505
▁parameters	-9.8252
▁buy	-9.82523
▁seconds	-9.82585
}{	-9.82635
▁trees	-9.82663
▁serious	-9.82715
▁ALSO	-9.82722
level	-9.82733
▁sun	-9.82763
▁Set	-9.82884
▁games	-9.82985
▁families	-9.82988
▁sets	-9.82991
fs	-9.8308
▁appears	-9.8317
▁equal	-9.83297
----------------	-9.83342
▁June	-9.8341
▁alternative	-9.83526
~	-9.8359
link	-9.83619
▁extension	-9.83674
▁selected	-9.83696
▁customers	-9.83696
▁picture	-9.83705
▁title	-9.83806
db	-9.8381
▁felt	-9.8398
▁pro	-9.84022
▁switch	-9.84052
('	-9.84068
▁International	-9.84071
▁failure	-9.84114
▁According	-9.84214
▁Q	-9.84227
▁Lord	-9.8432
▁King	-9.84356
▁Act	-9.8451
SYNOPSIS	-9.8458
▁hour	-9.84774
▁San	-9.84828
▁proper	-9.85069
ke	-9.85103
▁happen	-9.8525
▁Don	-9.85334
▁tax	-9.85381
field	-9.85474
▁external	-9.85544
izing	-9.85596
▁powerful	-9.85692
▁balance	-9.85693
open	-9.85802
▁windows	-9.85816
pi	-9.85843
▁lack	-9.85869
▁film	-9.85903
▁Man	-9.8597
▁Earth	-9.86075
ber	-9.86149
▁places	-9.86174
▁Pro	-9.86218
▁earth	-9.86365
▁hair	-9.86371
▁expect	-9.86388
▁instructions	-9.8639
▁center	-9.86414
▁planning	-9.86482
▁master	-9.86587
▁responsible	-9.8659
▁waste	-9.86608
▁President	-9.86627
All	-9.86674
▁versions	-9.86749
▁dark	-9.86817
Do	-9.86843
▁relevant	-9.86844
▁WITH	-9.86979
▁models	-9.87016
▁saying	-9.87022
php	-9.8707
script	-9.87071
foo	-9.87078
span	-9.87114
ga	-9.87411
▁exercise	-9.87457
▁fresh	-9.87541
search	-9.87569
▁former	-9.8761
▁construction	-9.87666
▁Please	-9.87669
▁info	-9.87687
▁patterns	-9.87842
▁cross	-9.87892
▁explore	-9.8805
▁units	-9.88074
▁news	-9.88079
▁court	-9.88102
▁toward	-9.8814
▁respect	-9.88153
▁corresponding	-9.88221
▁ten	-9.88258
▁shape	-9.88323
▁smaller	-9.88352
▁char	-9.88382
▁equipment	-9.88383
▁links	-9.88422
▁seemed	-9.88478
td	-9.88479
▁road	-9.88611
▁platform	-9.88731
++	-9.88785
▁actions	-9.88794
▁concept	-9.88849
▁CPU	-9.89042
▁phone	-9.89051
▁reasons	-9.89067
▁April	-9.89138
▁generated	-9.89145
View	-9.89152
url	-9.89188
▁hardware	-9.89205
side	-9.89295
▁fit	-9.89616
▁middle	-9.89621
▁allowing	-9.89688
▁specify	-9.89723
▁organizations	-9.89731
");	-9.89733
▁Her	-9.89758
▁filter	-9.8977
▁stories	-9.89773
str	-9.89778
▁dead	-9.89788
ists	-9.89798
▁travel	-9.89829
▁businesses	-9.89994
▁voice	-9.90123
ps	-9.90155
▁degree	-9.90369
▁House	-9.90382
▁achieve	-9.90406
▁Google	-9.90436
▁adding	-9.90456
▁Un	-9.90476
▁comment	-9.90477
▁mass	-9.90593
▁door	-9.90726
▁schools	-9.90746
▁failed	-9.9081
▁wrote	-9.90843
▁watch	-9.90865
▁USB	-9.90907
max	-9.91002
▁delete	-9.9106
▁numerous	-9.91145
▁presence	-9.91297
▁generate	-9.91345
▁traffic	-9.91361
▁track	-9.91364
▁manner	-9.9137
ping	-9.91435
▁tests	-9.9144
▁January	-9.91447
▁Le	-9.91521
▁wife	-9.91646
da	-9.91742
▁moving	-9.91779
▁column	-9.91866
▁moved	-9.91925
{{	-9.91959
▁significantly	-9.92018
▁buffer	-9.92042
▁auto	-9.92084
▁sites	-9.92105
▁military	-9.92109
▁thread	-9.92148
▁layer	-9.92154
▁effort	-9.9217
▁OS	-9.92348
▁truth	-9.92436
▁spread	-9.9248
▁enjoy	-9.92488
▁figure	-9.92515
▁basis	-9.92541
▁central	-9.92571
▁happens	-9.92644
▁hit	-9.92717
▁dry	-9.92759
▁Another	-9.92829
▁stored	-9.9298
▁increasing	-9.93017
▁Once	-9.93169
table	-9.93231
▁gain	-9.93251
▁guide	-9.93336
▁Park	-9.93339
▁reports	-9.93397
long	-9.93432
▁continued	-9.93575
▁blue	-9.93615
▁stand	-9.93638
▁none	-9.93833
An	-9.93849
▁manage	-9.93852
▁wind	-9.93866
help	-9.93871
▁UK	-9.93921
▁Thus	-9.94024
ex	-9.94072
File	-9.94103
echo	-9.94112
ri	-9.9412
▁wish	-9.94151
(),	-9.94164
free	-9.94236
▁resulting	-9.94251
target	-9.94251
ial	-9.94268
▁direction	-9.94284
▁Church	-9.94327
den	-9.94385
▁null	-9.94407
▁leaves	-9.94436
▁easier	-9.94513
▁II	-9.94541
rd	-9.94585
▁exists	-9.94614
ster	-9.94654
▁church	-9.94753
▁operating	-9.94754
▁documentation	-9.94755
}$	-9.94966
▁Indian	-9.95071
▁demand	-9.95134
▁changing	-9.95203
self	-9.9522
▁strength	-9.95358
▁Department	-9.95395
▁miles	-9.95565
▁theory	-9.95646
▁animal	-9.95692
vo	-9.9578
▁standards	-9.95806
▁meeting	-9.95845
ities	-9.95897
▁Pi	-9.959
▁Bo	-9.95913
▁manager	-9.95945
can	-9.96039
▁journey	-9.96108
▁config	-9.96131
▁decided	-9.96147
check	-9.96173
▁cache	-9.9629
lock	-9.96308
▁inter	-9.96385
start	-9.96542
▁largest	-9.96614
▁conclusion	-9.96632
▁transfer	-9.96738
▁records	-9.9686
▁gets	-9.96878
▁distance	-9.96932
▁Christ	-9.96972
▁clients	-9.96972
▁attempt	-9.9703
▁equivalent	-9.97111
▁performed	-9.97223
▁myself	-9.97271
▁missing	-9.97288
▁measures	-9.97326
jpg	-9.97439
▁stream	-9.97451
▁met	-9.97457
left	-9.97459
With	-9.97484
▁certificate	-9.97524
▁Moreover	-9.97609
▁Other	-9.97676
▁died	-9.9771
▁cultural	-9.97713
▁German	-9.97733
▁kept	-9.97905
▁depending	-9.97994
▁OF	-9.9802
▁August	-9.98022
That	-9.98093
▁matching	-9.98142
▁slow	-9.98188
▁Mar	-9.98259
▁July	-9.98273
▁header	-9.98301
▁career	-9.98303
▁profile	-9.98308
gen	-9.98361
ubuntu	-9.98462
▁goals	-9.98469
▁feeling	-9.9853
▁experiences	-9.98711
▁credit	-9.98748
▁Just	-9.98806
▁essay	-9.98885
ha	-9.98977
One	-9.98988
▁super	-9.99004
▁brand	-9.9902
▁September	-9.99054
▁showing	-9.99081
br	-9.99135
▁entries	-9.99206
▁rich	-9.99227
▁opened	-9.99249
▁born	-9.99267
▁plans	-9.99329
page	-9.99368
▁processing	-9.99375
▁fixed	-9.99376
▁calling	-9.99391
der	-9.99394
▁marketing	-9.99426
▁native	-9.99473
▁keys	-9.99517
▁huge	-9.99528
▁implementation	-9.99562
▁October	-9.99603
▁customer	-9.99653
▁California	-9.99675
▁fear	-9.99701
▁replace	-9.99748
▁Jesus	-9.99763
▁internet	-9.99788
▁River	-9.99805
▁enter	-9.99842
▁couple	-9.99876
▁addresses	-9.99904
▁ancient	-9.99936
▁creation	-10.0001
▁Science	-10.001
kin	-10.0017
▁certainly	-10.0026
▁County	-10.0028
are	-10.0031
▁carbon	-10.0032
Remove	-10.0045
▁teaching	-10.0047
▁During	-10.0053
▁sample	-10.0057
▁w	-10.0065
▁cat	-10.0078
▁/*	-10.008
▁connections	-10.0081
}\	-10.0081
ctl	-10.0087
▁recommended	-10.0089
▁l	-10.0092
▁Black	-10.0099
▁doctor	-10.0101
▁previously	-10.0108
ni	-10.0112
▁aspects	-10.0113
▁[--	-10.0114
▁December	-10.0116
his	-10.0116
▁suggest	-10.0124
▁Canada	-10.0134
▁scale	-10.0135
point	-10.0137
wiki	-10.0145
▁prior	-10.0151
▁Additionally	-10.0152
▁relationships	-10.0154
box	-10.0163
▁examples	-10.017
▁node	-10.0174
▁fix	-10.0182
proc	-10.0192
▁Christian	-10.0206
red	-10.0206
▁measure	-10.0208
▁nation	-10.0208
ler	-10.0214
▁happy	-10.0221
▁capacity	-10.0228
ard	-10.023
▁generation	-10.0236
▁differences	-10.0244
▁CAPITAL	-10.0247
ability	-10.0254
▁tasks	-10.0256
▁factor	-10.0263
▁properly	-10.0266
▁Institute	-10.0273
▁billion	-10.028
po	-10.0286
number	-10.0288
▁involves	-10.0294
ible	-10.0302
▁weather	-10.0304
▁relative	-10.0305
▁intended	-10.0308
▁j	-10.0308
▁speak	-10.0315
▁Key	-10.0317
▁gold	-10.0318
▁bottom	-10.0324
▁France	-10.033
▁interested	-10.033
▁blocks	-10.0337
▁diet	-10.0339
▁drop	-10.0339
ron	-10.0344
▁commercial	-10.0353
▁strategy	-10.0356
▁attack	-10.0362
▁accept	-10.0362
▁archive	-10.0365
▁occurs	-10.0369
▁capital	-10.0373
base	-10.038
mer	-10.0382
ical	-10.0394
▁stack	-10.0398
▁manual	-10.04
▁combination	-10.0402
local	-10.0409
ns	-10.0412
pid	-10.0419
▁"*.	-10.0422
▁highest	-10.0429
▁religious	-10.0435
au	-10.0435
date	-10.0438
▁permission	-10.0445
head	-10.0446
Use	-10.0451
▁container	-10.0453
▁classes	-10.0453
▁showed	-10.0459
▁dog	-10.046
▁owner	-10.0461
Add	-10.0461
usr	-10.0467
format	-10.0467
▁income	-10.0468
ah	-10.0469
▁sugar	-10.0469
▁flags	-10.0471
▁binary	-10.0487
▁wild	-10.0498
▁excellent	-10.05
▁ensuring	-10.0519
▁notice	-10.0519
▁attributes	-10.052
▁Data	-10.0522
▁seven	-10.0527
▁wood	-10.0528
▁charge	-10.0529
▁specifically	-10.0533
▁menu	-10.0538
▁definition	-10.0543
▁Because	-10.0546
▁reached	-10.0559
▁High	-10.0563
▁effectively	-10.0564
fd	-10.0564
pre	-10.0565
dy	-10.0566
▁Court	-10.0566
tion	-10.0569
rc	-10.0574
lan	-10.0582
▁challenge	-10.0585
▁follows	-10.0585
▁installation	-10.0589
▁protocol	-10.0594
ER	-10.0603
▁Pre	-10.0606
▁selection	-10.0607
▁o	-10.0609
let	-10.0615
Open	-10.0621
▁race	-10.0626
ham	-10.0628
▁https	-10.0629
nal	-10.0634
▁experienced	-10.0638
▁walk	-10.0651
▁advice	-10.0653
▁Make	-10.0658
tag	-10.0663
▁drug	-10.0669
String	-10.067
▁affected	-10.0671
▁component	-10.0678
▁r	-10.0679
▁presented	-10.0697
ier	-10.0701
▁closed	-10.0701
▁Internet	-10.0702
▁secure	-10.0703
At	-10.0704
▁aware	-10.0712
▁playing	-10.0719
ti	-10.0733
▁Get	-10.0734
▁teachers	-10.0734
▁historical	-10.0736
▁socket	-10.074
▁monitor	-10.0742
▁leaders	-10.0743
▁Only	-10.0744
▁Great	-10.0746
▁heavy	-10.0749
▁peace	-10.0761
ING	-10.0765
▁doubt	-10.0767
▁chain	-10.0768
▁constant	-10.0774
▁David	-10.0776
res	-10.0781
▁static	-10.0782
▁African	-10.0782
▁pieces	-10.0783
▁Na	-10.0783
{\	-10.0787
mode	-10.0788
▁players	-10.0794
▁explain	-10.0794
▁topic	-10.0798
▁foods	-10.0804
▁solid	-10.0805
▁login	-10.0805
▁Free	-10.081
▁Mac	-10.0823
▁fuel	-10.0827
▁supports	-10.0835
create	-10.0838
▁wall	-10.0839
di	-10.0845
▁const	-10.0846
▁river	-10.0847
▁Over	-10.085
▁foot	-10.0854
mount	-10.0854
▁opening	-10.0858
▁finding	-10.0859
▁Manual	-10.0868
tree	-10.087
▁indeed	-10.0872
count	-10.0875
▁rise	-10.088
▁Africa	-10.0884
▁laws	-10.0885
▁nice	-10.089
▁trace	-10.0894
▁item	-10.0907
▁policies	-10.0908
▁spent	-10.0913
▁Their	-10.0916
▁advanced	-10.092
ka	-10.0923
▁Mo	-10.0923
▁economy	-10.0926
ise	-10.0932
node	-10.0934
│	-10.0935
▁aspect	-10.0938
▁lib	-10.0939
ator	-10.0945
▁resolution	-10.0948
▁November	-10.0948
▁carried	-10.095
▁teeth	-10.0955
rm	-10.0956
▁Open	-10.0989
▁finally	-10.0991
mon	-10.0993
▁sequence	-10.0998
▁exposure	-10.1
▁PC	-10.1003
home	-10.1005
▁ice	-10.1007
▁People	-10.1007
▁Service	-10.1008
Data	-10.1012
><	-10.1015
ja	-10.1017
▁offered	-10.1024
state	-10.1028
▁indicate	-10.1028
▁warning	-10.1031
▁workers	-10.1036
▁contribute	-10.1037
sys	-10.1039
▁Any	-10.1043
▁IPv	-10.1044
▁mid	-10.105
▁determined	-10.1051
ward	-10.1068
▁faith	-10.1083
▁concerns	-10.109
Is	-10.1101
num	-10.1104
ab	-10.1111
pe	-10.1113
ship	-10.1114
▁happened	-10.1115
▁foreign	-10.1132
▁scientists	-10.1138
ure	-10.1138
▁Git	-10.114
▁soft	-10.1145
▁Therefore	-10.1145
ring	-10.1146
▁Washington	-10.1154
▁decisions	-10.1156
▁fight	-10.116
▁Added	-10.1167
▁sector	-10.1167
error	-10.1168
ee	-10.1185
public	-10.1185
▁spring	-10.1186
▁gone	-10.1196
tmp	-10.1204
)$	-10.1209
▁East	-10.1212
▁structures	-10.1212
▁quick	-10.1216
▁advantage	-10.1218
username	-10.1226
▁extremely	-10.1232
▁scientific	-10.1238
▁George	-10.124
▁Net	-10.1245
▁reduced	-10.1246
▁Am	-10.1247
▁warm	-10.1247
▁James	-10.1253
space	-10.1254
▁depends	-10.1265
light	-10.1269
val	-10.1273
▁learned	-10.1275
▁random	-10.1277
──────────────	-10.1278
init	-10.1286
▁college	-10.1287
display	-10.1293
▁covered	-10.1299
show	-10.1303
▁extract	-10.1303
how	-10.1304
pa	-10.1308
▁sales	-10.1311
New	-10.1311
lin	-10.1312
▁valuable	-10.1312
▁chemical	-10.1312
▁diverse	-10.1313
ium	-10.1314
sub	-10.1315
▁Using	-10.1319
▁technical	-10.1319
▁claim	-10.1322
▁Chinese	-10.1322
uk	-10.1329
▁press	-10.1337
▁touch	-10.1338
system	-10.1344
▁updated	-10.1354
▁minimum	-10.136
▁micro	-10.1364
ning	-10.1368
▁Check	-10.1368
▁id	-10.1369
▁merge	-10.1373
•	-10.1376
▁fair	-10.1386
write	-10.1387
more	-10.1397
▁vision	-10.1401
▁visual	-10.1402
▁route	-10.1412
▁identified	-10.1417
▁pick	-10.142
▁winter	-10.142
▁jobs	-10.1422
que	-10.1424
▁floor	-10.1424
void	-10.1425
▁win	-10.1426
▁Web	-10.1433
▁birth	-10.1434
auto	-10.1438
device	-10.1443
▁girl	-10.1446
▁discussion	-10.1453
▁button	-10.1453
down	-10.1459
▁net	-10.1461
part	-10.147
▁fail	-10.1479
▁Group	-10.1488
▁spend	-10.1489
rt	-10.149
▁POSIX	-10.1493
ci	-10.1494
▁broken	-10.1496
▁carry	-10.1505
▁independent	-10.1511
ba	-10.1516
ak	-10.1529
js	-10.1541
▁February	-10.1549
▁maybe	-10.1551
▁forces	-10.1553
▁eight	-10.1553
ite	-10.1554
▁History	-10.1554
▁AND	-10.156
▁whatever	-10.1562
▁Home	-10.1562
▁Art	-10.1564
▁treated	-10.1572
Now	-10.1572
linux	-10.1583
▁seeking	-10.1597
▁official	-10.16
▁detailed	-10.16
▁Are	-10.1601
ey	-10.1602
▁configured	-10.1607
▁Both	-10.1611
▁technologies	-10.1614
▁mark	-10.1616
oc	-10.1618
▁ideal	-10.1619
▁obtain	-10.1628
▁disabled	-10.163
Id	-10.1637
▁frequently	-10.1642
";	-10.1645
▁released	-10.1645
ms	-10.1645
Check	-10.1647
▁square	-10.1648
house	-10.1653
work	-10.1656
▁extended	-10.1657
▁promote	-10.1669
▁clearly	-10.168
▁tag	-10.1683
struct	-10.1687
▁Sa	-10.1694
▁sudo	-10.1694
▁ex	-10.1697
":	-10.1698
▁join	-10.1705
well	-10.1708
▁surrounding	-10.1711
▁played	-10.1712
▁kill	-10.1716
options	-10.1716
▁comments	-10.172
▁packet	-10.1722
▁filename	-10.1722
since	-10.1735
▁engine	-10.1736
▁Paul	-10.1739
▁notes	-10.174
md	-10.1741
▁Law	-10.1748
▁destination	-10.1754
board	-10.1756
▁leaving	-10.1762
ten	-10.1767
▁reality	-10.1771
bus	-10.1774
▁severe	-10.1775
▁Control	-10.1776
▁identity	-10.1784
▁tend	-10.1788
▁upper	-10.1788
▁appearance	-10.1789
▁truly	-10.1794
▁discovered	-10.1796
▁mouth	-10.1796
color	-10.1796
▁White	-10.1799
▁becoming	-10.1804
▁teacher	-10.1805
▁keeping	-10.1806
▁fruit	-10.1817
▁observed	-10.1819
util	-10.1821
From	-10.1822
▁yes	-10.183
hi	-10.1833
ng	-10.1835
param	-10.1836
▁principles	-10.1837
▁sharing	-10.1839
▁Red	-10.1843
▁en	-10.1843
▁insurance	-10.1845
▁Government	-10.1855
▁mobile	-10.1856
▁thanks	-10.1859
▁garden	-10.1863
▁hundred	-10.1865
▁paid	-10.1868
va	-10.1873
▁setup	-10.1884
▁pull	-10.1898
▁Green	-10.1911
▁served	-10.1914
rate	-10.1919
▁College	-10.1919
▁&&	-10.1923
▁push	-10.1928
▁signs	-10.193
▁photo	-10.1937
▁iron	-10.1939
)](	-10.195
▁matches	-10.1958
▁risks	-10.1965
▁vital	-10.1967
▁onto	-10.1971
▁academic	-10.1974
▁Council	-10.1975
▁enables	-10.1975
▁investment	-10.1978
▁meant	-10.1982
ile	-10.1982
▁adults	-10.1982
vi	-10.1987
▁Instead	-10.1988
▁Such	-10.199
▁efficiency	-10.1995
▁die	-10.2001
▁introduced	-10.2003
iv	-10.2011
cal	-10.2014
▁metal	-10.2014
▁majority	-10.2023
▁stock	-10.2023
message	-10.2029
▁treat	-10.2034
▁combined	-10.2046
▁solve	-10.2047
▁player	-10.2056
▁provider	-10.2057
▁acid	-10.2059
▁raised	-10.2065
▁detail	-10.2069
▁talking	-10.2071
form	-10.2075
▁purchase	-10.2079
▁Education	-10.2079
▁discuss	-10.2085
▁north	-10.2089
▁completed	-10.2089
ru	-10.2089
par	-10.2096
ph	-10.2097
▁resistance	-10.2098
Yes	-10.2102
les	-10.2109
▁Well	-10.2113
▁formed	-10.2118
cmd	-10.2122
▁edit	-10.2122
▁agree	-10.2123
▁glass	-10.2125
stat	-10.2126
▁suitable	-10.2134
▁bits	-10.214
▁offset	-10.2146
sum	-10.2148
Value	-10.215
▁colors	-10.2151
▁bio	-10.2152
non	-10.2153
▁purposes	-10.2165
mail	-10.2166
▁`/	-10.217
ap	-10.2171
▁ignored	-10.2171
▁stuff	-10.2172
▁latter	-10.2172
▁Furthermore	-10.2177
▁Power	-10.2182
After	-10.2184
▁capabilities	-10.2184
▁bank	-10.2185
▁protein	-10.2185
▁printed	-10.2188
▁raw	-10.2205
▁employees	-10.2205
They	-10.2207
▁permissions	-10.2209
IN	-10.2212
▁solar	-10.2221
where	-10.2225
def	-10.2235
Delete	-10.2237
Test	-10.2246
▁despite	-10.2246
style	-10.225
core	-10.2252
gh	-10.2253
▁String	-10.2254
ative	-10.2263
▁bus	-10.2273
▁refers	-10.2277
▁south	-10.228
▁represent	-10.2284
block	-10.2286
▁paths	-10.2287
master	-10.2288
▁police	-10.229
▁separated	-10.229
▁starts	-10.2301
▁appeared	-10.2303
▁helped	-10.2308
Specify	-10.231
▁infection	-10.2311
▁diseases	-10.2312
▁Association	-10.2313
tro	-10.2314
▁displayed	-10.2315
▁Me	-10.2316
ell	-10.2317
low	-10.232
▁pair	-10.2328
ped	-10.2329
▁Press	-10.233
▁di	-10.233
ger	-10.234
▁secret	-10.2341
password	-10.2342
▁...}}	-10.2344
▁runs	-10.2347
SEE	-10.2351
▁reducing	-10.2353
▁packets	-10.2355
CA	-10.2364
▁escape	-10.2366
dis	-10.2367
▁blog	-10.2372
US	-10.2374
▁architecture	-10.2388
▁loop	-10.2397
▁eating	-10.2401
▁marked	-10.2419
▁recommend	-10.2419
▁cities	-10.2419
▁wasn	-10.243
dd	-10.243
▁lay	-10.2433
▁parties	-10.2437
▁la	-10.2443
▁Water	-10.2447
▁browser	-10.2461
▁seek	-10.2462
▁killed	-10.2464
scale	-10.2464
▁letters	-10.2468
▁normally	-10.2471
▁circumstances	-10.2471
▁audio	-10.2473
ff	-10.2474
▁therapy	-10.2486
▁favorite	-10.2494
▁fill	-10.2496
▁Project	-10.2509
▁Ha	-10.2511
▁refer	-10.2517
▁efficient	-10.2529
ins	-10.2529
▁priority	-10.2532
▁seeing	-10.2534
▁updates	-10.2538
▁Part	-10.2542
ana	-10.2545
▁eventually	-10.2559
▁Read	-10.2562
▁speech	-10.2563
▁successfully	-10.2565
▁husband	-10.2566
▁attribute	-10.2568
▁potentially	-10.2569
▁remaining	-10.257
▁height	-10.2573
▁desired	-10.2573
▁regions	-10.2574
eth	-10.2574
▁Australia	-10.2577
▁leads	-10.2578
▁authority	-10.2579
▁managed	-10.2579
▁represents	-10.258
char	-10.2583
▁federal	-10.259
▁Public	-10.2593
IP	-10.2607
▁phase	-10.261
ze	-10.2616
▁prepared	-10.2631
▁Car	-10.2636
▁indicates	-10.2636
▁asking	-10.264
▁disable	-10.264
had	-10.2648
▁En	-10.2648
▁h	-10.265
▁faster	-10.265
▁annual	-10.2655
▁$(	-10.2658
▁origin	-10.2659
▁creative	-10.266
▁spot	-10.2664
▁improved	-10.2676
directories	-10.2677
▁maintaining	-10.269
▁symbol	-10.2694
▁educational	-10.2697
></	-10.2697
▁platforms	-10.2698
▁Thanks	-10.2701
OS	-10.2702
Here	-10.2702
▁URL	-10.2707
▁spirit	-10.2712
▁Management	-10.2714
▁maintenance	-10.2715
▁extent	-10.2725
▁Ma	-10.2726
▁interactive	-10.2726
label	-10.2735
▁mis	-10.2738
▁cool	-10.2739
▁spaces	-10.274
▁obtained	-10.2741
room	-10.2742
▁dynamic	-10.2744
ko	-10.2747
▁continues	-10.275
▁cycle	-10.2751
▁star	-10.2751
Key	-10.2754
▁echo	-10.2756
update	-10.2763
▁linked	-10.2765
▁algorithm	-10.2765
▁mostly	-10.2766
▁debug	-10.2772
));	-10.2773
▁Ca	-10.2778
▁entirely	-10.2779
▁Two	-10.2779
▁pool	-10.2787
▁Germany	-10.2788
▁king	-10.2795
▁Step	-10.2795
▁consumption	-10.2798
▁conflict	-10.28
▁baby	-10.28
case	-10.2803
▁ball	-10.2815
▁y	-10.282
▁Create	-10.2822
pages	-10.2825
Update	-10.283
▁helping	-10.2837
▁utility	-10.284
▁Li	-10.284
See	-10.284
▁salt	-10.2845
▁referred	-10.2846
▁El	-10.2846
▁Time	-10.2849
▁hash	-10.2849
▁commonly	-10.2855
▁formula	-10.2858
▁humans	-10.286
DIR	-10.2864
▁metadata	-10.2867
▁thin	-10.2876
▁Western	-10.2877
▁NULL	-10.288
▁approximately	-10.2885
NO	-10.2887
▁leader	-10.289
▁executed	-10.2896
▁medium	-10.2905
▁openssl	-10.2905
▁describe	-10.292
▁ahead	-10.2924
▁visible	-10.2927
Path	-10.2928
▁EVP	-10.2934
▁audience	-10.2946
▁counter	-10.2949
address	-10.2952
▁define	-10.2965
▁lock	-10.2968
`)	-10.2971
▁William	-10.2974
▁laptop	-10.2975
▁frame	-10.2977
cache	-10.2984
▁driving	-10.2989
nt	-10.2991
▁collaboration	-10.2991
▁Inc	-10.3
▁Vi	-10.3002
▁Like	-10.3009
▁DNS	-10.301
▁assume	-10.301
▁draw	-10.301
▁Lake	-10.301
post	-10.3011
▁relatively	-10.3014
(\	-10.3023
wood	-10.3023
▁sweet	-10.3024
▁waiting	-10.3025
▁band	-10.3032
ver	-10.3037
▁sum	-10.3038
▁recognized	-10.3041
▁import	-10.3041
ina	-10.3044
▁rock	-10.3049
▁wear	-10.3052
▁offering	-10.3054
hu	-10.3055
▁opinion	-10.3061
▁bound	-10.307
▁trip	-10.307
▁explanation	-10.307
▁List	-10.3081
ens	-10.3081
▁glibc	-10.3083
▁recovery	-10.3087
▁Street	-10.3091
▁professionals	-10.3094
load	-10.3096
▁exact	-10.31
tra	-10.3101
▁guess	-10.3113
▁specifies	-10.3117
▁Office	-10.3118
▁documents	-10.3122
▁motion	-10.3125
▁accepted	-10.3127
▁Society	-10.3129
tool	-10.3133
▁lived	-10.3135
▁underlying	-10.314
▁prompt	-10.3143
▁stone	-10.3143
▁bodies	-10.3146
SOURCE	-10.315
▁Development	-10.3153
▁ship	-10.3154
▁Good	-10.3159
▁Journal	-10.3161
pt	-10.3166
wa	-10.3168
▁Life	-10.3172
ification	-10.3173
ext	-10.3174
▁namespace	-10.3174
▁query	-10.3176
▁integer	-10.3181
▁lose	-10.3181
▁suggested	-10.3185
▁prove	-10.3198
ius	-10.3199
▁backup	-10.3201
▁radio	-10.3203
];	-10.321
▁Ar	-10.321
▁battery	-10.3211
▁daemon	-10.3214
▁aren	-10.3215
▁split	-10.3216
▁Pa	-10.3217
▁capable	-10.3229
▁female	-10.3236
event	-10.3239
ya	-10.3241
FILE	-10.3243
▁insights	-10.3243
▁transport	-10.3244
project	-10.3249
uri	-10.3249
cc	-10.3253
bo	-10.3254
▁thousands	-10.3255
related	-10.3259
▁Americans	-10.326
▁consists	-10.3263
book	-10.3268
▁neither	-10.3268
▁Bar	-10.3274
mi	-10.3278
▁battle	-10.3278
put	-10.3282
▁till	-10.3298
▁evening	-10.3304
▁drivers	-10.3309
▁beauty	-10.3313
These	-10.3323
MS	-10.3329
▁frequency	-10.3333
tu	-10.3337
yes	-10.3338
Error	-10.3343
▁noise	-10.3347
▁rare	-10.3349
ctx	-10.3353
▁bed	-10.3356
▁Union	-10.3358
▁causing	-10.336
▁Robert	-10.3365
▁execute	-10.3371
▁catch	-10.3371
ho	-10.3378
▁fell	-10.3378
▁chosen	-10.3378
▁MS	-10.3382
king	-10.3383
Property	-10.3384
▁clinical	-10.3387
▁exchange	-10.3388
tin	-10.3389
▁literature	-10.3397
ang	-10.34
▁engage	-10.3403
▁views	-10.3405
▁suggests	-10.3407
specific	-10.3408
▁emotional	-10.3409
▁boy	-10.3413
▁famous	-10.3414
define	-10.3415
▁struct	-10.3416
▁believed	-10.3417
▁Mrs	-10.3422
build	-10.3424
▁slightly	-10.3424
▁requests	-10.3427
▁accounts	-10.3435
Note	-10.3436
▁router	-10.3436
ries	-10.344
ised	-10.3441
▁leadership	-10.3445
▁~	-10.3445
EN	-10.3449
pass	-10.3451
▁practical	-10.3454
▁sell	-10.3455
have	-10.346
ig	-10.3461
▁usual	-10.3466
▁possibly	-10.3466
▁Se	-10.3475
▁landscape	-10.3478
trace	-10.3478
client	-10.3479
json	-10.3482
▁Post	-10.3484
▁launch	-10.3487
ological	-10.3488
▁president	-10.3492
ssh	-10.3493
▁consistent	-10.3498
▁execution	-10.35
▁optional	-10.3506
▁monitoring	-10.3506
▁Di	-10.3509
bi	-10.3512
▁carefully	-10.3513
▁increases	-10.3514
▁Air	-10.3518
xml	-10.3523
▁hearing	-10.3527
▁firm	-10.353
▁outcomes	-10.3538
▁statistics	-10.3539
▁experts	-10.3539
▁Show	-10.354
▁horse	-10.3545
▁fat	-10.355
▁birds	-10.3551
▁bug	-10.3553
▁respectively	-10.3554
▁Bay	-10.3554
▁decades	-10.3555
▁Through	-10.3556
▁prefer	-10.3563
▁sounds	-10.357
▁byte	-10.3573
▁arm	-10.3573
▁Mary	-10.3573
▁responsibility	-10.3574
▁hidden	-10.3577
▁filled	-10.3577
▁plays	-10.3583
Linux	-10.3584
▁rm	-10.3591
she	-10.3593
▁edge	-10.3594
▁occurred	-10.3613
▁injury	-10.3614
▁Per	-10.3615
▁ip	-10.3616
▁familiar	-10.3619
▁loved	-10.3622
▁helpful	-10.3626
▁situations	-10.3628
▁depth	-10.3633
▁Sea	-10.3634
lv	-10.3635
▁healthcare	-10.3638
such	-10.364
▁u	-10.3644
▁impossible	-10.3647
don	-10.3654
},	-10.3659
▁Lo	-10.366
▁straight	-10.3661
▁dangerous	-10.3663
making	-10.3665
▁Sun	-10.3674
▁enhance	-10.3674
▁arms	-10.368
tor	-10.3685
▁budget	-10.3685
▁freedom	-10.3686
▁dedicated	-10.3686
main	-10.3688
▁participants	-10.3689
mu	-10.3692
bb	-10.3692
▁drugs	-10.3693
▁cloud	-10.3701
FS	-10.3701
▁Will	-10.3706
▁expansion	-10.371
▁trouble	-10.3713
▁taste	-10.3713
▁milk	-10.3713
▁mission	-10.3718
▁increasingly	-10.3723
mb	-10.3725
▁clock	-10.3729
▁novel	-10.373
={{	-10.3732
pro	-10.3732
▁entered	-10.3733
▁tells	-10.3736
▁agent	-10.3739
▁civil	-10.3741
SE	-10.3745
▁border	-10.3753
attr	-10.3757
▁trial	-10.3758
▁Before	-10.3761
ft	-10.3764
▁protected	-10.3765
begin	-10.3765
▁recorded	-10.3766
▁herself	-10.3767
ric	-10.3771
/>.	-10.3774
DBus	-10.3778
▁instruction	-10.379
dump	-10.3791
▁desktop	-10.3795
▁reduction	-10.3796
▁contract	-10.38
▁bridge	-10.3804
▁raise	-10.3805
▁Network	-10.3808
▁justice	-10.3812
Why	-10.3813
▁Add	-10.3816
▁strings	-10.3817
▁signed	-10.3818
▁aid	-10.3822
▁prices	-10.3822
▁plastic	-10.3825
▁machines	-10.3831
▁wouldn	-10.3834
She	-10.3837
▁correctly	-10.3841
▁coffee	-10.3846
▁User	-10.3849
ging	-10.3855
▁marriage	-10.3855
ck	-10.3863
▁Book	-10.3864
sha	-10.3864
du	-10.3868
▁meat	-10.3869
exec	-10.3871
▁convert	-10.3874
▁Today	-10.3876
install	-10.3881
▁flat	-10.3887
▁song	-10.3888
▁attached	-10.3893
▁primarily	-10.3894
▁Sir	-10.3906
LE	-10.391
▁!=	-10.391
▁plus	-10.392
length	-10.392
ray	-10.3923
▁campaign	-10.3934
▁ultimately	-10.3935
▁muscle	-10.3937
▁daughter	-10.3938
▁voltage	-10.3941
▁Test	-10.3945
▁train	-10.3946
▁networks	-10.3957
▁respond	-10.3958
▁comfort	-10.396
▁shift	-10.3961
▁institutions	-10.397
▁fellow	-10.3972
ious	-10.3982
▁thoughts	-10.3983
▁begins	-10.3985
profile	-10.3986
▁diff	-10.399
▁sed	-10.3994
▁adult	-10.3994
▁capture	-10.3997
▁stated	-10.3997
▁virus	-10.3998
▁stood	-10.4008
▁width	-10.4009
src	-10.401
Read	-10.401
▁sold	-10.4018
▁zone	-10.4024
other	-10.4032
▁contrast	-10.4037
view	-10.4037
▁'*.	-10.4037
▁chapter	-10.4043
▁alcohol	-10.4044
▁sustainable	-10.4045
▁label	-10.4045
ions	-10.4048
Thanks	-10.4052
▁finished	-10.4053
▁passing	-10.4054
▁Library	-10.406
ob	-10.4067
env	-10.407
▁stopped	-10.4071
▁API	-10.4071
▁articles	-10.4075
▁teams	-10.4075
▁manufacturing	-10.4082
ments	-10.4083
▁forced	-10.4085
▁camera	-10.409
▁Mc	-10.409
▁implement	-10.4091
▁register	-10.4092
Of	-10.4096
▁encourage	-10.4096
Not	-10.41
▁Ti	-10.4101
▁existence	-10.4103
▁vehicle	-10.4104
▁lies	-10.4108
cy	-10.4109
▁mask	-10.411
▁proposed	-10.4111
▁Foundation	-10.4121
▁soul	-10.4121
gnu	-10.4121
ations	-10.4125
lic	-10.4126
sp	-10.4129
▁delivery	-10.4129
fa	-10.413
▁saved	-10.4132
▁Human	-10.4136
che	-10.4143
▁serves	-10.4148
▁electric	-10.4149
▁Roman	-10.4159
───────────────	-10.4163
az	-10.4164
▁ran	-10.4169
▁transition	-10.4183
▁motor	-10.4185
▁math	-10.4185
▁girls	-10.419
▁greatest	-10.4194
▁dependencies	-10.4194
▁behaviour	-10.4196
▁journal	-10.4196
eg	-10.4197
▁closely	-10.4202
▁urban	-10.4202
ez	-10.4206
▁brother	-10.4206
▁topics	-10.421
▁focused	-10.421
▁replaced	-10.4213
▁plain	-10.4215
za	-10.4223
▁sight	-10.4225
ew	-10.4228
▁descriptor	-10.4231
▁flowers	-10.4236
query	-10.4239
▁accurate	-10.424
▁medicine	-10.4242
AL	-10.4242
kernel	-10.4243
▁servers	-10.4245
▁ongoing	-10.4248
SET	-10.4248
▁tested	-10.425
▁channel	-10.4251
web	-10.4256
▁ca	-10.4257
°	-10.4257
▁twice	-10.4261
▁portion	-10.4268
▁informed	-10.427
om	-10.427
▁scene	-10.4271
arch	-10.4272
ever	-10.4282
there	-10.4283
▁parallel	-10.4285
▁village	-10.4288
▁advance	-10.4294
De	-10.4294
▁awareness	-10.4302
▁Report	-10.4302
api	-10.4303
▁TV	-10.4306
▁Ka	-10.4307
▁Sch	-10.4312
diff	-10.4318
Our	-10.432
▁Microsoft	-10.4323
▁engagement	-10.4329
questions	-10.4336
▁harm	-10.4341
▁prepare	-10.4345
docker	-10.4349
ui	-10.435
▁walls	-10.435
▁limits	-10.4352
lang	-10.4354
▁apart	-10.4356
$$	-10.4363
▁answers	-10.4363
▁Social	-10.4365
pl	-10.437
▁assigned	-10.437
yl	-10.4371
▁prefix	-10.4376
▁closer	-10.4376
While	-10.4377
px	-10.4378
ville	-10.4379
▁implemented	-10.4382
▁mail	-10.4382
▁Board	-10.4383
▁army	-10.4387
▁Ho	-10.4388
▁desire	-10.4389
▁infrastructure	-10.4391
od	-10.4398
▁claims	-10.44
▁interests	-10.4402
pos	-10.4402
▁steel	-10.4404
▁controlled	-10.4407
cd	-10.4412
▁facilities	-10.4417
▁standing	-10.4419
▁diabetes	-10.442
ib	-10.4425
▁…	-10.4426
▁twenty	-10.4427
▁Does	-10.4427
▁News	-10.4433
▁Miss	-10.4439
▁Central	-10.444
▁feed	-10.4442
▁Who	-10.4445
sa	-10.4446
hand	-10.4448
▁remained	-10.4451
▁thousand	-10.4456
▁tips	-10.4457
▁knows	-10.4457
▁executable	-10.446
ung	-10.4461
▁experiment	-10.4463
▁mention	-10.4465
edit	-10.4467
▁unknown	-10.4468
▁deliver	-10.4468
▁station	-10.4471
▁male	-10.4473
when	-10.4474
▁Program	-10.448
▁Congress	-10.4481
Generate	-10.4483
▁approaches	-10.4485
▁drink	-10.4492
▁widely	-10.4494
cu	-10.4495
▁distinct	-10.4496
▁editor	-10.4502
istic	-10.4504
▁sports	-10.4509
▁__	-10.4509
any	-10.4514
▁Manager	-10.4516
▁concepts	-10.4516
▁couldn	-10.4518
▁syntax	-10.4522
▁ourselves	-10.4526
▁HTTP	-10.4527
tle	-10.4536
▁fundamental	-10.4537
▁careful	-10.4539
▁violence	-10.4539
▁exposed	-10.4541
▁Peter	-10.4542
▁Yet	-10.4546
▁explained	-10.4546
▁comprehensive	-10.4549
▁cent	-10.4551
▁technique	-10.4552
▁Services	-10.4556
▁upgrade	-10.4556
▁extreme	-10.4565
▁skill	-10.4566
▁forget	-10.4582
▁Mark	-10.4585
▁bill	-10.4587
ov	-10.4591
▁citizens	-10.4596
▁File	-10.4598
Install	-10.46
▁IN	-10.4601
ud	-10.4605
they	-10.461
▁Information	-10.4611
▁gender	-10.4612
Some	-10.4621
▁youth	-10.4622
▁teach	-10.4623
java	-10.4625
AS	-10.4636
▁CA	-10.464
▁HTML	-10.464
cap	-10.4646
msg	-10.4651
▁Museum	-10.4652
▁chief	-10.4654
▁amazing	-10.4656
after	-10.4656
▁Bank	-10.4658
▁organic	-10.4663
store	-10.4667
▁concern	-10.4667
▁yellow	-10.4668
▁labor	-10.467
▁industrial	-10.4671
▁conversation	-10.4674
▁authentication	-10.4675
▁perspective	-10.4675
function	-10.4676
title	-10.4678
▁restore	-10.4682
▁creates	-10.4683
▁handling	-10.4688
▁Sunday	-10.4692
▁announced	-10.4701
PS	-10.4705
▁foo	-10.4706
Object	-10.4708
▁"/	-10.4708
▁Russian	-10.472
▁symbolic	-10.4723
▁cutting	-10.4726
▁shot	-10.4736
ice	-10.474
▁snow	-10.4741
▁vast	-10.4744
▁commitment	-10.4746
hr	-10.4747
ST	-10.4748
▁establish	-10.475
▁row	-10.4752
ld	-10.4753
▁bacteria	-10.4753
ny	-10.4753
who	-10.4755
▁broad	-10.4756
▁tissue	-10.4757
width	-10.4761
▁PDF	-10.4762
using	-10.4766
▁matters	-10.4771
▁Where	-10.4779
cert	-10.4779
RE	-10.4781
▁pp	-10.4782
▁innovation	-10.4785
▁wants	-10.4785
▁wonder	-10.4785
gz	-10.4789
▁managing	-10.4792
▁Spanish	-10.4799
▁locations	-10.4799
▁planet	-10.4803
▁GNU	-10.4817
last	-10.482
ade	-10.4828
▁ls	-10.4839
▁environments	-10.4845
pp	-10.4848
reference	-10.485
▁assessment	-10.4851
win	-10.4851
▁holding	-10.4854
▁island	-10.4856
▁sp	-10.486
▁homes	-10.4862
▁decide	-10.4864
ran	-10.4865
mit	-10.4865
position	-10.4867
▁partner	-10.487
▁reset	-10.4872
remote	-10.4879
▁Paris	-10.4879
▁font	-10.488
content	-10.4883
▁recognize	-10.4885
▁fashion	-10.4885
▁Wi	-10.4886
▁mine	-10.4888
▁married	-10.4889
software	-10.4894
row	-10.4894
▁competition	-10.49
has	-10.4903
▁camp	-10.4908
tan	-10.4932
▁Yes	-10.494
▁conducted	-10.4944
filter	-10.4944
▁Israel	-10.4946
▁expensive	-10.4953
▁religion	-10.4955
▁definitely	-10.4957
▁License	-10.4958
power	-10.496
▁rose	-10.496
▁Under	-10.4962
▁sensitive	-10.4962
lu	-10.4965
ker	-10.4965
what	-10.4966
▁resolve	-10.4972
unit	-10.4974
Time	-10.4975
ES	-10.4978
▁Company	-10.4979
▁sex	-10.4981
▁domestic	-10.4983
uid	-10.4988
▁category	-10.499
▁Every	-10.4991
▁ring	-10.5
▁minute	-10.5001
$,	-10.5001
qui	-10.5002
files	-10.5003
▁proof	-10.5004
ros	-10.5005
▁noted	-10.5007
$.	-10.5007
ery	-10.5011
npm	-10.5013
▁understood	-10.5015
▁putting	-10.5017
▁pointer	-10.502
▁scan	-10.5023
▁discover	-10.5029
▁Old	-10.503
▁absolute	-10.5031
chi	-10.5032
▁sat	-10.5037
▁emergency	-10.5038
▁functionality	-10.5041
▁grown	-10.5044
OR	-10.5046
spec	-10.5048
▁genetic	-10.5048
first	-10.5054
filename	-10.5056
Well	-10.5057
▁arrived	-10.5059
▁DNA	-10.506
▁reaction	-10.5068
User	-10.5069
▁||	-10.5079
▁haven	-10.5081
▁sides	-10.5084
ned	-10.5085
▁Ko	-10.5092
▁Take	-10.5093
▁scope	-10.5095
▁confidence	-10.5108
▁str	-10.5108
▁accessible	-10.5112
However	-10.5114
▁supporting	-10.5119
▁sufficient	-10.512
▁reflect	-10.5125
▁Christmas	-10.5126
▁necessarily	-10.5131
▁forest	-10.5131
▁dogs	-10.5134
▁assist	-10.5137
▁characteristics	-10.5137
▁Whether	-10.5139
▁ignore	-10.5142
▁dev	-10.5142
▁temporary	-10.5144
▁mechanism	-10.5144
ide	-10.5151
status	-10.5154
▁taught	-10.5156
▁spiritual	-10.5157
pkg	-10.5163
▁Michael	-10.5164
▁dump	-10.5171
▁Texas	-10.5179
▁issued	-10.5183
copy	-10.5183
▁park	-10.5184
▁anywhere	-10.5189
▁$$	-10.5194
▁max	-10.52
▁tab	-10.52
▁dream	-10.5201
network	-10.5205
ably	-10.5205
water	-10.5205
▁feedback	-10.5207
▁href	-10.5209
▁sections	-10.5211
▁detect	-10.5211
▁collected	-10.5223
Count	-10.5224
▁estate	-10.5224
body	-10.5225
▁choices	-10.5226
▁street	-10.5227
▁expert	-10.5228
▁pictures	-10.523
exe	-10.5234
▁pipe	-10.5236
▁sit	-10.5246
▁addressing	-10.5253
▁Its	-10.5254
change	-10.5255
▁conduct	-10.5259
remove	-10.5265
▁repair	-10.5273
▁introduction	-10.5274
▁represented	-10.5275
▁signals	-10.5276
▁abuse	-10.5278
▁manually	-10.5278
▁Children	-10.528
▁merely	-10.5285
▁speaking	-10.5286
▁consequences	-10.5287
▁console	-10.5287
▁atmosphere	-10.5289
▁assistance	-10.5293
▁regardless	-10.5293
▁procedure	-10.5296
place	-10.5298
▁vs	-10.5301
▁appeal	-10.5302
▁inner	-10.5302
▁supposed	-10.5304
ev	-10.5306
▁immune	-10.5307
cent	-10.531
▁keyboard	-10.5311
▁listen	-10.5312
PATH	-10.5312
▁attacks	-10.5313
▁payment	-10.5321
▁Ben	-10.5321
▁reliable	-10.5321
▁administration	-10.5323
▁Asia	-10.5323
▁engineering	-10.5326
▁classroom	-10.5327
▁findings	-10.5332
▁mounted	-10.5333
▁bone	-10.5335
▁explicitly	-10.534
▁SSL	-10.5341
mark	-10.5341
object	-10.5345
▁sale	-10.5361
▁collect	-10.5367
▁wine	-10.5367
▁considering	-10.5367
ney	-10.5374
range	-10.5379
opt	-10.5383
▁consumers	-10.5383
▁checking	-10.5384
▁score	-10.5391
▁buildings	-10.5391
▁vote	-10.5391
scan	-10.5393
▁degrees	-10.5396
▁Start	-10.54
cl	-10.5403
▁bear	-10.5404
▁Have	-10.5407
▁seed	-10.5409
▁brown	-10.5415
▁tea	-10.5426
▁Finally	-10.5433
▁checked	-10.5441
▁rain	-10.5442
▁tail	-10.5444
▁authors	-10.5448
SSL	-10.5448
▁estimated	-10.5449
▁challenging	-10.5451
▁moral	-10.5451
commit	-10.5459
art	-10.5462
him	-10.5463
▁funding	-10.5464
raw	-10.5464
▁kitchen	-10.5466
quality	-10.5471
▁stands	-10.5475
:**	-10.5477
now	-10.5477
gar	-10.5483
▁Su	-10.5485
▁formation	-10.5489
▁compare	-10.5495
▁modify	-10.5497
▁cards	-10.5502
▁languages	-10.5503
▁fails	-10.5503
▁Design	-10.5504
▁extensive	-10.5511
af	-10.5511
▁Server	-10.5513
jo	-10.5515
▁evaluation	-10.5518
▁obvious	-10.5518
ai	-10.552
sync	-10.5526
▁typical	-10.5528
▁worse	-10.5533
▁holds	-10.5537
▁Pe	-10.5538
▁lots	-10.5538
▁contained	-10.5539
▁survey	-10.5542
▁comfortable	-10.5542
pattern	-10.5543
▁loaded	-10.5548
▁vi	-10.5548
▁photos	-10.5548
▁unable	-10.5549
GB	-10.555
▁Thomas	-10.5556
▁concerned	-10.5556
▁branches	-10.5562
▁Jewish	-10.5563
▁anxiety	-10.5565
aws	-10.5565
gi	-10.5568
▁crime	-10.5568
make	-10.557
▁farm	-10.558
▁somewhat	-10.5583
▁cast	-10.5585
ach	-10.5593
▁expressed	-10.5594
▁Business	-10.5597
will	-10.5598
▁minor	-10.5601
▁layout	-10.5606
addr	-10.5608
Change	-10.5609
si	-10.5609
▁Smith	-10.561
mar	-10.5613
▁roles	-10.5615
fi	-10.5618
▁panel	-10.5621
ons	-10.5623
cite	-10.5631
▁procedures	-10.564
▁fan	-10.564
▁breast	-10.5642
▁movie	-10.5642
▁Henry	-10.5643
▁Japan	-10.5646
▁communicate	-10.565
▁possibility	-10.5656
Can	-10.5658
▁nuclear	-10.5659
tt	-10.566
▁ssh	-10.5664
▁sd	-10.5664
Be	-10.5665
▁grade	-10.5667
tz	-10.5668
▁slowly	-10.5672
▁Those	-10.5673
▁corner	-10.5673
car	-10.5678
▁ratio	-10.5687
▁conversion	-10.569
▁improvement	-10.569
err	-10.5691
▁Sub	-10.5693
▁TO	-10.5694
▁plenty	-10.5701
▁director	-10.5702
IS	-10.5707
▁Type	-10.5707
▁regional	-10.571
▁persons	-10.5711
cast	-10.5716
|-	-10.5717
Then	-10.572
ware	-10.572
▁involve	-10.5721
▁facts	-10.5723
PC	-10.5728
▁App	-10.5731
▁committed	-10.5733
apt	-10.5734
container	-10.5736
▁readers	-10.5738
▁rapidly	-10.5738
▁thick	-10.5747
▁improving	-10.5748
▁plugin	-10.5759
▁aim	-10.576
▁innovative	-10.5761
ram	-10.5763
ants	-10.5764
mac	-10.5768
▁'/	-10.5768
▁examine	-10.5769
▁drawing	-10.5769
grep	-10.5771
▁Greek	-10.5772
▁programming	-10.5773
▁columns	-10.5774
ppm	-10.5775
▁guidance	-10.5776
▁cap	-10.5779
▁immediate	-10.5779
windows	-10.5783
ino	-10.5784
▁era	-10.5786
▁smooth	-10.5789
ec	-10.579
▁Land	-10.5792
▁dance	-10.5794
▁perfectly	-10.5797
▁Though	-10.5798
▁regularly	-10.5799
▁breath	-10.58
domain	-10.5803
▁receiving	-10.5806
han	-10.5808
▁artist	-10.5808
▁vary	-10.5813
▁Facebook	-10.5815
▁flight	-10.5815
▁cluster	-10.5816
ble	-10.5816
mod	-10.582
▁Long	-10.582
▁summary	-10.5821
▁narrow	-10.5822
▁describes	-10.5822
war	-10.5822
▁samples	-10.5823
▁serving	-10.5826
▁export	-10.5829
▁principle	-10.583
site	-10.5835
▁centre	-10.5836
▁pointed	-10.5837
▁smart	-10.584
▁eggs	-10.5841
▁CO	-10.5843
▁wonderful	-10.5846
alpha	-10.5849
▁agreement	-10.585
ON	-10.5853
▁Island	-10.5855
▁turns	-10.5856
▁consumer	-10.5859
▁sessions	-10.5859
▁CD	-10.586
▁posted	-10.5863
▁emissions	-10.5865
▁listing	-10.5866
▁ISO	-10.5868
▁channels	-10.5871
▁surgery	-10.5871
▁delay	-10.5872
▁boys	-10.5873
uc	-10.5874
▁instances	-10.5876
▁artists	-10.5888
SS	-10.5894
pam	-10.5895
▁expertise	-10.5897
▁Apple	-10.5897
▁continuous	-10.5906
▁framework	-10.5907
▁trends	-10.5908
▁Men	-10.5908
screen	-10.5909
▁crisis	-10.5912
▁Up	-10.5912
▁providers	-10.5914
sec	-10.5916
▁circuit	-10.5918
());	-10.5926
▁officials	-10.593
▁feelings	-10.5936
▁Support	-10.5937
call	-10.5937
▁representation	-10.5941
AC	-10.5944
▁Hall	-10.5945
▁deeper	-10.5947
▁foundation	-10.5954
▁Ne	-10.5955
archive	-10.5957
▁compression	-10.5964
▁sending	-10.5964
col	-10.5966
▁Ta	-10.5967
/**	-10.5968
▁sexual	-10.5972
▁pack	-10.5976
▁readonly	-10.5977
▁brief	-10.5979
▁Ra	-10.5979
▁distributed	-10.598
▁supplied	-10.598
▁mo	-10.5985
ow	-10.5986
▁nations	-10.5989
▁TCP	-10.599
▁ocean	-10.5993
▁houses	-10.5998
CC	-10.5998
control	-10.5999
word	-10.5999
process	-10.6
▁engaging	-10.6003
▁pan	-10.6007
▁affects	-10.6008
pack	-10.6014
▁intelligence	-10.6017
delete	-10.6017
microsoft	-10.6019
ding	-10.6026
nu	-10.6029
▁knowing	-10.603
true	-10.6032
▁positions	-10.6033
▁*.	-10.6034
▁VM	-10.6035
▁joint	-10.6037
▁finish	-10.6037
▁stable	-10.6038
▁answered	-10.6038
▁dir	-10.6043
▁kinds	-10.6045
act	-10.605
▁electricity	-10.6052
▁Friday	-10.6053
▁percentage	-10.6057
▁boat	-10.6064
▁UN	-10.6065
▁mix	-10.6067
▁relations	-10.6067
Your	-10.6071
▁modules	-10.6076
][	-10.6077
▁Japanese	-10.608
▁Table	-10.6081
▁alias	-10.6082
▁chronic	-10.6087
▁patch	-10.6087
▁residents	-10.6088
▁bright	-10.6088
▁consideration	-10.6095
▁backend	-10.6102
▁owned	-10.6103
▁welcome	-10.6106
life	-10.6108
▁completion	-10.6112
▁comparison	-10.612
av	-10.6129
▁employed	-10.613
ford	-10.6137
known	-10.6139
sort	-10.6144
Un	-10.6149
tes	-10.615
▁pop	-10.6152
▁laid	-10.6154
▁divided	-10.6155
▁biggest	-10.6158
▁mainly	-10.6161
▁temperatures	-10.6162
▁Security	-10.6163
ue	-10.6165
▁license	-10.6167
ong	-10.617
▁signature	-10.6171
▁Standard	-10.6173
▁thank	-10.6174
▁LV	-10.6176
IF	-10.6176
▁ends	-10.6187
▁promoting	-10.6189
▁references	-10.6193
▁cable	-10.6193
▁Lu	-10.6196
▁subsequent	-10.6196
▁commits	-10.6197
▁Catholic	-10.6202
▁advantages	-10.6203
▁declared	-10.6203
tain	-10.6204
▁queue	-10.6204
▁Master	-10.6204
latest	-10.6207
▁forth	-10.622
▁depression	-10.6221
tri	-10.6223
▁Ri	-10.6225
▁libraries	-10.6233
google	-10.6234
ep	-10.6238
▁cash	-10.624
▁Display	-10.6241
▁apps	-10.6246
▁Jan	-10.6253
▁Gu	-10.6253
▁worldwide	-10.6255
▁ill	-10.6255
▁Commission	-10.627
▁joined	-10.6284
▁suffer	-10.6293
▁Florida	-10.6295
▁checks	-10.6295
▁Dec	-10.6301
▁funds	-10.6303
fully	-10.6304
▁largely	-10.6309
▁wave	-10.631
▁scheme	-10.6315
▁Review	-10.6317
▁operate	-10.6318
▁silver	-10.6319
▁mouse	-10.6321
▁Russia	-10.6321
▁logs	-10.6322
▁derived	-10.6323
▁ensures	-10.6327
▁capability	-10.6332
Convert	-10.6332
▁bigger	-10.6333
▁statements	-10.6335
▁district	-10.6336
▁caught	-10.6346
ola	-10.6349
item	-10.635
]]	-10.635
▁adds	-10.6353
▁engaged	-10.6356
▁periods	-10.6357
▁boolean	-10.6359
▁->	-10.636
▁markets	-10.636
▁lists	-10.6361
▁constantly	-10.6362
world	-10.6368
▁reverse	-10.6372
shell	-10.6375
▁ha	-10.6382
▁schedule	-10.6384
under	-10.6384
▁quiet	-10.6386
mem	-10.6392
your	-10.6394
▁focusing	-10.6399
▁controls	-10.6401
AT	-10.6403
▁integration	-10.6403
▁discussed	-10.6404
▁Charles	-10.6405
bash	-10.6405
▁reader	-10.6407
())	-10.6409
Execute	-10.6411
▁walking	-10.6414
▁secondary	-10.6417
ris	-10.6423
auth	-10.6428
▁inches	-10.6432
▁liquid	-10.6432
▁arg	-10.6435
▁locale	-10.6436
▁Trump	-10.6439
ini	-10.644
Oh	-10.6441
▁strategic	-10.6442
='	-10.6442
TA	-10.645
fer	-10.6453
▁dear	-10.6454
IO	-10.6457
▁newly	-10.646
USER	-10.646
▁partners	-10.6464
tal	-10.6466
hard	-10.6467
▁threat	-10.6471
▁turning	-10.6471
▁mixed	-10.6471
▁colour	-10.6471
▁sizes	-10.6473
RC	-10.6474
▁grew	-10.6475
▁Bi	-10.6485
▁naturally	-10.6486
ek	-10.649
▁exploring	-10.6491
▁measured	-10.6493
^{	-10.6503
▁subjects	-10.6503
active	-10.6505
▁struggle	-10.6506
ified	-10.6511
▁Technology	-10.6512
▁requested	-10.6513
Le	-10.6513
▁Python	-10.6516
▁wealth	-10.6524
▁robust	-10.6526
▁Star	-10.6535
▁Despite	-10.6536
().	-10.6541
▁About	-10.6546
▁amounts	-10.6549
▁Har	-10.6551
stone	-10.6554
▁guidelines	-10.6564
▁peer	-10.6565
here	-10.6566
▁hundreds	-10.6567
▁opposite	-10.6569
▁wire	-10.6569
ura	-10.657
▁Committee	-10.6572
▁demonstrate	-10.6579
▁hospital	-10.6585
UN	-10.659
session	-10.6594
▁electrical	-10.6597
▁ended	-10.66
▁acts	-10.66
boot	-10.6601
▁passage	-10.6602
▁sh	-10.6602
▁vehicles	-10.661
ast	-10.6612
▁vaccine	-10.6615
▁exception	-10.6618
▁Latin	-10.6618
▁Middle	-10.6619
▁Martin	-10.6621
ssl	-10.6622
▁Retrieved	-10.6624
▁suffering	-10.6628
▁originally	-10.6632
▁whenever	-10.6634
▁Copyright	-10.664
▁sand	-10.6643
▁discovery	-10.6645
SSLeay	-10.6653
▁removing	-10.6654
action	-10.6657
▁writer	-10.6657
▁classic	-10.666
▁spoke	-10.6662
▁appreciate	-10.6663
▁Access	-10.6667
:\	-10.6669
order	-10.6673
PA	-10.6678
df	-10.6678
▁Dis	-10.6687
▁sheet	-10.6691
▁Women	-10.6694
isation	-10.6695
false	-10.6696
▁massive	-10.67
▁expand	-10.6701
▁stars	-10.6703
pr	-10.6706
▁regulations	-10.6724
▁Example	-10.6725
▁pure	-10.6727
med	-10.6747
air	-10.6751
▁override	-10.6752
osis	-10.6755
vm	-10.6755
▁awk	-10.6758
play	-10.6764
▁figures	-10.6765
▁Medical	-10.6768
▁produces	-10.677
▁duty	-10.6771
▁sentence	-10.6772
▁def	-10.6775
})	-10.6777
▁seat	-10.6781
null	-10.6783
sen	-10.6784
▁Best	-10.6785
▁housing	-10.6786
▁banks	-10.6786
▁fostering	-10.6786
▁ingredients	-10.6787
▁transportation	-10.6788
ag	-10.6789
▁greatly	-10.6789
▁listening	-10.6794
▁happening	-10.6796
▁lessons	-10.6797
▁illness	-10.6799
▁Sp	-10.68
module	-10.6802
▁suddenly	-10.6816
▁owners	-10.6816
▁southern	-10.6819
▁edition	-10.6819
▁express	-10.682
▁aimed	-10.6821
about	-10.6823
law	-10.6823
▁ease	-10.6828
▁attempts	-10.6831
▁translation	-10.6831
▁ext	-10.6835
▁disorders	-10.6835
▁dinner	-10.6836
▁Number	-10.6836
');	-10.6838
▁Global	-10.684
debug	-10.6841
▁flu	-10.6847
▁developers	-10.6848
▁interaction	-10.6851
▁recognition	-10.6853
%)	-10.6855
▁Print	-10.6857
▁meaningful	-10.6864
▁tradition	-10.6864
▁III	-10.6864
▁east	-10.6869
▁realize	-10.6871
▁leg	-10.6874
▁linear	-10.6874
▁Year	-10.6875
Class	-10.688
▁ear	-10.6883
▁Ad	-10.6883
▁Ga	-10.6883
▁minimal	-10.6885
▁involving	-10.6885
mathbb	-10.6886
▁ownership	-10.6886
▁Love	-10.6887
▁debt	-10.6888
▁detected	-10.6888
ik	-10.6889
▁detection	-10.689
▁reply	-10.6891
▁theme	-10.6893
▁depend	-10.6894
▁nine	-10.6899
▁conference	-10.69
har	-10.6906
▁Bible	-10.6909
▁tables	-10.691
▁integrated	-10.6912
perl	-10.6915
ay	-10.6916
▁weak	-10.6916
▁Canadian	-10.6917
▁gene	-10.692
▁relation	-10.6922
▁joy	-10.6924
▁du	-10.6924
▁permanent	-10.693
▁OSSL	-10.6931
report	-10.6932
▁whereas	-10.6936
kill	-10.6936
▁Ex	-10.6936
▁mapping	-10.6937
▁noticed	-10.6938
▁proxy	-10.6939
▁trans	-10.694
force	-10.6944
Co	-10.6945
TO	-10.6948
▁symbols	-10.6949
▁routine	-10.6949
▁farmers	-10.695
▁contemporary	-10.6953
▁printing	-10.6955
▁min	-10.6956
wait	-10.6958
▁Du	-10.6959
▁reserved	-10.696
▁ordered	-10.696
▁var	-10.6962
▁op	-10.6966
▁Tom	-10.6967
▁enabling	-10.697
stack	-10.697
▁jump	-10.697
zero	-10.6971
▁spending	-10.6971
ose	-10.6974
▁saving	-10.6975
CTX	-10.6976
▁Look	-10.6979
Item	-10.6981
▁disorder	-10.6987
▁competitive	-10.6991
▁fly	-10.6993
▁verify	-10.6999
cpu	-10.7001
▁functional	-10.7001
▁cars	-10.7001
▁Energy	-10.7002
▁performing	-10.7003
▁industries	-10.7003
▁coast	-10.7004
▁Bill	-10.7005
▁stores	-10.7006
pool	-10.7015
▁pin	-10.7015
cing	-10.7016
▁formal	-10.7018
▁computers	-10.702
reg	-10.7027
▁Director	-10.7033
▁achieved	-10.7044
▁£	-10.7045
▁Manage	-10.7049
most	-10.7051
array	-10.7051
▁reboot	-10.7052
▁mountain	-10.7053
▁strange	-10.7053
▁Intel	-10.7053
▁agencies	-10.7054
▁flash	-10.7058
ot	-10.7059
normal	-10.7062
hash	-10.7063
lon	-10.7068
branch	-10.7069
▁impacts	-10.7072
▁reporting	-10.7072
ae	-10.7079
▁drinking	-10.708
▁bought	-10.7082
byte	-10.7083
▁pen	-10.7083
▁thy	-10.7086
ug	-10.7088
▁coverage	-10.7089
▁authorities	-10.709
▁meal	-10.709
▁categories	-10.7096
dia	-10.7097
▁pleasure	-10.7098
pg	-10.71
▁imp	-10.7114
▁explains	-10.7116
ual	-10.7117
frame	-10.712
▁populations	-10.712
Please	-10.7121
▁encoding	-10.7121
▁Light	-10.7123
▁HIV	-10.7124
▁lifestyle	-10.7128
▁visitors	-10.7129
State	-10.7133
fish	-10.7134
▁throw	-10.7139
section	-10.714
ette	-10.7142
▁politics	-10.7144
▁west	-10.7144
▁dealing	-10.7144
pnm	-10.7145
▁bag	-10.7149
▁Section	-10.715
▁websites	-10.7162
▁brings	-10.7168
▁Ph	-10.7179
▁delivered	-10.7179
▁Rights	-10.7183
MB	-10.719
graph	-10.7191
▁Italy	-10.7192
▁replacement	-10.7194
▁soldiers	-10.7196
current	-10.7196
▁registered	-10.7197
▁z	-10.7197
▁transmission	-10.72
limit	-10.7202
zip	-10.7203
▁storm	-10.7205
▁comma	-10.721
▁indicated	-10.7215
▁movements	-10.7217
▁yield	-10.722
▁Run	-10.7221
iz	-10.7223
▁Road	-10.7228
▁professor	-10.7231
▁initially	-10.7232
▁faced	-10.7232
▁sitting	-10.7234
▁rapid	-10.7235
▁absolutely	-10.7237
▁evolution	-10.7239
▁drives	-10.7239
▁dropped	-10.7245
▁Big	-10.7246
try	-10.7248
▁Mexico	-10.7249
▁drawn	-10.7252
▁vegetables	-10.7253
▁trend	-10.7253
▁gained	-10.7263
OPTIONS	-10.7263
▁locally	-10.7265
location	-10.7266
▁Monday	-10.7267
▁launched	-10.7268
▁oxygen	-10.7274
▁election	-10.7278
▁NOT	-10.7278
▁USA	-10.7278
▁applies	-10.7279
▁Saturday	-10.7283
▁department	-10.7283
▁guest	-10.7285
▁stages	-10.7286
▁officers	-10.7286
Service	-10.7289
▁configure	-10.7289
▁wireless	-10.7293
▁designs	-10.7294
▁OpenSSL	-10.7297
▁Ro	-10.7305
option	-10.7307
▁floating	-10.7311
berg	-10.7318
▁imagine	-10.7324
wikipedia	-10.7331
▁presentation	-10.7332
ari	-10.7338
▁timeout	-10.7342
▁Keep	-10.7344
▁writes	-10.7345
RI	-10.7352
▁SEE	-10.7356
▁cup	-10.7359
▁concrete	-10.7366
▁enemy	-10.7366
▁tip	-10.7367
select	-10.7368
").	-10.737
Go	-10.7372
vert	-10.7376
▁Royal	-10.7376
▁Among	-10.7376
▁shop	-10.7377
▁hence	-10.7379
▁Da	-10.7382
▁exciting	-10.7384
▁Ver	-10.7384
IC	-10.7386
uv	-10.7387
á	-10.739
▁Richard	-10.7396
La	-10.7397
▁decline	-10.7401
▁optimal	-10.7402
▁Change	-10.7403
phi	-10.7404
▁im	-10.7405
TH	-10.7407
▁logical	-10.7408
▁Next	-10.7409
MA	-10.7411
▁template	-10.7412
▁targets	-10.7412
▁marks	-10.7413
ify	-10.7419
▁employment	-10.7419
ency	-10.742
▁PID	-10.7421
DE	-10.7423
▁JSON	-10.7424
};	-10.7425
SC	-10.743
▁logic	-10.7432
▁sky	-10.7437
including	-10.7439
▁interactions	-10.744
aries	-10.7442
ration	-10.7444
▁bird	-10.7445
▁hotel	-10.7449
▁infections	-10.7454
▁layers	-10.7458
▁installing	-10.7459
ular	-10.7463
request	-10.7463
▁SD	-10.7464
▁difficulty	-10.7465
▁university	-10.7466
▁bash	-10.7467
▁presents	-10.7468
CO	-10.7469
CD	-10.7474
▁demands	-10.7475
▁Brown	-10.7475
▁fans	-10.7475
ub	-10.7481
▁Out	-10.7481
Text	-10.7484
▁agreed	-10.7486
▁bringing	-10.7488
▁cleaning	-10.7494
▁lesson	-10.7494
▁facing	-10.7498
entry	-10.7499
▁composition	-10.7499
▁restart	-10.7506
CH	-10.7507
▁facility	-10.7508
▁Super	-10.7518
manual	-10.7521
▁preserve	-10.7526
▁searching	-10.7531
Write	-10.7532
systemctl	-10.7532
ok	-10.7533
▁mere	-10.7534
▁revenue	-10.7536
▁evaluate	-10.7542
rie	-10.7542
Event	-10.7543
▁treatments	-10.7546
mic	-10.7546
Make	-10.7547
▁seeds	-10.7549
First	-10.7549
▁Space	-10.7552
ea	-10.7555
▁Select	-10.7557
sion	-10.756
▁millions	-10.7562
▁criminal	-10.7562
▁rely	-10.7563
Con	-10.7565
align	-10.7566
▁producing	-10.7566
▁Second	-10.7568
▁household	-10.7569
▁substance	-10.7572
▁boost	-10.7575
▁transformation	-10.7575
}'	-10.7577
▁lo	-10.7579
▁criteria	-10.758
Also	-10.7582
▁bind	-10.7584
mask	-10.7592
▁complicated	-10.7593
ack	-10.7596
▁EU	-10.7597
SP	-10.7601
▁Blue	-10.7609
▁ending	-10.7611
sc	-10.7616
▁OR	-10.7617
▁View	-10.7618
Message	-10.7619
▁sin	-10.7624
uring	-10.7627
▁lie	-10.7633
▁neck	-10.7633
▁COVID	-10.7635
fe	-10.7636
▁songs	-10.7636
▁codes	-10.7639
▁papers	-10.764
stop	-10.7641
▁tooth	-10.7642
were	-10.7645
being	-10.7646
▁Te	-10.7647
eq	-10.765
▁fairly	-10.765
HOME	-10.7651
▁agency	-10.7652
▁defense	-10.7652
▁interview	-10.7652
▁conventional	-10.7653
ory	-10.7653
media	-10.7664
▁identical	-10.767
ple	-10.7671
▁Click	-10.7672
▁Australian	-10.7672
▁extend	-10.7674
▁scripts	-10.7676
▁ride	-10.7677
▁watching	-10.768
▁significance	-10.7684
▁gift	-10.7684
▁participate	-10.7688
▁radiation	-10.7688
their	-10.7688
▁Minister	-10.7688
▁electronic	-10.7691
▁Federal	-10.7691
▁End	-10.7694
▁pathname	-10.7694
Don	-10.7694
▁muscles	-10.7698
▁Sha	-10.7699
▁stick	-10.77
▁roof	-10.7701
▁bread	-10.7702
▁favor	-10.7704
▁Professor	-10.7711
▁surprise	-10.7712
▁courses	-10.7716
▁Students	-10.7719
▁Name	-10.7719
▁km	-10.7722
cm	-10.7726
Or	-10.7732
▁implementing	-10.7734
▁Italian	-10.7738
▁Wood	-10.7742
▁equally	-10.7747
▁Sometimes	-10.775
nic	-10.775
▁specifying	-10.7753
▁adopted	-10.7755
▁Food	-10.7756
▁Joseph	-10.7759
▁Java	-10.7763
▁alongside	-10.7764
cha	-10.7767
▁destroy	-10.7773
▁foster	-10.7774
▁granted	-10.7776
▁Word	-10.7778
Let	-10.7778
▁mechanical	-10.7778
BS	-10.7785
▁nodes	-10.7788
▁lady	-10.7792
▁Unfortunately	-10.7793
▁stability	-10.7798
even	-10.7799
▁agents	-10.78
▁startup	-10.7803
vin	-10.7804
▁dpkg	-10.7805
▁assumed	-10.7809
▁($	-10.7812
▁thereby	-10.7812
oo	-10.7817
▁Work	-10.782
ica	-10.7826
▁danger	-10.7828
▁DC	-10.7828
▁paint	-10.7831
▁Tri	-10.7836
▁ought	-10.7838
Since	-10.7838
▁Jews	-10.784
▁se	-10.784
ox	-10.7842
▁quarter	-10.7846
ane	-10.7848
hood	-10.7849
▁dental	-10.7853
▁painting	-10.7854
▁vitamin	-10.7859
▁tar	-10.786
▁chemicals	-10.7865
▁privacy	-10.7867
▁decrease	-10.7868
▁videos	-10.7869
▁dust	-10.787
alias	-10.787
▁unsigned	-10.7876
▁interfaces	-10.7878
printf	-10.7879
▁concentration	-10.788
▁Chicago	-10.7884
itis	-10.7885
▁calculate	-10.7888
EmitsChangedSig	-10.789
▁Britain	-10.789
▁("	-10.789
dl	-10.7892
wide	-10.7894
lor	-10.7894
▁limitations	-10.7895
▁Fe	-10.7896
img	-10.7897
called	-10.7897
▁./	-10.79
fix	-10.7902
bytes	-10.7904
▁sister	-10.7909
▁suit	-10.7924
▁Format	-10.7935
login	-10.7939
▁Chi	-10.7939
lt	-10.794
▁RAM	-10.7941
▁err	-10.7947
▁bi	-10.7947
▁graph	-10.7949
▁fourth	-10.7951
▁preferred	-10.7957
than	-10.796
▁hole	-10.7964
▁frequent	-10.7964
▁debate	-10.7964
cos	-10.797
ks	-10.797
ky	-10.7975
▁Perl	-10.7982
▁compiler	-10.7984
mat	-10.7987
▁substantial	-10.7989
▁division	-10.799
TYPE	-10.799
private	-10.7992
▁preparation	-10.7994
▁Thank	-10.7995
▁mm	-10.7998
edge	-10.8001
▁ports	-10.8002
▁tr	-10.8005
▁regard	-10.8009
ball	-10.801
Size	-10.801
tools	-10.8016
Element	-10.8019
▁compiled	-10.802
▁fluid	-10.8021
▁assets	-10.8029
▁controller	-10.8033
▁AI	-10.8034
NET	-10.8035
watch	-10.8036
▁goods	-10.8037
▁displays	-10.8038
▁injuries	-10.8039
▁guarantee	-10.804
▁icon	-10.8041
▁principal	-10.8042
])	-10.8046
▁concerning	-10.8048
stream	-10.8048
▁Bio	-10.8048
▁Po	-10.8054
▁beneficial	-10.8058
then	-10.8058
▁crew	-10.806
▁slave	-10.8062
▁stem	-10.8063
▁Guide	-10.8067
▁stronger	-10.8074
▁extensions	-10.8074
ture	-10.8074
▁implications	-10.8075
▁centuries	-10.8077
▁moon	-10.8085
▁revealed	-10.809
▁NO	-10.8095
▁wedding	-10.8096
▁absence	-10.8096
▁macro	-10.81
▁Plan	-10.8101
▁fault	-10.8107
▁Ab	-10.8107
▁expectations	-10.8107
▁hosts	-10.8107
bs	-10.8107
▁strict	-10.8108
▁smoke	-10.8109
rv	-10.8109
▁belief	-10.8112
▁fruits	-10.8112
ama	-10.8114
▁mechanisms	-10.8115
▁cried	-10.8116
▁Van	-10.8119
▁Army	-10.8121
Field	-10.8121
▁crowd	-10.8125
real	-10.8126
cher	-10.8129
▁Which	-10.813
ala	-10.813
▁:=	-10.8132
▁applicable	-10.8134
▁reputation	-10.8134
▁northern	-10.8134
▁Default	-10.8136
Exception	-10.8136
▁Tu	-10.8139
▁friendly	-10.8141
Context	-10.8148
▁Win	-10.8154
step	-10.8155
▁compliance	-10.8156
▁promise	-10.8158
▁compatibility	-10.8163
share	-10.8164
▁assess	-10.8166
▁chair	-10.8167
---	-10.8167
Request	-10.8171
▁senior	-10.8172
method	-10.8172
pur	-10.8177
eb	-10.8178
▁Pat	-10.8183
▁init	-10.8184
rich	-10.8189
▁District	-10.8191
▁XML	-10.8192
System	-10.8193
aka	-10.8194
good	-10.8194
Table	-10.8196
▁vector	-10.8197
Source	-10.8198
allow	-10.8198
tty	-10.82
arg	-10.8203
▁perf	-10.8205
▁club	-10.8206
▁poverty	-10.8206
qua	-10.8207
▁organized	-10.8209
ii	-10.8213
ix	-10.8216
▁honor	-10.8221
▁Last	-10.8227
▁Without	-10.8227
disk	-10.8232
ella	-10.8233
▁alike	-10.8235
rin	-10.8237
▁repeated	-10.8237
▁Team	-10.8239
ara	-10.824
▁approved	-10.824
▁Medicine	-10.8241
▁hostname	-10.8245
ET	-10.8246
▁diagnosis	-10.8248
▁suppose	-10.8249
▁dive	-10.825
ans	-10.8252
CS	-10.8253
▁objective	-10.8257
▁Live	-10.8263
▁Try	-10.8265
▁particles	-10.8265
▁sick	-10.8268
▁sought	-10.827
▁loan	-10.8274
▁Queen	-10.8277
▁examination	-10.8278
▁Perhaps	-10.8279
lim	-10.828
mor	-10.8284
tech	-10.8286
▁Jack	-10.8288
Enable	-10.829
ute	-10.8294
▁younger	-10.8298
▁roots	-10.83
▁tags	-10.83
▁plate	-10.8301
▁emotions	-10.8305
▁replied	-10.8307
▁Software	-10.8307
rum	-10.8316
DS	-10.8317
del	-10.8318
▁trigger	-10.8321
▁rising	-10.8323
▁highlights	-10.8326
▁intervention	-10.8327
St	-10.8328
▁thou	-10.8328
vis	-10.833
nce	-10.8333
▁para	-10.8333
Windows	-10.8334
RA	-10.8338
▁Mi	-10.8338
oid	-10.834
▁invalid	-10.834
▁pet	-10.8341
ick	-10.8341
▁Hi	-10.8344
▁Virginia	-10.8346
cut	-10.8352
)\	-10.8359
▁Still	-10.8361
je	-10.8362
TS	-10.8362
▁Amazon	-10.8362
▁investigation	-10.8364
SA	-10.8368
fast	-10.8376
▁reasonable	-10.8379
▁Code	-10.8382
▁powers	-10.8382
ase	-10.8385
▁governments	-10.8385
Node	-10.8386
▁partitions	-10.8388
▁sectors	-10.8388
▁applying	-10.8392
▁automatic	-10.8392
▁repeat	-10.8393
EXIT	-10.8394
▁br	-10.8395
▁Fa	-10.8395
▁differ	-10.8397
▁aims	-10.84
▁Call	-10.8403
tab	-10.8403
▁Specifies	-10.8403
▁connecting	-10.8406
▁satisfaction	-10.8407
▁relief	-10.8416
lie	-10.8418
▁returning	-10.8419
MD	-10.842
▁tall	-10.8421
▁afternoon	-10.8422
▁Otherwise	-10.8427
▁sharp	-10.8428
split	-10.8431
▁mirror	-10.8433
▁threads	-10.8435
sy	-10.8437
▁dollars	-10.8437
export	-10.8439
EC	-10.8439
▁minimize	-10.844
▁permitted	-10.8444
▁implies	-10.8446
▁containers	-10.8449
model	-10.8453
▁Gold	-10.8454
MAX	-10.8456
made	-10.8458
▁evil	-10.8459
▁responses	-10.8462
▁SCSI	-10.8463
ki	-10.8467
▁Family	-10.8473
▁broader	-10.8473
ada	-10.8476
ians	-10.8477
▁ages	-10.848
▁Music	-10.848
American	-10.8482
▁confirm	-10.8488
▁weekend	-10.8489
Image	-10.8491
▁accessed	-10.8493
Code	-10.8495
▁diversity	-10.8502
ata	-10.8503
say	-10.8507
▁studied	-10.8515
▁recommendations	-10.8516
▁grid	-10.852
Fi	-10.8521
▁studying	-10.8521
▁chat	-10.8526
lam	-10.8536
▁dress	-10.8537
openssl	-10.8537
card	-10.8538
sql	-10.8539
hostname	-10.8541
ren	-10.8541
full	-10.8544
▁covers	-10.8545
▁fewer	-10.8549
▁trained	-10.8551
▁Pacific	-10.8553
jj	-10.8555
ero	-10.856
▁universe	-10.8561
▁integrity	-10.8561
▁prevention	-10.8567
▁interval	-10.8568
xx	-10.8568
▁deleted	-10.8569
['	-10.857
▁dependent	-10.8573
rel	-10.8574
▁passion	-10.8576
bra	-10.8577
▁reform	-10.8579
ret	-10.858
▁boundaries	-10.8581
▁Media	-10.8585
▁busy	-10.8589
▁copies	-10.8595
ct	-10.8595
▁generations	-10.8595
Edit	-10.8598
▁removal	-10.86
▁rural	-10.8601
▁Studies	-10.8603
▁predict	-10.8608
ient	-10.8614
ulation	-10.8616
────┼───────────	-10.8617
match	-10.8619
loc	-10.8619
AP	-10.862
▁Club	-10.862
]:	-10.862
vers	-10.8621
next	-10.8626
tis	-10.8626
nn	-10.863
▁corporate	-10.863
▁grant	-10.8631
access	-10.8635
▁Class	-10.8637
▁Auto	-10.8639
▁Ireland	-10.864
▁encryption	-10.8641
▁enjoyed	-10.8642
▁gap	-10.8643
▁preferences	-10.8644
▁fees	-10.8648
▁Ni	-10.8649
Output	-10.8652
▁proved	-10.8652
▁Cha	-10.8662
▁Ju	-10.8671
ties	-10.8671
▁audit	-10.8671
fall	-10.8679
▁Care	-10.8685
▁smile	-10.8685
▁deeply	-10.869
▁habits	-10.8693
▁worry	-10.8699
ven	-10.87
▁expanded	-10.87
▁album	-10.8705
▁algorithms	-10.8707
▁roll	-10.8709
[]	-10.871
▁bond	-10.8712
Info	-10.8716
Download	-10.8717
®	-10.872
▁allocation	-10.8722
release	-10.8723
ju	-10.8727
▁moments	-10.8729
utils	-10.873
▁everyday	-10.8731
▁processed	-10.8734
▁duration	-10.8737
▁Learning	-10.8737
▁gun	-10.8738
▁maintained	-10.8739
▁inspiration	-10.8741
▁snap	-10.8743
▁strongly	-10.8743
▁prime	-10.8745
▁considerable	-10.8747
▁Che	-10.8748
▁Three	-10.875
bed	-10.8751
▁Fire	-10.8754
▁cognitive	-10.8756
▁Jo	-10.8758
▁accuracy	-10.876
▁Consider	-10.876
ou	-10.8762
▁Spain	-10.8764
▁emphasis	-10.8766
▁western	-10.8766
▁angle	-10.8766
▁telling	-10.8766
matic	-10.8768
▁entering	-10.8768
sign	-10.8768
▁beach	-10.8769
▁equation	-10.8773
▁styles	-10.8774
▁fabric	-10.8775
▁curl	-10.878
▁OPTIONS	-10.8781
▁remarkable	-10.8782
▁SO	-10.8783
▁graphics	-10.8783
oon	-10.8786
▁grass	-10.879
star	-10.8791
▁falls	-10.88
▁supplies	-10.8801
▁heavily	-10.8801
bal	-10.8802
▁Hill	-10.8803
▁Southern	-10.8805
▁Back	-10.881
uff	-10.8813
▁abilities	-10.8814
▁Play	-10.8815
▁coal	-10.8817
▁attend	-10.8818
▁meta	-10.8819
▁magnetic	-10.8822
▁hurt	-10.8823
▁anyway	-10.8839
▁recording	-10.8841
▁~/	-10.8842
▁conservation	-10.8842
▁driven	-10.8844
▁reduces	-10.8844
▁maps	-10.8845
▁Oh	-10.8847
fire	-10.8857
▁sa	-10.8857
▁ho	-10.8859
▁Special	-10.8861
▁pollution	-10.8862
▁smell	-10.8863
FA	-10.8863
▁sc	-10.8868
▁sir	-10.8869
▁transaction	-10.8874
▁fighting	-10.8875
▁Lee	-10.8877
▁adjust	-10.8878
▁Community	-10.8878
▁shut	-10.8879
MP	-10.8879
▁debugging	-10.8883
▁willing	-10.8891
town	-10.8897
▁decade	-10.8898
two	-10.8899
▁Holy	-10.8903
▁football	-10.8904
ME	-10.8905
keys	-10.891
resource	-10.891
▁mood	-10.8918
ene	-10.8921
▁destroyed	-10.8922
▁CYRILLIC	-10.8924
▁aircraft	-10.8925
▁disc	-10.8925
night	-10.8927
▁precise	-10.893
▁PM	-10.8934
face	-10.8935
interface	-10.8937
▁ordinary	-10.8939
▁officer	-10.8941
bu	-10.8947
deb	-10.8949
▁founded	-10.895
▁suite	-10.8954
common	-10.8955
▁tiny	-10.8958
▁Sam	-10.8958
Map	-10.8964
▁"%	-10.8964
▁eliminate	-10.8967
▁demonstrated	-10.8968
also	-10.8979
float	-10.898
▁'{	-10.898
▁Online	-10.898
▁somewhere	-10.8981
▁estimate	-10.8982
them	-10.8983
buf	-10.8983
▁carrying	-10.8985
▁choosing	-10.8986
▁inspired	-10.8986
NS	-10.899
▁interact	-10.8992
▁Dan	-10.8995
its	-10.8999
▁combat	-10.8999
TIME	-10.9001
▁Party	-10.9001
▁holiday	-10.9003
▁finance	-10.9004
▁editing	-10.9005
▁Louis	-10.9006
▁horses	-10.901
▁moves	-10.9018
▁Civil	-10.902
hl	-10.9023
▁scenario	-10.9024
ear	-10.9024
▁recover	-10.9026
flags	-10.9027
▁src	-10.9028
▁pairs	-10.9031
▁legs	-10.9032
▁username	-10.9032
spi	-10.9032
▁lake	-10.9036
wing	-10.9039
before	-10.9043
Save	-10.9044
▁vulnerable	-10.9048
IM	-10.9049
▁Port	-10.9049
▁arts	-10.9051
mes	-10.9052
ters	-10.9054
nes	-10.9054
ill	-10.9059
▁crop	-10.9063
▁Bre	-10.9064
▁interior	-10.9069
▁waves	-10.9072
▁Value	-10.9072
▁apt	-10.9079
csv	-10.908
*"	-10.908
math	-10.9082
▁outer	-10.9083
▁compatible	-10.9085
▁Anti	-10.9086
hen	-10.909
python	-10.9093
▁Version	-10.9099
exp	-10.9101
▁ye	-10.9102
▁MAC	-10.9103
▁affecting	-10.9106
▁MD	-10.9106
▁trading	-10.9111
▁phrase	-10.9112
task	-10.9114
serv	-10.9115
▁probability	-10.912
▁cheap	-10.9123
▁selling	-10.9124
▁par	-10.9129
According	-10.913
SD	-10.9132
▁SSH	-10.9133
▁Remember	-10.9134
▁lab	-10.9135
▁composed	-10.9138
▁judge	-10.9143
▁Gen	-10.9144
▁artificial	-10.9146
context	-10.915
▁oral	-10.915
bound	-10.9153
stdout	-10.9156
▁converted	-10.916
▁Ku	-10.9163
flow	-10.9164
▁posts	-10.9166
▁Ja	-10.9166
▁rooms	-10.9167
author	-10.9167
▁Egypt	-10.9169
▁objectives	-10.9169
▁eth	-10.917
dom	-10.917
▁'{{	-10.9172
▁Edward	-10.9172
▁intense	-10.9174
▁tough	-10.9176
clock	-10.9179
▁swap	-10.9195
▁manufacturers	-10.9196
▁childhood	-10.9197
▁plot	-10.9198
▁healing	-10.9206
▁glad	-10.9208
▁superior	-10.9212
▁Options	-10.9212
avi	-10.9212
▁cooking	-10.9212
▁instrument	-10.9213
▁Ba	-10.9214
▁heads	-10.9215
▁afraid	-10.9216
▁Valley	-10.9216
▁basically	-10.9219
▁Model	-10.923
RT	-10.9235
▁Mor	-10.9236
pin	-10.9236
▁Vol	-10.9236
ita	-10.9236
▁Par	-10.9238
▁marine	-10.9239
▁Young	-10.9255
ches	-10.9257
LS	-10.9258
▁flexibility	-10.9258
would	-10.9258
▁essentially	-10.9259
▁struck	-10.9259
▁sync	-10.9261
▁vol	-10.9263
ath	-10.9265
▁Wa	-10.9275
▁MP	-10.9276
▁Find	-10.9277
Mo	-10.9281
▁worship	-10.9282
▁flexible	-10.9284
▁mining	-10.9285
gr	-10.9286
▁segment	-10.9286
▁formats	-10.9287
▁sport	-10.9289
Are	-10.9293
▁Gar	-10.9296
DR	-10.9296
▁tape	-10.9296
▁assembly	-10.9298
▁covering	-10.9298
Send	-10.93
des	-10.9301
▁emerging	-10.9301
oli	-10.9303
DB	-10.9303
▁breaking	-10.9307
MM	-10.9308
▁employee	-10.9316
▁expressions	-10.9322
▁programme	-10.9324
▁charged	-10.9324
▁excited	-10.9325
▁semi	-10.9326
cp	-10.9327
▁Returns	-10.933
▁RE	-10.9331
▁Rock	-10.9334
▁generating	-10.9334
▁Ge	-10.9336
header	-10.9336
backup	-10.9337
▁wheel	-10.9338
▁intellectual	-10.9341
´	-10.9344
▁requiring	-10.9344
▁<<	-10.9344
▁copyright	-10.9347
▁nearby	-10.935
sel	-10.9353
▁discussions	-10.9353
▁defaults	-10.9354
hat	-10.9355
▁occasion	-10.9357
▁proud	-10.9358
die	-10.9358
handle	-10.936
through	-10.9363
▁credentials	-10.9364
TR	-10.9365
▁damaged	-10.9367
ash	-10.9372
!!	-10.9372
cr	-10.9376
Just	-10.9378
▁Page	-10.9387
Pro	-10.9397
▁improvements	-10.9397
▁magic	-10.9397
▁blind	-10.9399
▁directed	-10.94
▁taxes	-10.94
comp	-10.9402
▁Times	-10.9403
▁miss	-10.9403
▁Rome	-10.9404
▁logging	-10.9405
▁Having	-10.9407
▁Point	-10.9408
▁sorted	-10.9411
▁gradually	-10.9411
▁Thursday	-10.9412
▁belong	-10.9414
▁analyze	-10.9414
bind	-10.9426
▁representing	-10.9426
lar	-10.9427
▁clone	-10.9429
parent	-10.9431
LC	-10.9432
▁recursively	-10.9432
Format	-10.9433
▁suspect	-10.9435
▁outcome	-10.9438
hal	-10.945
▁harmful	-10.9455
▁strain	-10.9455
arm	-10.9455
▁Indians	-10.9457
▁sequences	-10.9459
▁prayer	-10.9461
▁troops	-10.9469
▁pot	-10.9469
▁strike	-10.947
▁agricultural	-10.9473
▁navigate	-10.9473
▁engines	-10.9473
▁Should	-10.9474
▁Return	-10.9475
▁peak	-10.9478
▁timer	-10.9479
▁Real	-10.9481
▁calendar	-10.9492
▁Figure	-10.9495
should	-10.9497
▁falling	-10.9502
▁Place	-10.9507
▁Debian	-10.9508
Copy	-10.951
uck	-10.9515
▁Local	-10.9517
▁association	-10.952
sch	-10.952
high	-10.952
▁butter	-10.9525
▁facilitate	-10.9525
sim	-10.9537
▁excess	-10.9538
▁powder	-10.9538
▁Nature	-10.9539
▁Organization	-10.9546
▁complexity	-10.9546
▁serial	-10.955
▁musical	-10.9555
DC	-10.9556
▁invoked	-10.9558
ena	-10.956
▁planned	-10.9562
libc	-10.9562
▁judgment	-10.9563
▁Johnson	-10.9566
▁TLS	-10.9566
apache	-10.9567
▁Study	-10.9569
▁pthread	-10.9569
wi	-10.957
▁Cor	-10.9573
▁operator	-10.9574
▁Twitter	-10.9577
▁giant	-10.9582
▁token	-10.9583
▁hang	-10.959
▁candidate	-10.9597
▁plane	-10.9598
▁guests	-10.96
exit	-10.9601
▁Saint	-10.9601
▁restrictions	-10.9601
▁tone	-10.9601
=<	-10.9603
▁Non	-10.9604
▁inflammation	-10.9604
▁indicating	-10.9604
nbsp	-10.9604
▁pi	-10.9604
▁vessels	-10.9607
▁celebrate	-10.9608
▁circle	-10.9611
▁AD	-10.9615
cf	-10.9615
cus	-10.9617
offset	-10.9617
▁st	-10.962
nix	-10.9625
▁accident	-10.9628
▁leaf	-10.9629
und	-10.9633
▁insert	-10.9639
era	-10.964
▁processor	-10.9641
▁candidates	-10.9642
▁tour	-10.9644
▁focuses	-10.9648
▁DHCP	-10.9661
pw	-10.9661
▁orders	-10.9662
▁enhancing	-10.9662
result	-10.9664
▁Chief	-10.9665
▁arise	-10.967
▁Academy	-10.967
aging	-10.9671
take	-10.9673
▁alive	-10.9676
▁possess	-10.9677
▁bundle	-10.9681
▁Similarly	-10.9682
▁requirement	-10.9684
brew	-10.9685
─────────────	-10.9685
ā	-10.969
ates	-10.9691
▁le	-10.9692
▁fetch	-10.9692
▁calculated	-10.9693
▁dialogue	-10.9693
▁(`	-10.9693
▁Ke	-10.9695
▁Did	-10.9695
push	-10.9697
▁happiness	-10.9698
▁num	-10.9699
▁IT	-10.97
▁dependency	-10.9703
repo	-10.9704
▁prison	-10.9705
▁spin	-10.9706
Log	-10.971
▁feels	-10.9711
▁Full	-10.9711
▁reviews	-10.9712
▁curriculum	-10.9715
mathcal	-10.9715
Have	-10.9716
▁philosophy	-10.9717
▁clothes	-10.9718
ming	-10.972
▁identifier	-10.9722
▁paying	-10.9727
▁safely	-10.9729
care	-10.9729
\\	-10.9729
each	-10.9731
▁rent	-10.9733
▁Gra	-10.9734
▁density	-10.9734
*/	-10.9737
▁Carolina	-10.9737
▁impressive	-10.9738
▁Ocean	-10.9738
pac	-10.9744
inter	-10.9744
SO	-10.9746
FC	-10.9748
▁infected	-10.9749
▁hide	-10.9752
Thank	-10.9754
▁identifying	-10.9756
"><	-10.9759
▁wake	-10.9761
tus	-10.9769
▁Language	-10.9773
▁tight	-10.9774
PO	-10.9775
▁revision	-10.9775
ski	-10.978
▁ranging	-10.9782
▁Reading	-10.9783
▁mild	-10.9784
sk	-10.9794
▁Android	-10.9798
▁Grand	-10.9798
rian	-10.9802
▁participation	-10.9804
PARAM	-10.9804
▁crown	-10.9808
▁align	-10.9809
▁colon	-10.981
▁Common	-10.9812
▁cm	-10.9814
=\	-10.9816
▁lvm	-10.9817
▁blank	-10.9819
▁Irish	-10.9819
▁Trans	-10.9819
live	-10.9821
▁craft	-10.9822
folder	-10.9823
press	-10.9828
▁claimed	-10.9829
▁curious	-10.9831
▁apparently	-10.9832
▁hook	-10.9834
▁stroke	-10.9835
▁trusted	-10.9836
▁themes	-10.9841
cle	-10.9845
▁Bra	-10.9849
▁arrival	-10.9849
▁divine	-10.9849
▁simultaneously	-10.9851
Any	-10.9853
--"	-10.9856
▁chmod	-10.9861
san	-10.9862
▁Sign	-10.9862
Link	-10.9863
▁acquired	-10.9864
pub	-10.9864
pc	-10.9866
▁java	-10.9866
▁liver	-10.9867
▁certificates	-10.9868
▁Cal	-10.9876
▁protocols	-10.9878
▁GPU	-10.988
aw	-10.9882
▁Maybe	-10.9883
▁finds	-10.9885
tex	-10.9888
▁exploration	-10.9894
▁Father	-10.9898
Many	-10.9899
▁holes	-10.99
Ho	-10.9901
▁dating	-10.9902
▁Em	-10.9905
big	-10.9905
▁www	-10.9907
lp	-10.9909
socket	-10.9909
ering	-10.9911
usage	-10.9914
▁prints	-10.9914
▁Hu	-10.9915
▁legislation	-10.9917
▁pregnancy	-10.9917
▁technological	-10.9917
▁universal	-10.992
▁tracking	-10.9921
▁colleagues	-10.9921
▁nose	-10.9921
▁crops	-10.9922
▁PV	-10.9923
▁availability	-10.9926
Another	-10.9927
▁Fund	-10.9928
crypt	-10.9928
▁roads	-10.993
▁PA	-10.9931
van	-10.9932
▁motivation	-10.994
▁bugs	-10.9942
▁Tuesday	-10.9944
▁dates	-10.9945
▁logged	-10.9949
▁Lady	-10.9951
very	-10.9955
▁vertical	-10.9956
▁mono	-10.9957
▁respective	-10.9957
▁bones	-10.9958
rev	-10.9958
▁aside	-10.9959
▁lifetime	-10.9959
▁exclusive	-10.996
▁tri	-10.996
Where	-10.996
far	-10.9961
ü	-10.9963
▁identification	-10.9963
sky	-10.9964
download	-10.997
args	-10.9971
ptr	-10.9972
learn	-10.9973
▁reads	-10.9977
ress	-10.9978
MC	-10.9982
LOG	-10.9982
▁victims	-10.9982
▁selecting	-10.9991
temp	-10.9991
▁cur	-10.9991
security	-10.9995
▁enhanced	-10.9997
▁buying	-11.0003
▁sensor	-11.0007
▁hexadecimal	-11.0008
▁worst	-11.0008
▁television	-11.0008
▁losing	-11.0009
▁hardly	-11.0013
▁Fair	-11.0013
person	-11.0015
▁loose	-11.002
▁beneath	-11.0024
Pre	-11.0025
▁ref	-11.0025
NI	-11.0026
▁Cross	-11.0031
▁profiles	-11.0031
▁psychological	-11.0031
▁blow	-11.0033
▁Centre	-11.0034
▁chances	-11.0034
▁survive	-11.0036
▁adapt	-11.0038
▁tailored	-11.0038
▁totally	-11.004
▁captured	-11.0042
▁rec	-11.0043
icon	-11.0043
cb	-11.0044
Content	-11.0045
parse	-11.0049
▁grace	-11.0054
▁suffix	-11.0056
▁elsewhere	-11.0057
▁migration	-11.0059
▁reaching	-11.0062
ax	-11.0063
▁realized	-11.0063
ising	-11.0074
▁streets	-11.0076
▁qualities	-11.0077
▁generic	-11.0084
ave	-11.0085
▁introduce	-11.0087
▁poly	-11.0088
▁Captain	-11.0091
▁True	-11.0091
▁interpreted	-11.0091
▁newer	-11.0093
▁registry	-11.0096
▁org	-11.0096
▁fishing	-11.0097
▁lighting	-11.01
▁biological	-11.0101
▁instruments	-11.0102
▁Right	-11.0102
▁hyper	-11.0103
▁legacy	-11.0103
▁printer	-11.0107
}(	-11.0113
illa	-11.0117
▁Nor	-11.0118
▁persistent	-11.0118
AD	-11.0118
▁exercises	-11.0118
ole	-11.0121
ail	-11.0121
▁Republic	-11.0121
▁Col	-11.013
▁centers	-11.0133
email	-11.0141
▁doctors	-11.0145
▁egg	-11.0145
▁MT	-11.0145
▁copper	-11.0147
Illustration	-11.0147
Only	-11.0148
▁compressed	-11.0151
▁cook	-11.0152
▁Indeed	-11.0154
▁narrative	-11.0156
▁pounds	-11.0158
▁constructed	-11.0159
mann	-11.0159
FF	-11.0161
▁incident	-11.0161
▁van	-11.0162
▁revolution	-11.0169
away	-11.0169
▁Early	-11.0169
▁AT	-11.017
▁county	-11.0173
▁exhibition	-11.0174
▁Northern	-11.0175
▁vice	-11.0175
▁VPN	-11.0177
OD	-11.0178
ily	-11.018
rust	-11.0182
Net	-11.0184
▁Frank	-11.0193
▁gear	-11.0193
▁tap	-11.0198
▁bowl	-11.0202
ENT	-11.0206
su	-11.0208
▁keeps	-11.021
▁paste	-11.0211
▁purchased	-11.0211
▁experiments	-11.0213
meta	-11.0215
▁Conference	-11.0217
▁interpretation	-11.0219
▁Nations	-11.022
▁opposed	-11.0221
▁sad	-11.0226
IT	-11.0226
qu	-11.023
▁inode	-11.0231
▁suggestions	-11.0232
tail	-11.0236
▁Christians	-11.0236
▁creativity	-11.024
merge	-11.0242
▁tank	-11.0247
click	-11.0249
▁gather	-11.0251
▁MB	-11.0253
▁historic	-11.0254
▁burden	-11.0256
onic	-11.0258
rk	-11.0259
Index	-11.0261
▁AS	-11.0262
FUNC	-11.0263
▁juice	-11.0264
▁wc	-11.0267
blob	-11.027
▁Comp	-11.0272
▁convenient	-11.0276
▁committee	-11.0283
▁FOR	-11.0283
▁confirmed	-11.0283
▁advertising	-11.0287
▁agriculture	-11.0287
▁temple	-11.0288
DI	-11.0289
▁Scotland	-11.0291
Array	-11.0291
▁transactions	-11.0295
▁float	-11.0297
▁extends	-11.0299
▁initiatives	-11.0302
ign	-11.0302
prefix	-11.0305
▁bath	-11.0308
▁Environmental	-11.0309
▁divide	-11.0311
▁suffered	-11.0312
▁productivity	-11.0312
▁profit	-11.0319
▁doors	-11.032
ani	-11.0321
▁threats	-11.0323
program	-11.0325
▁bold	-11.0326
kh	-11.0327
▁Com	-11.0329
Query	-11.0331
▁observe	-11.0332
▁corn	-11.0333
▁fee	-11.0333
Al	-11.0334
ö	-11.0334
dec	-11.0335
CP	-11.0338
▁proteins	-11.0339
▁rid	-11.0341
ji	-11.0342
ened	-11.035
▁Wednesday	-11.035
▁Head	-11.0356
▁Building	-11.0363
▁volumes	-11.0364
▁partial	-11.0368
▁IO	-11.037
▁personality	-11.037
▁council	-11.0374
▁Text	-11.0376
##	-11.0378
▁investors	-11.0381
▁incorporating	-11.0382
Page	-11.0383
ku	-11.0385
▁Learn	-11.0386
▁nutrition	-11.039
▁vg	-11.0391
uous	-11.0393
cur	-11.0399
▁Ch	-11.0399
▁render	-11.0402
break	-11.0403
▁raid	-11.0404
gid	-11.0404
▁Arch	-11.0405
sourceforge	-11.0406
▁inform	-11.0408
dest	-11.0409
▁preventing	-11.0413
mus	-11.0414
Me	-11.0414
▁odd	-11.0416
▁fund	-11.0416
▁fi	-11.0421
▁unusual	-11.0421
▁lunch	-11.043
▁afterwards	-11.0439
▁SSD	-11.0441
▁PR	-11.0441
▁beat	-11.0441
oma	-11.0443
▁union	-11.0445
▁gray	-11.0445
▁resolved	-11.0447
▁writers	-11.045
▁matched	-11.0453
▁expenses	-11.0454
▁broadcast	-11.0457
▁fever	-11.0459
▁conflicts	-11.0459
▁patent	-11.0462
iness	-11.0462
▁Si	-11.0464
▁Bur	-11.0467
More	-11.0467
▁experimental	-11.0468
▁retain	-11.047
▁shares	-11.0473
▁grand	-11.0474
ich	-11.0476
▁keyword	-11.0477
▁contributing	-11.0477
▁chart	-11.0478
separated	-11.0481
▁Los	-11.0486
Hi	-11.0487
▁deck	-11.0487
▁reveal	-11.0488
atory	-11.0488
admin	-11.0488
▁decimal	-11.0493
▁fossil	-11.0494
▁medications	-11.0498
▁Math	-11.0499
▁fiber	-11.05
▁beliefs	-11.0501
▁Administration	-11.0501
▁survival	-11.0501
▁Kingdom	-11.0502
▁mixture	-11.0502
▁Natural	-11.0503
▁plug	-11.0503
ivity	-11.0505
▁Defaults	-11.0506
sane	-11.0507
▁modes	-11.0508
▁BIOS	-11.0509
Build	-11.0509
secret	-11.0514
▁BC	-11.0515
▁Top	-11.052
▁intake	-11.0523
queue	-11.0524
▁recipe	-11.0525
commands	-11.0525
TP	-11.0526
stackexchange	-11.0526
▁faces	-11.0526
SIZE	-11.0526
▁accordingly	-11.053
▁Him	-11.053
▁appointed	-11.0533
til	-11.0535
▁cursor	-11.0539
cer	-11.054
ets	-11.0542
▁NASA	-11.0549
▁chip	-11.0549
▁Hospital	-11.055
▁scheduled	-11.0554
▁broke	-11.0554
SHA	-11.0554
▁reflection	-11.0556
rant	-11.0556
AUTHOR	-11.0557
▁Boston	-11.0557
▁luck	-11.0559
▁tries	-11.0559
▁ethical	-11.056
▁grave	-11.0562
▁specification	-11.0564
xi	-11.0567
▁lights	-11.0569
lines	-11.0569
▁Policy	-11.057
▁zip	-11.0572
▁Inter	-11.0572
▁breakfast	-11.0575
▁highlight	-11.0575
▁transferred	-11.0575
▁shopping	-11.0575
▁Chapter	-11.0577
▁outdoor	-11.0578
dc	-11.058
▁flower	-11.0582
▁Ram	-11.0582
▁adequate	-11.0582
▁elected	-11.0582
▁tunnel	-11.0583
▁encouraged	-11.0585
rb	-11.0587
▁dual	-11.0587
Date	-11.0589
▁addressed	-11.0593
▁da	-11.0596
▁shelter	-11.0598
▁widespread	-11.0598
double	-11.06
▁resulted	-11.0603
▁gr	-11.0604
AM	-11.0607
▁Link	-11.0608
App	-11.0612
▁Ya	-11.0612
IA	-11.0613
▁unexpected	-11.0615
▁wearing	-11.0616
▁shadow	-11.0616
▁Mount	-11.0616
▁afford	-11.0617
lay	-11.0619
▁Fort	-11.0619
ale	-11.0621
▁denied	-11.0623
▁RAID	-11.0623
▁notion	-11.0625
ua	-11.0626
▁realm	-11.0627
▁Constitution	-11.0628
▁Mer	-11.0628
▁talent	-11.0632
▁specialized	-11.0633
bad	-11.0638
▁Son	-11.0638
OC	-11.064
▁genes	-11.0643
▁stomach	-11.0647
▁quantity	-11.0647
▁diagnostic	-11.0648
▁compound	-11.0648
MI	-11.0649
▁guard	-11.0651
empty	-11.0653
▁lowest	-11.0657
og	-11.0658
cho	-11.0658
▁nano	-11.0658
▁sg	-11.0659
connect	-11.066
▁precision	-11.0661
rest	-11.0662
▁accompanied	-11.0663
▁contributions	-11.0665
▁Ru	-11.0666
▁visited	-11.0667
prop	-11.0668
sur	-11.067
▁territory	-11.0671
kubectl	-11.0671
▁skip	-11.0672
▁pride	-11.0673
▁Order	-11.0674
TC	-11.0674
▁Sal	-11.0675
ight	-11.0676
close	-11.0676
▁delve	-11.0677
▁bike	-11.0678
enter	-11.0678
▁duplicate	-11.0681
zo	-11.0681
▁neuro	-11.0683
▁feeding	-11.0683
▁establishment	-11.0688
▁excessive	-11.0688
▁Dar	-11.0688
▁draft	-11.0689
▁harder	-11.069
▁arch	-11.0693
bl	-11.0694
▁copied	-11.0696
▁structural	-11.0696
gov	-11.0705
OT	-11.0705
▁hall	-11.0707
▁compact	-11.0708
yer	-11.0712
ras	-11.0716
▁Market	-11.0718
▁weapons	-11.072
▁dimensions	-11.0722
▁Search	-11.0723
Mar	-11.0727
SU	-11.0727
▁submit	-11.0729
DA	-11.0732
▁adopt	-11.0733
sock	-11.0736
▁Pan	-11.0738
▁stakeholders	-11.0741
▁actively	-11.0743
▁Photo	-11.0743
▁wisdom	-11.0745
▁confusion	-11.0745
▁medication	-11.075
BA	-11.0756
▁Little	-11.0757
without	-11.0758
▁wise	-11.0758
window	-11.0759
▁chose	-11.0761
▁influenced	-11.0764
FD	-11.0765
▁loans	-11.0765
EA	-11.0766
wan	-11.0766
▁trials	-11.0767
▁losses	-11.0769
▁cheese	-11.077
loop	-11.0773
▁victim	-11.0773
▁executive	-11.0773
▁mini	-11.0773
▁overcome	-11.0776
▁observations	-11.0778
ado	-11.0778
och	-11.0778
▁defines	-11.0779
pen	-11.0784
bun	-11.0785
▁mountains	-11.0787
cell	-11.0789
rine	-11.079
font	-11.0793
▁stuck	-11.0795
....	-11.0795
▁acting	-11.0799
▁q	-11.0801
▁shapes	-11.0801
▁headers	-11.0802
EE	-11.0806
▁forever	-11.0806
▁insight	-11.0808
ste	-11.0808
▁Force	-11.0809
▁sudden	-11.0809
[![	-11.081
▁encountered	-11.081
▁prominent	-11.081
RO	-11.0814
▁missed	-11.0815
RP	-11.0815
▁rear	-11.0815
ln	-11.0816
IR	-11.0818
▁``	-11.0819
▁surprised	-11.082
func	-11.0821
▁Core	-11.0825
character	-11.0826
ense	-11.0826
▁proven	-11.0826
▁SHA	-11.0827
▁handler	-11.0828
▁strengthen	-11.0831
▁${	-11.0834
PP	-11.0839
▁caller	-11.0839
▁None	-11.0841
EL	-11.0843
LO	-11.0843
▁League	-11.0844
▁Digital	-11.0844
Connect	-11.0845
▁earn	-11.0845
▁chicken	-11.0847
▁museum	-11.0849
▁Mal	-11.085
buffer	-11.0853
▁effectiveness	-11.0854
gy	-11.0856
▁independence	-11.0861
▁Modern	-11.0861
▁rev	-11.0862
▁loading	-11.0863
▁upload	-11.0864
cia	-11.0866
▁timestamp	-11.0866
bury	-11.0867
rad	-11.0868
▁hat	-11.0869
▁cream	-11.0869
▁Micro	-11.0869
▁encouraging	-11.0869
▁possibilities	-11.0869
note	-11.0872
ators	-11.0876
▁transform	-11.0882
height	-11.0883
▁Wall	-11.0886
▁thermal	-11.0886
send	-11.0888
▁bo	-11.0889
▁routes	-11.0891
▁Bob	-11.0891
▁bathroom	-11.0894
▁consent	-11.0895
logical	-11.0895
clear	-11.0901
rac	-11.0904
▁excluding	-11.0905
▁allocated	-11.0908
Color	-11.0911
found	-11.0913
▁burning	-11.0914
▁fer	-11.0918
ä	-11.0919
▁affordable	-11.0922
DP	-11.0923
▁spoken	-11.0923
▁publication	-11.0927
ther	-11.0928
▁brands	-11.0928
▁earned	-11.0936
nc	-11.0937
▁tcp	-11.0937
▁flood	-11.0939
▁contribution	-11.094
rus	-11.094
▁passes	-11.0941
▁tongue	-11.0944
child	-11.0945
▁kingdom	-11.0945
▁labour	-11.0945
friendly	-11.0945
▁optimization	-11.0947
▁solely	-11.095
▁modification	-11.0951
▁shock	-11.0952
▁visiting	-11.0953
▁measurement	-11.0954
▁targeted	-11.0955
▁vendor	-11.0957
▁gate	-11.0957
▁consume	-11.0965
▁assert	-11.0966
mk	-11.0966
▁toxic	-11.0966
▁determining	-11.0969
lit	-11.097
▁entertainment	-11.097
▁raising	-11.0971
▁definitions	-11.0972
DD	-11.0978
tim	-11.0979
*'	-11.098
▁alternate	-11.0981
▁alternatives	-11.0986
▁OK	-11.0989
▁Mu	-11.0993
just	-11.0994
▁syndrome	-11.0995
account	-11.0999
▁perl	-11.0999
▁charges	-11.1
▁ships	-11.1
times	-11.1002
SL	-11.1004
![](	-11.1004
▁burn	-11.1004
▁Environment	-11.1008
▁RFC	-11.1008
token	-11.1009
record	-11.1013
▁slot	-11.1013
▁attract	-11.1015
▁walked	-11.1016
rog	-11.1018
,--	-11.1018
▁pace	-11.1019
▁discipline	-11.102
▁victory	-11.102
▁preserving	-11.102
Point	-11.1021
▁behaviors	-11.1021
▁ban	-11.1025
▁Rev	-11.1025
Once	-11.1025
▁utilize	-11.1027
ore	-11.1028
▁abstract	-11.103
gate	-11.1031
usb	-11.1044
▁overhead	-11.1045
▁temp	-11.1047
▁attractive	-11.1047
▁operational	-11.1049
hole	-11.1054
cri	-11.1063
▁Native	-11.1067
▁curve	-11.107
▁heating	-11.107
Man	-11.1073
▁quote	-11.1075
▁Arts	-11.1076
}}:{{	-11.1077
eo	-11.1077
▁Low	-11.1081
pbm	-11.1081
▁forests	-11.1081
▁Understanding	-11.1082
▁sig	-11.1084
▁lift	-11.1085
atic	-11.1085
lum	-11.1087
fr	-11.1088
▁honour	-11.1089
AA	-11.109
▁boxes	-11.1096
▁AM	-11.1097
infty	-11.1097
▁Prince	-11.1098
▁Help	-11.1099
▁nutrients	-11.1099
ace	-11.11
▁reactions	-11.1101
scope	-11.1102
seq	-11.1103
▁everywhere	-11.1103
▁Daniel	-11.1107
▁wider	-11.1108
wise	-11.1109
▁obviously	-11.1112
▁award	-11.1112
▁deaths	-11.1113
▁engineers	-11.1114
▁gathered	-11.1114
▁Interface	-11.1118
▁Several	-11.1119
destination	-11.112
▁compounds	-11.112
▁sustainability	-11.1122
TE	-11.1122
▁Justice	-11.1123
▁Hol	-11.1124
▁murder	-11.1126
▁seriously	-11.1128
▁sane	-11.1129
▁matrix	-11.1132
▁nerve	-11.1132
ele	-11.1134
hill	-11.1135
▁investments	-11.1135
▁differently	-11.1138
Control	-11.1141
▁trail	-11.1146
▁experiencing	-11.1148
Config	-11.1149
▁laser	-11.115
▁Engineering	-11.1152
▁lu	-11.1152
▁literally	-11.1154
ria	-11.1157
▁verbose	-11.1161
plan	-11.1161
FE	-11.1164
▁Need	-11.117
PE	-11.117
▁Cat	-11.1174
▁difficulties	-11.1178
lab	-11.1181
▁Shi	-11.1184
▁permit	-11.1188
▁consistently	-11.1192
css	-11.1192
▁classical	-11.1195
pad	-11.1195
PER	-11.1196
▁belonging	-11.1197
gram	-11.1199
database	-11.1199
▁consist	-11.12
▁tube	-11.1208
▁Machine	-11.1211
▁Count	-11.1212
▁humanity	-11.122
document	-11.1221
▁entrance	-11.1225
▁integral	-11.1225
▁Eastern	-11.123
▁SIGN	-11.123
▁encrypted	-11.1234
tel	-11.1235
▁substances	-11.1236
▁wondering	-11.1237
▁refused	-11.1238
▁SQL	-11.1241
▁measurements	-11.1245
▁coach	-11.1249
gn	-11.125
aff	-11.125
▁encounter	-11.1253
▁estimates	-11.1257
agent	-11.126
PT	-11.1264
▁viewed	-11.1264
dot	-11.1267
▁genuine	-11.1268
▁embedded	-11.1268
▁amongst	-11.1268
▁Being	-11.1273
late	-11.1276
▁pandemic	-11.1277
▁Empire	-11.1277
▁replacing	-11.1277
▁omitted	-11.1277
cs	-11.1279
▁SP	-11.1279
▁calm	-11.1279
ese	-11.128
Most	-11.1284
LA	-11.1285
AR	-11.1286
KDF	-11.1286
▁silence	-11.1288
▁proportion	-11.1288
chain	-11.1291
din	-11.1294
▁Hard	-11.1296
Result	-11.1296
▁rough	-11.1297
)).	-11.1297
Ctrl	-11.1297
▁bearing	-11.1298
▁somehow	-11.1299
▁tears	-11.1299
vid	-11.1302
▁fascinating	-11.1303
history	-11.1304
Mr	-11.1305
ident	-11.1307
gu	-11.1308
▁firewall	-11.1309
settings	-11.1309
▁breathing	-11.131
▁spectrum	-11.1311
TM	-11.1312
iso	-11.1317
SYS	-11.1321
▁tech	-11.1321
▁^	-11.1327
▁meetings	-11.1329
▁jewelry	-11.1329
▁timing	-11.133
▁protecting	-11.133
gon	-11.1332
▁compile	-11.1332
▁adventure	-11.1339
▁Bridge	-11.134
▁delivering	-11.1341
▁Action	-11.1342
▁pm	-11.1343
▁pit	-11.1343
▁associate	-11.1344
▁exam	-11.1347
▁cgroup	-11.1348
▁Sy	-11.1348
▁rarely	-11.1348
RM	-11.1349
▁combine	-11.135
▁cultures	-11.1352
gra	-11.1356
▁GCC	-11.1359
machine	-11.1359
foot	-11.1364
[![]	-11.1364
▁dose	-11.1365
▁Unlike	-11.1367
▁lens	-11.1369
▁LED	-11.137
ano	-11.137
MAP	-11.137
▁Asian	-11.1372
▁Op	-11.1383
Compile	-11.1384
▁Systems	-11.1385
born	-11.1386
▁OP	-11.1386
▁{{/	-11.1393
GET	-11.1394
▁hate	-11.1397
phone	-11.1398
▁batch	-11.14
ERROR	-11.1401
Before	-11.1402
Server	-11.1406
ATION	-11.1411
▁thirty	-11.1412
dict	-11.1416
stdin	-11.1418
▁Major	-11.1419
gui	-11.142
▁};	-11.1421
▁assign	-11.1423
▁Install	-11.1424
▁adapter	-11.1426
▁enterprise	-11.143
▁regarded	-11.1431
▁treating	-11.1431
▁cats	-11.1434
▁destruction	-11.1434
▁exceptional	-11.1434
▁Senate	-11.1435
▁preserved	-11.1436
ett	-11.1437
▁minister	-11.1439
▁Spirit	-11.1439
▁mistake	-11.1441
▁breed	-11.1442
tags	-11.1443
▁rice	-11.1444
▁directions	-11.1444
ific	-11.1444
▁honest	-11.1445
NF	-11.1447
▁Card	-11.1448
ken	-11.1452
▁picked	-11.1452
▁studio	-11.1454
ops	-11.1454
▁quotes	-11.1455
▁Multi	-11.1456
switch	-11.1456
▁react	-11.1457
ically	-11.1458
▁dramatic	-11.146
▁Case	-11.1461
▁eastern	-11.1468
kind	-11.1468
▁Hence	-11.1475
▁unset	-11.1476
green	-11.1476
▁lasting	-11.1476
▁thrown	-11.1478
▁collective	-11.148
▁cooling	-11.1481
▁bow	-11.1482
▁attended	-11.1482
awk	-11.1485
▁diameter	-11.1487
▁enforcement	-11.1488
Replace	-11.1492
BE	-11.1492
▁paragraph	-11.1495
▁investigate	-11.1495
track	-11.1495
▁runtime	-11.1496
▁roughly	-11.1496
Ref	-11.1498
ition	-11.1508
▁Forest	-11.1508
Dr	-11.1509
▁attach	-11.1509
▁Pakistan	-11.151
obj	-11.1512
desktop	-11.1512
▁IV	-11.1516
EST	-11.1516
▁managers	-11.1519
▁Oxford	-11.1521
▁succeed	-11.1524
▁streams	-11.1527
▁artistic	-11.1529
>]	-11.1532
nl	-11.1535
▁versus	-11.154
▁Ohio	-11.1542
▁argue	-11.1546
▁equipped	-11.1547
ral	-11.1548
second	-11.155
Line	-11.1554
▁investing	-11.1558
▁clothing	-11.1559
▁del	-11.156
ALL	-11.156
▁notable	-11.1564
▁alarm	-11.1565
fold	-11.1565
▁molecules	-11.1566
LIBRARY	-11.1567
▁whilst	-11.1567
▁alter	-11.1568
Web	-11.1571
via	-11.1571
▁habitat	-11.1573
▁aggressive	-11.1575
▁domains	-11.1576
▁des	-11.1576
sqrt	-11.1577
▁mill	-11.1578
ening	-11.1579
í	-11.1581
▁entity	-11.1583
verse	-11.1584
▁recall	-11.1584
▁observation	-11.1585
policy	-11.1586
tter	-11.159
▁tc	-11.1592
▁handled	-11.1592
▁memories	-11.1594
▁stones	-11.1595
▁meals	-11.1599
ula	-11.1599
fn	-11.1602
▁interpret	-11.1603
bas	-11.1606
▁Ed	-11.1607
ml	-11.161
▁Andrew	-11.1614
vol	-11.1614
▁steam	-11.1615
▁provision	-11.1616
▁currency	-11.1621
params	-11.1624
▁trick	-11.1626
▁isolated	-11.1627
▁flavor	-11.1627
▁Ten	-11.1628
▁slight	-11.1628
▁essays	-11.163
▁waters	-11.1631
▁Write	-11.1633
▁GB	-11.1637
mir	-11.1639
▁apparent	-11.1639
▁Min	-11.164
▁Cho	-11.1642
aa	-11.1642
▁registration	-11.1644
▁examining	-11.1648
ef	-11.1648
▁©	-11.165
▁Download	-11.1653
append	-11.1654
▁Color	-11.1658
▁distinction	-11.1658
▁bonds	-11.1659
▁lying	-11.1664
analyzer	-11.1667
▁Chrome	-11.1667
LY	-11.1668
▁solved	-11.1669
▁Santa	-11.167
repository	-11.1674
▁preparing	-11.1675
▁certification	-11.1675
uch	-11.1676
▁scanner	-11.168
pping	-11.1684
ake	-11.1685
▁crash	-11.1685
▁Jones	-11.1685
▁Michigan	-11.1686
=/	-11.1686
▁wash	-11.1688
band	-11.1691
▁heaven	-11.1693
▁Way	-11.1695
▁efficiently	-11.1696
▁hierarchy	-11.1698
Group	-11.1699
▁variations	-11.1702
▁residence	-11.1702
▁opposition	-11.1702
▁cattle	-11.1703
▁satisfied	-11.1705
▁Would	-11.1706
▁confused	-11.1707
las	-11.1708
URL	-11.1709
▁warnings	-11.1709
▁organ	-11.1712
▁fatal	-11.1715
ima	-11.1715
▁Due	-11.1716
▁Takes	-11.1721
bt	-11.1728
▁furniture	-11.1729
▁twelve	-11.1729
▁imaging	-11.1729
▁laboratory	-11.1729
▁digest	-11.173
volume	-11.1744
OSSL	-11.1744
▁Mel	-11.1744
▁regulation	-11.1745
▁fe	-11.1752
fmt	-11.1753
alt	-11.1755
▁killing	-11.1755
▁achieving	-11.1756
▁heritage	-11.1756
▁moisture	-11.1756
move	-11.1759
Manager	-11.1759
▁lands	-11.1759
ert	-11.1761
▁exhibit	-11.1762
▁val	-11.1763
▁Elizabeth	-11.1764
dns	-11.1767
▁perceived	-11.1767
UP	-11.1767
mis	-11.177
▁rows	-11.178
▁resort	-11.1783
▁scheduling	-11.1784
▁celebration	-11.1784
▁Apache	-11.1784
▁attempted	-11.1784
▁drew	-11.1785
DT	-11.1785
▁Christianity	-11.1789
"]	-11.1789
delta	-11.179
▁deprecated	-11.1796
▁documented	-11.1802
▁transparent	-11.1802
bridge	-11.1804
▁FILE	-11.1805
▁restaurant	-11.1806
▁Watch	-11.1809
yn	-11.1809
▁audiences	-11.181
▁quantum	-11.1811
▁extraordinary	-11.1811
▁pressing	-11.1813
▁portable	-11.1818
▁BPF	-11.1821
▁glance	-11.1821
▁explicit	-11.1821
CB	-11.1823
worth	-11.1823
▁sends	-11.1825
▁Update	-11.1827
▁mutual	-11.183
GIT	-11.183
great	-11.1834
▁'\	-11.1834
tur	-11.1834
▁partnership	-11.1835
ching	-11.1837
▁imagination	-11.1838
▁entities	-11.1839
▁Safety	-11.1839
PKEY	-11.1843
▁Plus	-11.1848
▁Following	-11.1854
ography	-11.1855
Although	-11.1857
▁spell	-11.1862
▁shutdown	-11.1864
ologist	-11.1865
▁Supreme	-11.1866
▁striking	-11.1866
▁coat	-11.1867
▁forming	-11.1868
▁ranges	-11.1868
▁flying	-11.1871
▁Den	-11.1872
▁ma	-11.1876
▁ubuntu	-11.1876
▁overview	-11.1877
▁Description	-11.1877
▁characterized	-11.1878
guard	-11.1878
yard	-11.1881
▁orbit	-11.1882
▁compute	-11.1883
column	-11.1887
ult	-11.1888
▁GUI	-11.1888
▁stat	-11.1888
SM	-11.189
Hello	-11.189
▁alignment	-11.1894
ject	-11.1894
▁scenarios	-11.1898
▁Age	-11.1902
amp	-11.1903
▁vessel	-11.1905
gl	-11.1905
▁restricted	-11.1906
efi	-11.1908
▁threshold	-11.1908
His	-11.1911
▁pulled	-11.1911
ess	-11.1912
rey	-11.1912
▁golden	-11.1914
SH	-11.1914
▁scores	-11.1916
▁Article	-11.1916
▁operators	-11.1916
▁factory	-11.1919
▁networking	-11.192
▁contributed	-11.192
▁qualified	-11.1923
▁honey	-11.1923
▁savings	-11.1923
▁notification	-11.1925
dist	-11.1927
▁settlement	-11.1927
pol	-11.193
▁stops	-11.1931
multi	-11.1931
▁attempting	-11.1932
rick	-11.1933
enable	-11.1935
▁rocks	-11.1937
▁mac	-11.1938
DW	-11.1939
SB	-11.1945
▁literary	-11.1949
▁submitted	-11.195
▁ch	-11.1951
▁institution	-11.1952
▁AC	-11.1952
▁closing	-11.1952
Bo	-11.1958
▁Muslim	-11.1961
mination	-11.1963
John	-11.1965
ignore	-11.1966
▁Ac	-11.1966
▁edited	-11.1967
_{\	-11.1968
▁league	-11.1968
▁Computer	-11.1971
II	-11.1972
▁duties	-11.1977
▁spray	-11.1978
▁behave	-11.1985
▁unlikely	-11.1986
▁gut	-11.1986
▁pleasant	-11.1986
▁inspire	-11.1987
▁hex	-11.199
LP	-11.1992
pod	-11.1992
▁Error	-11.1994
▁sorry	-11.1995
defined	-11.1998
▁guy	-11.2003
▁impression	-11.2003
▁pid	-11.2004
▁enormous	-11.2005
▁nervous	-11.2005
▁seemingly	-11.2006
▁ST	-11.2006
▁├───────────	-11.2006
▁warming	-11.2007
▁pe	-11.201
▁staying	-11.2011
▁workplace	-11.2015
▁Max	-11.2019
▁winning	-11.202
▁Has	-11.2022
pic	-11.2023
▁Area	-11.2024
AN	-11.2026
lat	-11.2028
none	-11.2032
▁Sciences	-11.2032
▁Currently	-11.2032
responsibilities	-11.2033
▁geo	-11.2034
▁uniform	-11.2036
▁unlike	-11.2038
▁molecular	-11.204
▁pray	-11.2041
ili	-11.2041
▁HP	-11.2042
unix	-11.2045
itch	-11.2045
▁prevents	-11.2046
PD	-11.2051
▁mg	-11.2051
▁em	-11.2051
▁approval	-11.2052
meter	-11.2052
VE	-11.2052
bat	-11.2053
▁linux	-11.2053
▁poll	-11.2055
elle	-11.2057
▁witness	-11.2059
▁expense	-11.206
▁meters	-11.206
▁reign	-11.2061
▁delicate	-11.2061
▁cotton	-11.2061
▁describing	-11.2062
MENT	-11.2067
Select	-11.2068
▁characteristic	-11.2072
▁emerge	-11.2073
▁minds	-11.2076
▁rsync	-11.2078
▁Consequently	-11.2082
fp	-11.2082
proxy	-11.2084
▁payments	-11.2087
shift	-11.2088
▁royal	-11.2089
▁Corporation	-11.2089
▁minerals	-11.2092
▁manufacturer	-11.2094
▁accomplish	-11.2107
Command	-11.2109
white	-11.2111
lig	-11.2112
▁privileges	-11.2112
▁entitled	-11.2117
▁criticism	-11.2118
▁variation	-11.2118
▁Convert	-11.2119
▁silent	-11.212
▁examined	-11.2124
▁folders	-11.2125
▁Virtual	-11.2126
▁encourages	-11.2127
▁pursue	-11.2127
▁controlling	-11.213
PR	-11.2133
▁proceed	-11.2135
modules	-11.2137
▁Nov	-11.2138
▁shoes	-11.2139
▁Resources	-11.214
Title	-11.2144
▁incredible	-11.2146
▁bulk	-11.2146
▁flows	-11.2146
▁Device	-11.2147
▁Ob	-11.2149
▁hydrogen	-11.2155
▁Personal	-11.2155
▁drain	-11.2156
setup	-11.2159
Who	-11.2161
▁"\	-11.2161
while	-11.2163
users	-11.2167
▁sink	-11.2169
▁wet	-11.2171
▁Division	-11.2174
fc	-11.2175
▁proposal	-11.2175
topic	-11.2176
BO	-11.2176
▁Garden	-11.2176
▁Georgia	-11.2176
▁DEVICE	-11.2178
▁Mon	-11.218
▁po	-11.218
▁Dutch	-11.2185
▁Level	-11.2192
▁instant	-11.2197
yo	-11.2197
▁hopes	-11.2197
vg	-11.2199
▁cpu	-11.22
Even	-11.22
▁Obama	-11.2203
▁MA	-11.2203
▁renewable	-11.2203
▁settled	-11.2204
mid	-11.2206
been	-11.2206
▁traditions	-11.2207
▁Series	-11.2208
▁surrounded	-11.2209
ye	-11.2214
▁finger	-11.2217
▁physically	-11.2218
▁downloaded	-11.2219
Ma	-11.2219
▁ASCII	-11.222
▁ultimate	-11.2222
▁:)	-11.2223
▁begun	-11.2225
▁Plant	-11.2226
▁Cancer	-11.2232
▁lookup	-11.2232
▁thoroughly	-11.2233
▁slaves	-11.2234
▁contest	-11.2235
▁locked	-11.2238
rw	-11.224
▁Child	-11.2241
▁mold	-11.2241
▁shade	-11.2244
▁Line	-11.2244
ried	-11.2244
▁tied	-11.2247
▁>=	-11.225
▁illegal	-11.2251
HA	-11.2256
▁executing	-11.226
present	-11.2261
▁blockchain	-11.2261
▁resume	-11.2262
Model	-11.2262
tcp	-11.2266
───────────┼────	-11.2268
▁kick	-11.2268
CR	-11.2269
CE	-11.2271
▁alert	-11.2271
▁dynamics	-11.2272
Bar	-11.2272
▁arrive	-11.2272
may	-11.2273
strong	-11.2273
into	-11.2274
▁Main	-11.2276
dan	-11.2276
family	-11.2277
▁binding	-11.2278
▁emerged	-11.2279
▁brush	-11.228
▁shoot	-11.228
▁Game	-11.2281
▁opinions	-11.2284
▁episode	-11.2284
drop	-11.2284
▁sockets	-11.2288
Number	-11.2289
а	-11.2289
▁attitude	-11.2292
▁hero	-11.2292
leg	-11.2295
gan	-11.2296
▁assistant	-11.2296
▁weekly	-11.2298
▁Trust	-11.2301
▁pushed	-11.2307
template	-11.2308
▁Soviet	-11.2309
▁painful	-11.2309
▁consisting	-11.231
▁premium	-11.2317
▁mathematical	-11.2317
ime	-11.2318
upon	-11.2319
▁routines	-11.2319
▁intensity	-11.232
▁cloth	-11.232
▁fingers	-11.232
▁Scott	-11.2323
▁scholars	-11.2327
▁li	-11.2328
journal	-11.2329
▁yesterday	-11.2329
RS	-11.233
▁URI	-11.2331
▁employ	-11.2331
▁Size	-11.2331
beta	-11.2331
ftp	-11.2332
weight	-11.2332
req	-11.2335
▁affairs	-11.2339
▁env	-11.2341
Max	-11.2343
rem	-11.2344
▁fantastic	-11.2346
▁mod	-11.2346
▁batteries	-11.2347
▁Francisco	-11.2347
▁personnel	-11.2348
piece	-11.2348
▁deals	-11.2351
▁appointment	-11.2352
▁Cur	-11.2353
UT	-11.2357
▁Joe	-11.2361
▁rename	-11.2362
▁oldest	-11.2362
EP	-11.2362
ancy	-11.2364
nation	-11.2364
▁computing	-11.2365
party	-11.2366
NG	-11.2369
▁determination	-11.2369
▁Lincoln	-11.2374
▁phenomenon	-11.2375
▁varieties	-11.2375
▁learners	-11.2378
menu	-11.238
+\	-11.2381
▁ta	-11.2381
Google	-11.2381
▁physics	-11.2386
▁Oct	-11.2386
▁quota	-11.2387
▁precisely	-11.2388
Other	-11.2388
ban	-11.2392
NA	-11.2392
▁rank	-11.2393
▁Au	-11.2394
Int	-11.2395
▁blend	-11.2398
▁anymore	-11.2399
arrow	-11.2399
scape	-11.2402
▁grey	-11.2407
▁hill	-11.2408
▁Unix	-11.2408
▁Town	-11.2408
▁prop	-11.2409
ston	-11.2409
▁texture	-11.2419
▁balanced	-11.242
▁counts	-11.242
small	-11.2429
mont	-11.2431
▁ob	-11.2432
▁arbitrary	-11.2433
▁Excel	-11.2434
▁Secretary	-11.2434
▁speaker	-11.2435
▁Generate	-11.2437
▁sensitivity	-11.2437
▁maximize	-11.244
▁Allow	-11.2441
Label	-11.2442
▁Functions	-11.2442
▁Ve	-11.2442
keep	-11.2443
▁Atlantic	-11.2447
▁"*	-11.2448
▁Enable	-11.245
▁Val	-11.2455
nk	-11.2455
Default	-11.2455
▁cord	-11.2456
▁ears	-11.2458
dge	-11.2459
regex	-11.2459
▁pilot	-11.2459
bc	-11.246
▁membrane	-11.2461
▁measuring	-11.2463
▁updating	-11.2463
▁Protection	-11.2464
▁bin	-11.2466
▁perception	-11.247
pip	-11.2471
▁Thread	-11.2472
INFO	-11.2472
▁noble	-11.2473
▁mistakes	-11.2475
little	-11.2476
PI	-11.2477
▁Mode	-11.2477
UL	-11.248
!!!	-11.2484
▁insects	-11.2486
BC	-11.2486
▁Store	-11.2487
▁filling	-11.2487
round	-11.2488
▁admit	-11.2491
▁decreased	-11.2492
▁Zealand	-11.2492
▁administrative	-11.2492
oil	-11.2493
Per	-11.2502
▁hybrid	-11.2504
▁bottle	-11.2505
▁desert	-11.2505
▁diagnosed	-11.2506
▁globe	-11.2507
▁absorb	-11.2508
▁VALUE	-11.2512
▁pointing	-11.2513
▁thorough	-11.2513
cargo	-11.2513
▁Va	-11.2515
▁Ask	-11.2516
wp	-11.2516
▁filters	-11.2517
Safe	-11.252
burn	-11.252
▁Command	-11.2521
▁likelihood	-11.2521
▁aged	-11.2523
▁confirmation	-11.2526
▁watched	-11.2526
▁searched	-11.2528
oke	-11.2531
▁demonstrates	-11.2534
sol	-11.2535
storage	-11.2536
rid	-11.2536
restrict	-11.2539
▁courts	-11.254
▁fiction	-11.2541
Ch	-11.2542
▁Could	-11.2543
▁Examples	-11.2545
▁std	-11.2545
▁Analysis	-11.2545
"></	-11.2546
bert	-11.2547
itude	-11.2548
▁resilience	-11.2551
▁featuring	-11.2551
▁Object	-11.2554
lands	-11.2554
▁burst	-11.2555
KEY	-11.2557
GNU	-11.2557
▁neighborhood	-11.2559
stable	-11.256
▁unlock	-11.2562
uuid	-11.2563
phy	-11.2563
▁concluded	-11.2563
▁cl	-11.2563
▁god	-11.2564
mate	-11.2569
bre	-11.2571
=$(	-11.2572
▁interventions	-11.2574
▁celebrated	-11.2576
Next	-11.2578
▁gentle	-11.2579
▁boundary	-11.258
Over	-11.258
▁doctrine	-11.2581
▁mandatory	-11.2581
▁trap	-11.2581
▁Based	-11.2581
▁incorporate	-11.2584
Ba	-11.2585
MIN	-11.2587
▁lovely	-11.2588
▁Ban	-11.2591
▁mon	-11.2592
front	-11.2595
▁snapshot	-11.2595
Override	-11.2598
▁invest	-11.2601
BSD	-11.2602
▁Pu	-11.2605
▁EC	-11.2605
▁parse	-11.2609
unt	-11.261
ico	-11.2611
▁regulatory	-11.2612
still	-11.2612
CM	-11.2613
Box	-11.2615
▁firms	-11.2616
instance	-11.2616
used	-11.2617
▁sake	-11.2618
▁Climate	-11.2618
depth	-11.2619
Client	-11.262
▁regime	-11.2623
▁Again	-11.2623
PL	-11.2624
▁...;	-11.2624
▁edges	-11.2624
support	-11.2627
▁panels	-11.2627
▁Image	-11.2628
Ex	-11.2628
alloc	-11.2632
▁towns	-11.2634
uzz	-11.2638
▁smoking	-11.2638
▁separation	-11.264
▁wildlife	-11.2641
Cl	-11.2641
General	-11.2642
sched	-11.2642
▁greenhouse	-11.2643
▁pad	-11.2645
motion	-11.2647
▁shed	-11.2648
▁varying	-11.2649
fl	-11.2649
▁Disease	-11.265
▁errno	-11.265
▁occupied	-11.2651
▁cry	-11.2651
▁VG	-11.2652
▁blame	-11.2652
variable	-11.2653
▁establishing	-11.2653
}"	-11.2655
▁Governor	-11.2656
Using	-11.2658
Last	-11.266
▁moderate	-11.2661
▁verb	-11.2664
▁faculty	-11.267
▁pregnant	-11.267
▁repositories	-11.267
▁terrible	-11.267
▁shaping	-11.267
dra	-11.2672
▁axis	-11.2673
▁Trade	-11.2673
▁graduate	-11.2674
▁fitness	-11.2677
END	-11.2677
sig	-11.2679
▁disaster	-11.268
zi	-11.2681
▁knee	-11.2681
▁Turn	-11.2682
▁Hand	-11.2682
month	-11.2683
▁Doctor	-11.2684
▁pam	-11.2687
Version	-11.2688
▁assignment	-11.2699
▁Islam	-11.2699
Unit	-11.2699
▁convenience	-11.27
▁invention	-11.27
▁contrary	-11.27
▁opt	-11.2701
▁readily	-11.2703
▁violent	-11.2703
▁films	-11.2704
▁Pen	-11.2707
▁signing	-11.2708
edu	-11.271
▁wooden	-11.2711
▁sleeping	-11.2714
verbose	-11.2715
rated	-11.2716
theta	-11.2717
▁Sets	-11.2723
tig	-11.2724
▁commission	-11.2724
▁PHP	-11.2725
▁communications	-11.2725
hour	-11.2727
▁cooperation	-11.273
▁unnecessary	-11.273
▁Creek	-11.2731
▁UUID	-11.2733
▁\(	-11.2734
▁acknowledge	-11.2738
▁abroad	-11.2739
save	-11.2741
▁initiative	-11.2741
▁acquire	-11.2742
▁monthly	-11.2745
▁spots	-11.2745
Return	-11.2746
▁Cap	-11.2749
▁cookies	-11.2751
▁Ki	-11.2753
▁Besides	-11.2753
Feature	-11.2753
▁Lastly	-11.2755
Example	-11.2756
▁BE	-11.2759
▁captain	-11.2761
▁Mass	-11.2763
uint	-11.2764
human	-11.2769
▁mu	-11.2769
mal	-11.2771
▁texts	-11.2771
▁bomb	-11.2775
▁suggestion	-11.2776
▁continuing	-11.2777
bf	-11.278
lot	-11.2781
▁Further	-11.2781
▁screening	-11.2782
superuser	-11.279
▁verification	-11.279
▁punishment	-11.2791
▁Documentation	-11.2792
▁guys	-11.2792
pu	-11.2793
▁whitespace	-11.2794
Disable	-11.2797
▁possession	-11.28
End	-11.2802
dic	-11.2802
▁rail	-11.2803
▁Award	-11.2806
▁Meanwhile	-11.2806
▁orange	-11.2808
anti	-11.2809
▁accurately	-11.2811
▁Cloud	-11.2812
▁yards	-11.2813
vy	-11.2813
▁Jane	-11.2816
▁governor	-11.2818
▁fork	-11.2819
▁appreciation	-11.282
▁babies	-11.282
▁reveals	-11.2822
▁membership	-11.2824
▁protective	-11.2826
Call	-11.2827
▁Beach	-11.2827
▁scratch	-11.283
lia	-11.2833
▁consequence	-11.2833
▁repo	-11.2834
NR	-11.2834
eh	-11.2836
▁locate	-11.2837
▁Source	-11.2838
▁wage	-11.284
▁shooting	-11.2841
etic	-11.2843
lly	-11.2843
▁Remove	-11.2844
▁profession	-11.2846
▁anger	-11.2846
▁BUGS	-11.2848
▁volunteer	-11.285
▁Revolution	-11.2851
▁promising	-11.2851
▁distant	-11.2851
▁consistency	-11.2853
zone	-11.2853
▁involvement	-11.2854
▁Ger	-11.2855
▁habit	-11.2857
SI	-11.2859
CL	-11.2859
▁grub	-11.2859
Home	-11.2862
▁equality	-11.2862
▁believes	-11.2863
▁nvidia	-11.2866
▁Ber	-11.2866
▁fallen	-11.2867
▁Video	-11.2871
▁routing	-11.2871
▁inspect	-11.2872
rn	-11.2872
burg	-11.2872
▁Pennsylvania	-11.2872
nie	-11.2874
ups	-11.2877
▁designing	-11.2878
▁Adam	-11.2878
▁sacrifice	-11.2879
▁intent	-11.2879
▁belongs	-11.2879
▁Put	-11.2882
▁helper	-11.2886
▁mar	-11.2886
ora	-11.2886
▁representative	-11.2888
▁refresh	-11.2888
▁Philip	-11.2889
▁popularity	-11.2892
▁viewing	-11.2892
▁Yu	-11.2893
▁embrace	-11.2894
oy	-11.2894
/\	-11.29
▁profound	-11.2905
▁Far	-11.2906
ages	-11.2906
▁neutral	-11.2907
IL	-11.2909
▁hub	-11.2911
▁developments	-11.2911
▁brilliant	-11.2912
▁democracy	-11.2912
▁optimize	-11.2912
▁correlation	-11.2912
▁amidst	-11.2913
stein	-11.2913
lambda	-11.2913
▁painted	-11.2913
ode	-11.2914
▁chest	-11.2915
▁appreciated	-11.2916
▁Site	-11.2917
▁rescue	-11.2917
▁PAM	-11.292
▁'*	-11.2922
▁surfaces	-11.2922
Base	-11.2924
▁breaks	-11.2924
▁numeric	-11.2928
hy	-11.293
]*	-11.2932
partial	-11.2933
black	-11.2933
sar	-11.2935
▁python	-11.2937
▁Ly	-11.2939
CI	-11.2939
▁Columbia	-11.294
Move	-11.294
Port	-11.2941
nis	-11.2942
▁campus	-11.2942
▁participating	-11.2943
▁delicious	-11.2943
▁consciousness	-11.2944
▁gateway	-11.2947
ied	-11.295
▁integrate	-11.2955
VI	-11.2956
▁holy	-11.2957
cept	-11.2957
language	-11.296
▁HD	-11.2962
video	-11.2963
▁quoted	-11.2963
center	-11.2964
▁personally	-11.2965
▁Mag	-11.2966
lation	-11.2967
Process	-11.2968
▁brick	-11.2969
▁Mid	-11.297
rpm	-11.2971
▁chocolate	-11.2972
>&	-11.2972
▁buried	-11.2973
Ra	-11.2974
▁unto	-11.2974
soft	-11.2975
▁hint	-11.2975
▁Angeles	-11.2977
▁GREEK	-11.2977
▁friendship	-11.2979
▁Bel	-11.298
!)	-11.2981
▁tutorial	-11.2981
driver	-11.2984
Does	-11.2985
▁venture	-11.2986
▁prize	-11.2986
▁churches	-11.2991
▁campaigns	-11.2991
]);	-11.2991
could	-11.2993
▁defeat	-11.2993
▁margin	-11.2996
▁manifest	-11.2997
▁protest	-11.2997
inch	-11.2997
▁charm	-11.2998
Ro	-11.3
▁Bell	-11.3002
▁Given	-11.3004
▁Agency	-11.3004
▁addiction	-11.3005
ask	-11.3005
▁worker	-11.3006
▁Night	-11.3006
▁cipher	-11.3007
Sub	-11.3008
assert	-11.3009
Initialize	-11.301
▁pump	-11.3012
BB	-11.3013
kit	-11.3015
▁Rose	-11.3023
large	-11.3024
▁complications	-11.3026
▁reaches	-11.3026
▁filesystems	-11.3026
▁Come	-11.3027
▁movies	-11.3028
▁descriptions	-11.3028
people	-11.3032
▁compensation	-11.3035
▁transparency	-11.3035
Length	-11.3035
▁conjunction	-11.3035
▁phones	-11.3035
▁referring	-11.3036
}}/{{	-11.3038
DATA	-11.3038
inc	-11.3041
▁rivers	-11.3042
▁slavery	-11.3044
▁invited	-11.3046
angle	-11.3049
▁assuming	-11.3049
▁Williams	-11.3049
▁newspaper	-11.3053
▁airport	-11.3055
▁retail	-11.3063
▁psychology	-11.3066
▁sacred	-11.3067
▁injured	-11.3068
▁dying	-11.3069
▁varied	-11.3072
▁hip	-11.3074
▁viruses	-11.3078
▁Fig	-11.3079
▁hoping	-11.3081
▁databases	-11.3083
OP	-11.3083
▁Pass	-11.3084
dr	-11.3085
▁talked	-11.3085
rig	-11.3086
ground	-11.3087
▁contracts	-11.3089
▁combining	-11.3097
▁rigorous	-11.3098
Click	-11.31
gamma	-11.3101
▁lease	-11.3101
▁expanding	-11.3103
▁linker	-11.3108
▁evolved	-11.3109
▁organs	-11.3109
ude	-11.3113
cdot	-11.3115
Bus	-11.3116
▁Was	-11.3119
ille	-11.3119
▁Tim	-11.3121
application	-11.3122
because	-11.3122
▁fate	-11.3123
UI	-11.3126
▁courage	-11.3127
▁Down	-11.3127
▁Jersey	-11.3129
▁precious	-11.3129
Recursively	-11.3129
▁bunch	-11.313
▁landing	-11.313
▁Books	-11.313
▁hydro	-11.313
Enter	-11.3133
Scan	-11.3133
speed	-11.3134
▁pitch	-11.3134
▁poetry	-11.3135
▁acceptable	-11.3138
▁tired	-11.3139
▁Sound	-11.314
Up	-11.314
▁Jim	-11.314
▁satellite	-11.3141
Book	-11.3143
▁Sh	-11.3146
▁pleased	-11.3147
▁constraints	-11.3152
lac	-11.3153
▁Content	-11.3153
▁caution	-11.3156
▁Boot	-11.3157
▁exec	-11.3159
eration	-11.3159
▁Stephen	-11.316
▁struggling	-11.316
▁stunning	-11.316
▁thrive	-11.316
▁queries	-11.316
▁cure	-11.316
clean	-11.3161
▁rotation	-11.3162
▁AP	-11.3167
zy	-11.317
▁Sen	-11.317
▁worn	-11.3172
HS	-11.3174
ux	-11.3175
pers	-11.3177
▁volunteers	-11.3177
▁Think	-11.3178
four	-11.3181
▁chemistry	-11.3182
▁gl	-11.3183
▁hosting	-11.3183
▁callback	-11.3184
tom	-11.3185
▁companion	-11.3187
▁lips	-11.3187
▁asks	-11.3189
▁concert	-11.3193
shi	-11.3194
mini	-11.3196
▁avoiding	-11.3196
▁physician	-11.3201
▁restored	-11.3204
▁evident	-11.3206
▁cycles	-11.3207
eur	-11.3207
▁inclusive	-11.3211
▁conversations	-11.3211
short	-11.3212
▁hearts	-11.3212
▁Wil	-11.3212
▁Form	-11.3212
Host	-11.3213
▁confident	-11.3214
{}	-11.3217
▁uint	-11.3219
▁refs	-11.3219
else	-11.322
▁Studio	-11.3221
dpkg	-11.3222
▁Arab	-11.3222
▁Enter	-11.3223
▁intricate	-11.3223
▁calcium	-11.3223
▁mortality	-11.3224
▁bandwidth	-11.3224
Frame	-11.3225
▁namely	-11.3226
▁placing	-11.3226
▁Avoid	-11.3228
lash	-11.323
▁tackle	-11.323
▁Path	-11.3233
jar	-11.3233
▁quit	-11.3234
Address	-11.3234
oe	-11.3237
▁Log	-11.324
uro	-11.3244
▁awarded	-11.3244
Na	-11.3245
▁publish	-11.3252
FP	-11.3254
▁Coast	-11.3255
▁fd	-11.3264
eau	-11.3265
▁parking	-11.3267
ique	-11.3268
▁ping	-11.3268
▁intention	-11.3268
fetch	-11.327
IX	-11.3271
▁deployment	-11.3272
▁Korea	-11.3275
▁ecosystem	-11.3276
kb	-11.3276
▁bpf	-11.3277
Good	-11.3279
dar	-11.3284
▁universities	-11.3286
▁casino	-11.3286
▁liberal	-11.3287
▁Cell	-11.3287
▁Jackson	-11.3288
▁Za	-11.3293
AG	-11.3294
Dis	-11.3294
Out	-11.3297
▁labels	-11.3298
▁append	-11.3299
▁barriers	-11.33
▁inclusion	-11.3307
▁poem	-11.3309
own	-11.3309
vec	-11.3311
▁Ser	-11.3314
▁Camp	-11.3315
...]	-11.3315
qm	-11.3316
Free	-11.3317
▁passwords	-11.3318
▁decay	-11.3318
▁Commands	-11.3318
▁dedication	-11.3319
▁considerations	-11.332
▁shipping	-11.332
GL	-11.332
▁Base	-11.332
▁horizontal	-11.3321
▁founder	-11.3321
▁injection	-11.3322
▁activate	-11.3327
dimensional	-11.3328
als	-11.333
mel	-11.3333
ony	-11.3338
▁tract	-11.3341
▁lawyer	-11.3342
INT	-11.3343
▁intend	-11.3344
gue	-11.3346
▁heading	-11.335
▁accommodate	-11.335
▁discrimination	-11.3351
});	-11.3351
▁Conclusion	-11.3351
▁generates	-11.3351
▁guns	-11.3352
▁reflected	-11.3356
▁dish	-11.336
chan	-11.336
bug	-11.3363
thread	-11.3363
▁Cambridge	-11.3365
▁anchor	-11.3366
▁mi	-11.3368
▁Cam	-11.3368
▁mat	-11.3369
▁dollar	-11.337
▁len	-11.3372
▁Tree	-11.3373
▁CH	-11.3373
USE	-11.3375
▁pushing	-11.338
summary	-11.3381
▁Ministry	-11.3382
▁purchasing	-11.3382
▁earliest	-11.3382
▁altogether	-11.3383
▁loads	-11.3383
▁CEO	-11.3383
▁segments	-11.3384
▁reflects	-11.3385
ending	-11.3385
▁ISBN	-11.3387
▁opens	-11.3397
▁interrupt	-11.3399
▁traveling	-11.34
ulate	-11.3403
▁tender	-11.3406
▁collections	-11.3408
NC	-11.3408
▁NOTES	-11.3414
▁grain	-11.3415
game	-11.3415
▁rating	-11.3417
▁outstanding	-11.3419
▁occasionally	-11.3421
([	-11.3422
gin	-11.3424
▁besides	-11.3427
▁tension	-11.343
ean	-11.3435
▁Battle	-11.3436
▁sensors	-11.3437
▁consumed	-11.3438
▁arrangement	-11.3438
▁Within	-11.3438
▁festival	-11.3438
▁Arm	-11.3439
▁logo	-11.344
equal	-11.3441
▁pr	-11.3442
dig	-11.3445
▁joining	-11.3445
▁formatted	-11.3446
▁obesity	-11.3447
▁ceiling	-11.3447
▁pink	-11.3448
▁acute	-11.3448
tldr	-11.3449
▁adoption	-11.345
▁epi	-11.3451
▁scenes	-11.3452
mas	-11.3453
mond	-11.3454
▁adaptation	-11.3454
**:	-11.3457
▁pressed	-11.3463
▁hunting	-11.3464
gus	-11.3464
▁SC	-11.3464
▁shield	-11.3467
▁passphrase	-11.3468
▁peers	-11.3469
▁harvest	-11.347
▁intelligent	-11.3471
Filter	-11.3471
▁accounting	-11.3471
▁Total	-11.3472
▁ft	-11.3473
shed	-11.3474
▁bell	-11.3474
▁LC	-11.3475
▁construct	-11.3476
rule	-11.3477
▁Nevertheless	-11.3478
▁favourite	-11.348
bur	-11.3482
▁Convention	-11.3483
▁Memory	-11.3485
▁coastal	-11.3487
Car	-11.3488
ural	-11.3493
ged	-11.3493
▁leap	-11.3494
▁metals	-11.3496
Mon	-11.3496
environment	-11.3497
▁progressive	-11.3499
▁firmware	-11.3502
PM	-11.3503
▁shorter	-11.3503
hp	-11.3507
▁designers	-11.3507
replace	-11.3509
▁attending	-11.351
е	-11.3511
▁pursuit	-11.3511
▁carries	-11.3514
▁subtle	-11.3514
▁distinguish	-11.3519
▁Firstly	-11.3522
▁Small	-11.3523
▁SA	-11.3524
▁province	-11.3525
▁wrap	-11.3528
unk	-11.353
hol	-11.3533
ement	-11.3535
▁thesis	-11.3536
els	-11.3536
▁Farm	-11.3537
▁Mountain	-11.3539
bel	-11.3541
▁Date	-11.3542
▁generator	-11.3542
manager	-11.3545
▁guitar	-11.3545
▁theories	-11.3546
▁clay	-11.3546
dal	-11.3548
▁varies	-11.355
quire	-11.3558
▁evolving	-11.3561
▁representatives	-11.3562
▁fifth	-11.3565
▁Alexander	-11.3566
bio	-11.3567
▁arranged	-11.3568
ith	-11.357
▁Mother	-11.3571
element	-11.3572
▁convey	-11.3574
▁ignoring	-11.3577
▁utilizing	-11.3577
▁anxious	-11.3578
wall	-11.3579
dt	-11.358
▁visits	-11.358
▁·	-11.3581
▁mess	-11.3581
pet	-11.3583
▁+=	-11.3583
▁IDs	-11.3584
ache	-11.3586
▁skilled	-11.3586
▁occupation	-11.3591
▁arrest	-11.3593
▁Prime	-11.3596
ika	-11.3599
▁(!	-11.36
proto	-11.3601
▁Cu	-11.3601
▁trailing	-11.3601
▁sons	-11.3602
▁Mexican	-11.3604
▁featured	-11.3606
CU	-11.3608
▁quantities	-11.3609
▁glory	-11.361
▁excitement	-11.361
▁google	-11.3616
───────────────┤	-11.3618
▁suggesting	-11.3619
coreutils	-11.362
▁surely	-11.362
NE	-11.3621
lies	-11.3622
Take	-11.3622
▁acids	-11.3622
▁screenshot	-11.3623
▁Valid	-11.3625
ó	-11.3628
OK	-11.363
standard	-11.3631
▁tower	-11.3638
cpp	-11.3638
▁promises	-11.364
owner	-11.3641
▁receiver	-11.3642
grad	-11.3642
▁luxury	-11.3642
▁sensation	-11.3642
▁strive	-11.3645
▁Future	-11.3645
join	-11.3647
```	-11.3648
▁Res	-11.365
▁Han	-11.365
ics	-11.3653
▁shore	-11.3653
▁span	-11.3655
Dir	-11.3656
During	-11.3656
▁translated	-11.3658
▁employers	-11.3661
ost	-11.3664
▁YouTube	-11.3666
▁Mail	-11.3666
gv	-11.3666
▁inherent	-11.3667
EM	-11.3669
▁drinks	-11.3669
May	-11.367
▁Rather	-11.3673
Step	-11.3674
▁stations	-11.3674
▁Contact	-11.3675
▁implied	-11.3675
timeout	-11.3676
▁residential	-11.3676
▁Berlin	-11.3678
▁classification	-11.3682
snap	-11.3684
▁globally	-11.3686
▁poet	-11.3686
Buffer	-11.3686
cloud	-11.3692
▁partly	-11.3693
▁Wild	-11.3697
CT	-11.3697
comment	-11.3699
▁elections	-11.3701
▁fifty	-11.3703
▁Fi	-11.3703
▁slice	-11.3705
▁mineral	-11.3705
▁trauma	-11.3708
▁clicking	-11.3708
▁behalf	-11.3708
▁sunlight	-11.371
Stream	-11.3712
▁comparing	-11.3712
MAC	-11.3713
▁speakers	-11.3714
▁releases	-11.3716
LM	-11.3716
▁doc	-11.3717
(&	-11.3723
FT	-11.3723
▁tissues	-11.3725
▁grounds	-11.3728
secure	-11.373
_\	-11.3732
▁Volume	-11.3733
▁sword	-11.3734
▁Private	-11.3734
patch	-11.3735
sleep	-11.3739
Limit	-11.3741
▁analyzing	-11.3742
▁societies	-11.3742
▁transmitted	-11.3742
▁civilization	-11.3744
▁Financial	-11.3746
though	-11.3747
looking	-11.3748
▁upcoming	-11.3749
hw	-11.3751
ION	-11.3751
THE	-11.3753
▁Heart	-11.3753
gt	-11.3754
▁farming	-11.3755
pon	-11.3758
▁tribes	-11.3762
psi	-11.3763
▁Unit	-11.3763
bot	-11.3766
▁utilized	-11.3766
▁Cook	-11.3767
uf	-11.3768
▁Collection	-11.3768
school	-11.3768
aver	-11.3769
▁pepper	-11.3775
▁relating	-11.3775
▁Colorado	-11.3775
ctrl	-11.3775
▁accordance	-11.3775
▁encoded	-11.3775
▁laugh	-11.3776
▁fought	-11.3777
▁pocket	-11.3779
AF	-11.3786
tern	-11.3787
▁Price	-11.3788
five	-11.379
ison	-11.379
▁receives	-11.3792
▁nest	-11.3793
▁kid	-11.3795
▁creatures	-11.3796
wind	-11.3796
▁pane	-11.3797
▁uninstall	-11.3799
ISO	-11.3801
▁comp	-11.3802
Stop	-11.3805
sample	-11.3805
▁bucket	-11.3805
▁administrator	-11.3808
▁defining	-11.3808
▁fifteen	-11.3808
▁Four	-11.3809
berry	-11.3809
century	-11.381
▁preference	-11.3813
tp	-11.3814
DO	-11.3818
tone	-11.3818
▁patches	-11.3819
▁provisions	-11.3819
▁Taylor	-11.3822
]{	-11.3822
▁subsequently	-11.3827
▁perspectives	-11.3828
bing	-11.3831
DM	-11.3831
▁incorrect	-11.3833
sey	-11.3834
▁conform	-11.3837
▁Survey	-11.3838
description	-11.3838
▁drama	-11.3842
▁essence	-11.3842
▁palace	-11.3842
▁grasp	-11.3842
abi	-11.3842
something	-11.3844
▁drops	-11.3846
TD	-11.3847
walk	-11.3847
does	-11.3849
▁shower	-11.3849
bits	-11.3851
▁placement	-11.3851
▁sheep	-11.3852
▁pharmaceutical	-11.3853
▁Very	-11.3854
Mode	-11.3857
▁retrieve	-11.3857
▁shoulder	-11.3859
IVE	-11.3861
▁stamp	-11.3863
AV	-11.3865
eval	-11.3866
IV	-11.3867
▁adverse	-11.3867
▁magazine	-11.387
fit	-11.387
ump	-11.3872
▁fortune	-11.3873
▁intermediate	-11.3876
▁acquisition	-11.3876
▁SANE	-11.3876
▁unity	-11.3879
lk	-11.388
▁dishes	-11.3881
cfg	-11.3881
▁Story	-11.3882
▁der	-11.3883
ern	-11.3884
tum	-11.3887
sized	-11.3889
condition	-11.389
tive	-11.3891
Input	-11.3893
▁spec	-11.3893
▁reg	-11.3896
generator	-11.3899
▁developer	-11.3899
gling	-11.3901
▁Large	-11.3901
▁Fer	-11.3903
▁mice	-11.3903
▁Grant	-11.3909
▁welfare	-11.391
▁Bitcoin	-11.391
▁flesh	-11.391
$\	-11.3915
▁Process	-11.3919
minute	-11.392
ERR	-11.3925
▁Ty	-11.3927
rsync	-11.3929
▁ski	-11.3931
Each	-11.3934
▁switching	-11.3934
▁shaped	-11.3937
▁gathering	-11.3937
▁Med	-11.3938
▁activation	-11.3939
▁corruption	-11.3939
▁nurse	-11.3943
▁crystal	-11.3944
Instance	-11.3944
askubuntu	-11.3946
▁countless	-11.3949
week	-11.395
▁designated	-11.3955
▁yard	-11.3955
direct	-11.3956
▁virtually	-11.3956
▁meets	-11.3957
▁march	-11.3958
▁racial	-11.396
▁jaw	-11.3961
▁necessity	-11.3964
▁hire	-11.3968
▁Spring	-11.3969
▁Ken	-11.397
---------------	-11.3971
GE	-11.3971
books	-11.3972
▁existed	-11.3972
eng	-11.3972
▁weapon	-11.3975
▁Mike	-11.3975
ered	-11.3976
ulator	-11.3977
▁hasn	-11.3979
▁Later	-11.398
▁metrics	-11.398
paper	-11.3981
^\	-11.3982
▁workshop	-11.3983
▁photography	-11.3983
gif	-11.3983
profit	-11.3985
metric	-11.3986
▁Jacob	-11.3987
El	-11.3989
▁islands	-11.3989
▁pale	-11.399
▁idle	-11.3991
▁Setting	-11.3993
UNIT	-11.3994
▁beam	-11.3996
▁Advanced	-11.3997
▁accomplished	-11.3997
pem	-11.3999
▁Maria	-11.3999
▁Kar	-11.3999
():	-11.4001
Form	-11.4001
▁bull	-11.4006
▁remembered	-11.4007
▁Upon	-11.4007
▁Executive	-11.4008
▁mile	-11.4012
▁ticket	-11.4013
▁occurring	-11.4014
locale	-11.4016
xxx	-11.4019
▁Phil	-11.4022
tid	-11.4029
▁btrfs	-11.403
▁earthquake	-11.4031
gal	-11.4032
GS	-11.4033
▁Basic	-11.4038
▁pa	-11.4038
▁emotion	-11.4041
eck	-11.4043
BUS	-11.4043
ifier	-11.4043
▁isolation	-11.4046
▁outline	-11.4046
▁packaging	-11.4046
▁kidney	-11.4048
pf	-11.4049
▁slower	-11.405
▁col	-11.4051
▁Lab	-11.4055
▁arrangements	-11.4055
▁magnet	-11.4056
shire	-11.4056
lect	-11.4057
lus	-11.4057
▁specialist	-11.406
▁scrap	-11.4061
bling	-11.4064
AB	-11.4065
▁consult	-11.4066
perf	-11.4067
GA	-11.4068
▁conscious	-11.4068
▁filenames	-11.4069
▁Client	-11.407
▁mom	-11.4071
"),	-11.4072
▁Nothing	-11.4075
▁Record	-11.4076
platform	-11.4077
wer	-11.4078
CODE	-11.4078
rous	-11.408
▁mortgage	-11.408
▁gravity	-11.408
Column	-11.408
tem	-11.4081
safe	-11.4081
▁Hotel	-11.4082
eli	-11.4086
▁fleet	-11.4087
▁devoted	-11.4088
▁fa	-11.4089
▁PE	-11.409
▁freely	-11.409
▁throat	-11.4091
▁os	-11.4092
▁Th	-11.4092
namespace	-11.4094
▁forgotten	-11.4095
▁Aug	-11.4096
▁praise	-11.4097
ites	-11.41
chen	-11.4102
quad	-11.4106
▁inhabitants	-11.4106
▁undefined	-11.4106
▁Travel	-11.4107
ses	-11.4108
dep	-11.4108
Look	-11.4109
·	-11.4111
LT	-11.4111
▁cave	-11.4113
▁aligned	-11.4113
▁fur	-11.4114
▁Firefox	-11.4114
▁Address	-11.4115
aria	-11.4115
▁gro	-11.4117
▁valley	-11.4119
▁guilty	-11.4119
▁chamber	-11.4121
▁Tor	-11.4125
▁gifts	-11.4126
fu	-11.4127
Action	-11.4132
▁bitter	-11.4136
▁activated	-11.4138
dies	-11.4141
▁removes	-11.4143
Script	-11.4143
gs	-11.4144
Header	-11.4144
▁redirect	-11.4147
▁Tell	-11.4147
▁ethnic	-11.4148
}^	-11.4149
conn	-11.4149
▁enemies	-11.4149
▁Peace	-11.415
▁dietary	-11.4153
▁retreat	-11.4153
▁Wales	-11.4154
▁///	-11.4156
▁Egyptian	-11.4156
▁favour	-11.4157
▁Matt	-11.4158
thy	-11.4159
hot	-11.4163
nch	-11.4164
nor	-11.4165
▁packed	-11.4166
▁discharge	-11.4166
wc	-11.4167
▁loud	-11.417
Render	-11.4173
▁Give	-11.4173
▁breeding	-11.4175
Min	-11.4175
}}'	-11.4176
▁dreams	-11.4177
rand	-11.4178
▁Feb	-11.4178
Arg	-11.4179
▁hanging	-11.418
▁Chris	-11.418
▁Illinois	-11.4184
▁respiratory	-11.4184
Cache	-11.4184
fields	-11.4188
rit	-11.419
▁functioning	-11.419
▁Choose	-11.4192
▁Nu	-11.4193
▁tracks	-11.4196
▁HEAD	-11.4196
▁ON	-11.4198
▁drag	-11.4202
▁drum	-11.4203
Right	-11.4205
▁photographs	-11.4206
Ha	-11.4207
apple	-11.4208
▁castle	-11.4208
▁Exchange	-11.4209
▁finite	-11.4215
ched	-11.4216
▁crimes	-11.4218
▁curiosity	-11.4219
▁embracing	-11.4219
DEBUG	-11.4219
▁exclude	-11.422
▁failing	-11.422
▁Temple	-11.4221
▁determines	-11.4221
gg	-11.4222
▁organisation	-11.4224
▁males	-11.4227
▁Duke	-11.423
trans	-11.4233
▁hospitals	-11.4233
###	-11.4235
▁pose	-11.4239
zz	-11.424
▁Current	-11.4242
▁sing	-11.4244
▁performs	-11.4245
▁chips	-11.4246
▁Republican	-11.4246
UID	-11.4246
VERSION	-11.4247
▁Drive	-11.4248
except	-11.4248
▁continent	-11.425
▁dominant	-11.425
▁Moon	-11.4252
Report	-11.4257
▁sys	-11.4257
▁Writing	-11.4258
▁Fu	-11.4261
nia	-11.4261
▁gay	-11.4262
▁Simon	-11.4262
▁automated	-11.4263
activity	-11.4263
member	-11.4264
▁bite	-11.4265
▁carrier	-11.4267
sym	-11.4268
▁Ol	-11.4269
▁Francis	-11.4269
pal	-11.4269
LL	-11.427
▁succeeded	-11.4276
▁Del	-11.4279
▁eager	-11.4281
▁prevalence	-11.4289
COUNT	-11.4289
)^	-11.429
En	-11.4292
LINE	-11.4294
▁reject	-11.4295
SYSTEMD	-11.4295
▁everybody	-11.4296
▁sweat	-11.4296
Sec	-11.4296
▁governing	-11.4299
monitor	-11.43
▁Sand	-11.4301
▁ne	-11.4301
▁flush	-11.4304
▁admin	-11.4304
▁printf	-11.4305
imp	-11.4305
restore	-11.4306
▁offices	-11.4307
uni	-11.4308
▁sophisticated	-11.4309
▁tee	-11.431
▁Ste	-11.431
ACT	-11.4311
aba	-11.4314
^{-	-11.4314
▁Connect	-11.4314
▁modifications	-11.4315
▁Tips	-11.4318
▁peculiar	-11.4319
▁Alex	-11.432
▁tobacco	-11.4324
▁harsh	-11.4324
▁compelling	-11.4324
▁distress	-11.4324
▁worthy	-11.4325
▁wheat	-11.4325
▁settle	-11.4325
Part	-11.4328
lid	-11.4331
▁Protocol	-11.4333
▁elevated	-11.4333
▁frames	-11.4334
▁Send	-11.4335
xe	-11.4338
▁si	-11.4339
guide	-11.434
["	-11.4344
▁privilege	-11.4345
▁switches	-11.4347
memory	-11.4348
dale	-11.4351
▁positively	-11.4351
▁particle	-11.4352
▁annually	-11.4352
▁Pope	-11.4353
▁deny	-11.4354
▁pause	-11.4354
▁chains	-11.4354
gro	-11.4357
▁tons	-11.4359
▁Ethernet	-11.4359
▁incredibly	-11.4359
▁mathematics	-11.4359
▁restoration	-11.4359
dhcp	-11.436
▁evaluated	-11.436
omega	-11.4361
nit	-11.4362
ira	-11.4363
▁Used	-11.4365
▁PS	-11.4367
▁sentences	-11.4368
▁belt	-11.4369
▁achievement	-11.4372
response	-11.4374
Socket	-11.4375
nam	-11.4376
▁transformed	-11.4383
DF	-11.4383
▁validation	-11.4384
▁peaceful	-11.4384
▁boards	-11.4385
▁graphic	-11.4388
▁bare	-11.4389
▁slide	-11.4389
▁authentic	-11.439
▁Bu	-11.4391
▁clip	-11.4394
▁Settings	-11.4394
cluster	-11.4395
▁tactics	-11.4395
▁sauce	-11.4395
ulating	-11.4396
▁admitted	-11.4396
▁priorities	-11.4397
▁attorney	-11.4403
▁hormone	-11.4403
▁UTF	-11.4404
grub	-11.4406
▁Visual	-11.4407
team	-11.4407
▁collecting	-11.4408
▁Self	-11.441
ava	-11.441
lm	-11.4411
▁Trace	-11.4411
▁sole	-11.4411
▁distinguished	-11.4413
▁planting	-11.4414
▁stretch	-11.4414
Op	-11.4414
▁bars	-11.4414
▁Mars	-11.4418
Device	-11.4418
▁disks	-11.4418
pop	-11.442
▁adapted	-11.442
effective	-11.4421
▁optical	-11.4423
ifying	-11.4426
▁officially	-11.4426
▁glucose	-11.443
▁dioxide	-11.4431
▁steady	-11.4431
▁prescription	-11.4431
▁'{}'	-11.4431
zing	-11.4432
▁athletes	-11.4433
==	-11.4433
ida	-11.4434
rsa	-11.4435
sigma	-11.4436
▁Field	-11.4439
oz	-11.4441
▁EM	-11.4446
wl	-11.4446
att	-11.4449
▁priest	-11.4453
▁tear	-11.4453
nav	-11.4453
▁incoming	-11.4456
Builder	-11.4457
▁url	-11.4458
▁recovered	-11.446
▁sha	-11.446
unsigned	-11.446
Because	-11.4462
▁Save	-11.4462
▁spatial	-11.4463
▁cholesterol	-11.4466
▁leather	-11.4466
▁fake	-11.4466
▁solving	-11.4467
Did	-11.4467
▁patience	-11.4468
▁tourism	-11.4468
▁contributes	-11.4469
▁Tour	-11.447
▁grab	-11.4472
▁Professional	-11.4473
▁productive	-11.4476
▁assured	-11.4476
▁Bla	-11.4479
▁Block	-11.4483
▁CR	-11.4483
▁rejected	-11.4483
▁lord	-11.4483
▁resist	-11.4484
random	-11.4485
▁Massachusetts	-11.449
done	-11.4498
vel	-11.4499
aire	-11.45
▁polar	-11.4501
▁recycling	-11.4503
▁lung	-11.4503
ador	-11.4503
▁kit	-11.4503
▁blocked	-11.4504
▁Often	-11.4505
pat	-11.4507
▁Para	-11.451
property	-11.451
▁Vo	-11.4512
ister	-11.4513
▁dispute	-11.4514
KE	-11.4516
eller	-11.4518
pan	-11.4519
Char	-11.452
▁propose	-11.452
DL	-11.4522
▁Had	-11.4526
▁Dun	-11.4528
▁Parliament	-11.4528
▁extracted	-11.4528
tru	-11.4529
Try	-11.4529
Inter	-11.4532
▁asset	-11.4534
PORT	-11.4537
▁clouds	-11.4538
▁doi	-11.4538
▁keen	-11.4539
▁certified	-11.4539
look	-11.454
▁Sports	-11.454
metadata	-11.4541
ami	-11.4542
ges	-11.4543
lis	-11.4543
▁navigation	-11.4545
▁mature	-11.4546
▁Mat	-11.4546
▁Ltd	-11.4548
miss	-11.4548
types	-11.455
▁powered	-11.4554
▁Never	-11.4556
▁females	-11.4558
gle	-11.4559
daemon	-11.4559
▁cha	-11.456
▁argued	-11.4566
▁illustrate	-11.4567
▁Cup	-11.4567
▁Week	-11.4571
▁compete	-11.4572
▁Arizona	-11.4574
▁Lewis	-11.4574
▁angry	-11.4574
${	-11.4577
▁Account	-11.4577
▁joints	-11.4577
▁tune	-11.4578
▁Ultimately	-11.4579
▁vitamins	-11.4581
desc	-11.4582
ao	-11.4583
▁inch	-11.4587
arn	-11.4588
▁biology	-11.4592
▁regulate	-11.4592
wick	-11.4593
▁Working	-11.4595
▁gods	-11.4598
▁Geo	-11.4598
erate	-11.4599
▁Things	-11.46
▁Quality	-11.4601
▁suited	-11.4603
▁probe	-11.4604
▁Economic	-11.4606
▁independently	-11.4606
debian	-11.4609
custom	-11.4609
▁abnormal	-11.461
▁gaming	-11.4611
▁bloom	-11.4611
▁prisoners	-11.4611
▁railway	-11.4612
▁Share	-11.4614
▁Index	-11.4614
▁democratic	-11.4616
ines	-11.4617
▁Short	-11.4617
▁loving	-11.4618
▁cleaner	-11.4619
▁rental	-11.462
▁brothers	-11.462
route	-11.4621
fat	-11.4621
rp	-11.4621
LD	-11.4623
▁Pra	-11.4623
▁formatting	-11.4624
▁partially	-11.4624
expression	-11.4625
ona	-11.4627
groups	-11.4627
▁spare	-11.4628
augh	-11.463
std	-11.4631
hold	-11.4632
▁backward	-11.4632
ij	-11.4633
Function	-11.4633
Hash	-11.4634
▁usb	-11.4636
▁tends	-11.464
▁seal	-11.4641
▁analyzed	-11.4642
yr	-11.4642
▁Er	-11.4644
▁Carl	-11.4644
▁<(	-11.4646
▁suicide	-11.4647
▁weird	-11.4647
▁marry	-11.4648
Response	-11.465
▁disability	-11.465
▁accessing	-11.465
▁Tar	-11.4651
rop	-11.4652
RN	-11.4653
▁restaurants	-11.4653
TI	-11.4654
▁Training	-11.4655
▁glob	-11.4656
▁Mil	-11.4656
▁bat	-11.4658
rr	-11.4662
▁enjoying	-11.4664
▁gains	-11.4665
clone	-11.4666
ome	-11.4667
▁forecast	-11.4667
▁copying	-11.4668
pair	-11.4669
layer	-11.4671
▁dig	-11.4673
▁CC	-11.4675
▁fool	-11.4677
▁bags	-11.4682
▁wing	-11.4683
▁gently	-11.4684
▁iPhone	-11.4684
▁scientist	-11.4686
▁dot	-11.469
▁grows	-11.469
▁plugins	-11.469
▁voices	-11.4691
![	-11.4694
▁Tra	-11.4696
Load	-11.4696
▁seats	-11.4697
▁strip	-11.4699
keeper	-11.4702
▁digits	-11.4704
▁folks	-11.4705
▁portfolio	-11.4705
▁zones	-11.4706
ERS	-11.4706
▁singing	-11.4707
▁organisms	-11.4708
▁attributed	-11.4709
▁trailer	-11.471
teen	-11.471
▁unused	-11.4715
lower	-11.4717
▁promised	-11.4719
▁Angel	-11.4719
▁Usually	-11.472
▁adjacent	-11.472
−	-11.472
▁realistic	-11.4724
urs	-11.4724
▁spite	-11.4725
▁Attribute	-11.4726
did	-11.4729
drive	-11.4731
▁mv	-11.4733
▁practitioners	-11.4735
tw	-11.4737
▁Treatment	-11.4738
▁LA	-11.4739
▁Task	-11.4739
▁prey	-11.4741
▁sheets	-11.4743
▁dozen	-11.4743
▁indicator	-11.4744
▁escaped	-11.4747
global	-11.4748
▁manufacture	-11.4749
reset	-11.4754
▁wifi	-11.4756
DEFAULT	-11.4757
▁storing	-11.4757
▁Specifically	-11.4757
▁Tax	-11.4757
▁palm	-11.4758
▁leverage	-11.4758
▁dining	-11.4759
▁pipeline	-11.4759
▁Third	-11.4762
eta	-11.4763
shaped	-11.4763
▁cancel	-11.4765
▁tropical	-11.4767
hor	-11.4767
▁Ham	-11.4768
mysql	-11.4773
▁├──────────	-11.4775
▁nil	-11.4778
▁Ray	-11.4779
▁fraction	-11.478
▁fatigue	-11.4781
must	-11.4782
▁Ever	-11.4782
generic	-11.4784
▁theoretical	-11.4785
▁reward	-11.4785
plain	-11.4786
▁deposit	-11.4789
▁creature	-11.4791
▁Brand	-11.4791
▁guaranteed	-11.4793
▁complement	-11.4793
▁tracing	-11.4794
▁'%	-11.4794
enc	-11.4796
OB	-11.48
cross	-11.4802
▁coin	-11.4807
Tag	-11.4808
▁fancy	-11.4809
channel	-11.481
fill	-11.4811
▁cameras	-11.4811
▁educators	-11.4812
same	-11.4813
▁infinite	-11.4815
gent	-11.4817
▁ram	-11.4817
▁literal	-11.482
▁hunt	-11.4822
upload	-11.4823
▁eligible	-11.4825
▁pulse	-11.4825
library	-11.4826
▁SIG	-11.4827
every	-11.483
▁steep	-11.4831
▁Jean	-11.4831
▁calculation	-11.4832
craft	-11.4833
▁relate	-11.4833
///	-11.4833
▁analytics	-11.4833
▁advances	-11.4834
zen	-11.4836
convert	-11.4837
▁correction	-11.4837
▁velocity	-11.484
▁\)	-11.484
▁Physical	-11.4842
izer	-11.4842
▁armed	-11.4843
GI	-11.4844
button	-11.4847
▁Iran	-11.4849
▁>>	-11.4849
ei	-11.4852
▁tale	-11.4853
▁subset	-11.4856
iff	-11.4857
▁Brazil	-11.4857
dbus	-11.4858
RSA	-11.4866
EDIT	-11.4867
God	-11.4867
▁rolling	-11.4867
▁abundant	-11.4868
▁cardiovascular	-11.4868
▁hypothesis	-11.4868
▁threw	-11.4868
▁Impact	-11.4868
▁dried	-11.487
▁PowerShell	-11.4871
Str	-11.4872
▁wa	-11.4873
final	-11.4874
Options	-11.4875
▁corresponds	-11.4876
special	-11.4883
▁Blood	-11.4884
▁gaps	-11.4887
▁wings	-11.4887
nar	-11.4887
▁drill	-11.4887
▁wound	-11.4888
▁EXAMPLES	-11.4892
[=	-11.4892
▁operates	-11.4894
▁cookie	-11.4896
▁endless	-11.4897
lee	-11.4898
▁Nick	-11.4901
Back	-11.4901
▁dairy	-11.4905
too	-11.4905
▁dense	-11.4906
Token	-11.4907
product	-11.4908
▁NetworkManager	-11.4909
▁stopping	-11.4909
Post	-11.4909
Split	-11.4912
▁Hebrew	-11.4912
▁Mill	-11.4912
▁Simple	-11.4914
ough	-11.4914
POSIX	-11.4916
▁prefixed	-11.4917
LIST	-11.4921
cmp	-11.4921
▁diagnose	-11.4924
▁citizen	-11.493
▁intervals	-11.493
▁coding	-11.4935
▁advise	-11.4937
▁Band	-11.494
▁tickets	-11.4943
▁genome	-11.4943
Ar	-11.4943
▁cp	-11.4943
ket	-11.4945
ago	-11.4945
▁wanting	-11.4946
▁liked	-11.4946
once	-11.4947
vim	-11.4947
Her	-11.4948
▁licensed	-11.495
▁descriptors	-11.495
Entry	-11.4951
▁Jr	-11.4954
abc	-11.4954
itz	-11.4955
▁calories	-11.496
▁strictly	-11.496
▁vegetable	-11.4961
▁Drug	-11.4961
▁Fish	-11.4967
Gu	-11.4968
acy	-11.4968
▁Release	-11.4969
▁therapeutic	-11.4973
▁inherit	-11.4974
▁posting	-11.4975
▁Much	-11.4976
equation	-11.4977
è	-11.4979
▁Festival	-11.498
▁neural	-11.498
blog	-11.498
▁vocal	-11.4981
~\	-11.4982
▁climb	-11.4982
▁Station	-11.4983
▁gentleman	-11.4983
────────────	-11.499
got	-11.4993
▁LUKS	-11.4993
AND	-11.4994
▁compilation	-11.4997
▁terminated	-11.4998
▁Visit	-11.4998
interest	-11.5
▁bands	-11.5002
una	-11.5004
▁rhythm	-11.5009
▁archives	-11.501
▁highlighting	-11.501
los	-11.5018
▁conservative	-11.5018
▁mobility	-11.5018
nel	-11.5018
rill	-11.5019
▁DA	-11.5021
▁anonymous	-11.5022
▁traits	-11.5023
▁spine	-11.5024
▁brave	-11.5024
▁bacterial	-11.5028
▁puts	-11.5029
▁metric	-11.5031
AES	-11.5032
}{\	-11.5032
bool	-11.5033
▁Flu	-11.5034
met	-11.5035
gel	-11.5035
▁petition	-11.5036
▁accepts	-11.5036
▁illustrated	-11.5037
▁beans	-11.5037
▁simulation	-11.5037
▁incorporated	-11.5041
Ti	-11.5042
iest	-11.5042
▁dictionary	-11.5043
▁Room	-11.5043
▁CI	-11.5044
SF	-11.5044
never	-11.5047
▁distribute	-11.5049
▁/**	-11.5053
▁Sweden	-11.5056
▁circulation	-11.5056
▁integrating	-11.5056
SELECT	-11.5056
▁Davis	-11.5056
▁Prevention	-11.5056
▁Judge	-11.5058
Access	-11.5061
▁chill	-11.5061
building	-11.5061
▁consultation	-11.5062
▁alien	-11.5064
Comment	-11.5066
▁Bal	-11.5071
▁DE	-11.5073
▁altered	-11.508
Force	-11.5082
▁accidents	-11.5082
▁defend	-11.5084
▁insensitive	-11.5085
▁Philadelphia	-11.5085
▁employer	-11.5086
▁AF	-11.5086
iate	-11.5087
ender	-11.5091
cost	-11.5091
▁Islamic	-11.5093
 	-11.5093
▁evaluating	-11.5094
▁mystery	-11.5094
▁ultra	-11.5094
▁Pay	-11.5095
tta	-11.5095
ien	-11.5095
▁Available	-11.5095
▁Wilson	-11.5095
▁Edition	-11.5096
arr	-11.5097
▁Bor	-11.5097
both	-11.5097
----	-11.5102
Today	-11.5102
▁modem	-11.5103
▁wellbeing	-11.5104
ingly	-11.5106
▁assumptions	-11.5106
TLS	-11.5112
held	-11.5115
▁Palestinian	-11.5116
▁ver	-11.5119
▁sem	-11.512
fail	-11.5121
▁collaborative	-11.5123
▁rational	-11.5126
▁DVD	-11.5129
stage	-11.5129
▁Prior	-11.5129
▁crack	-11.5129
▁IBM	-11.5129
▁resident	-11.513
tho	-11.5131
▁Map	-11.5131
▁aluminum	-11.5132
▁defensive	-11.5132
▁indigenous	-11.5132
▁preceding	-11.5132
▁voting	-11.5132
oids	-11.5135
forward	-11.5137
sive	-11.514
readable	-11.514
▁Clean	-11.5141
▁msg	-11.5142
▁lets	-11.5144
Local	-11.5144
▁Product	-11.5146
▁Smart	-11.5146
▁scanners	-11.5146
disable	-11.5147
IE	-11.5149
▁gaining	-11.515
▁pile	-11.515
▁su	-11.5153
▁nobody	-11.5154
▁verse	-11.5156
▁exceed	-11.5156
CONFIG	-11.516
▁Clark	-11.516
▁Cy	-11.5165
▁Course	-11.5167
dat	-11.5167
▁circular	-11.517
▁expedition	-11.517
▁Meta	-11.5174
▁villages	-11.5174
extra	-11.5176
▁shoulders	-11.5177
▁funded	-11.5177
super	-11.5178
++)	-11.5178
▁nuts	-11.5178
NT	-11.5179
▁safer	-11.518
▁barrier	-11.5183
▁Bear	-11.5184
lf	-11.5184
▁chi	-11.5185
▁Jun	-11.5185
▁throws	-11.5186
uit	-11.5186
▁prompted	-11.5187
cin	-11.5189
EXT	-11.5189
▁restrict	-11.5192
▁Je	-11.5192
▁circles	-11.5193
▁IS	-11.5198
Every	-11.5198
▁immense	-11.52
▁lion	-11.52
bro	-11.5201
▁talks	-11.5204
aya	-11.5205
▁Scholar	-11.5207
▁dentist	-11.5208
▁`$	-11.5208
▁interfere	-11.5209
▁phenomena	-11.5209
▁telephone	-11.5209
quiet	-11.5212
Ad	-11.5213
▁birthday	-11.5213
Ta	-11.5213
eu	-11.5215
▁influences	-11.5217
▁targeting	-11.5217
enum	-11.5219
▁reserve	-11.5219
▁fed	-11.5225
▁animation	-11.5225
HE	-11.5228
▁invoke	-11.523
▁continuously	-11.5231
▁Build	-11.5232
▁diagram	-11.5232
usually	-11.5232
▁pound	-11.5233
▁</	-11.5234
▁highlighted	-11.5235
▁newline	-11.5236
▁Say	-11.5238
▁oils	-11.5243
▁workflow	-11.5243
▁Games	-11.5244
crane	-11.5244
plant	-11.5246
▁recognizing	-11.5247
sda	-11.5248
these	-11.5248
▁Stone	-11.5248
▁Harry	-11.525
▁accused	-11.5251
▁classified	-11.5253
▁leak	-11.5253
▁Islands	-11.5256
▁tele	-11.5258
о	-11.5259
▁"${	-11.526
▁Node	-11.526
▁Unless	-11.526
▁backed	-11.5262
▁digit	-11.5264
▁engineer	-11.5264
▁inherited	-11.5265
▁jar	-11.5265
▁Bit	-11.5267
▁Bad	-11.5269
▁notation	-11.5269
▁calculations	-11.527
tors	-11.5271
▁traces	-11.5276
▁fold	-11.5277
▁readable	-11.5277
Fig	-11.5278
ways	-11.5281
Program	-11.5284
grade	-11.5284
▁titles	-11.5285
▁workshops	-11.5285
▁cyber	-11.5286
▁equity	-11.5286
▁discourse	-11.5287
Calculate	-11.5287
▁warn	-11.5288
▁Cro	-11.5288
▁scroll	-11.5288
EX	-11.5289
▁bullet	-11.5289
▁SE	-11.5294
▁buf	-11.5294
▁Mad	-11.5295
those	-11.5296
ault	-11.5296
▁###	-11.5297
natural	-11.5298
half	-11.5299
▁exploit	-11.5299
▁UV	-11.53
▁pdf	-11.53
optional	-11.5305
▁Risk	-11.5307
sus	-11.5308
PK	-11.5313
STANDARDS	-11.5315
▁cuts	-11.5322
▁grateful	-11.5325
▁disabilities	-11.5325
know	-11.5325
▁regret	-11.5325
▁uncertainty	-11.5325
jan	-11.5326
▁insulin	-11.5326
▁Country	-11.5326
▁cited	-11.5327
▁underground	-11.533
emp	-11.5332
▁voters	-11.5332
▁sail	-11.5336
▁guided	-11.5339
TEST	-11.5339
▁exclusively	-11.534
▁searches	-11.5343
signal	-11.5346
▁registers	-11.5348
Ext	-11.5349
▁arrow	-11.5349
▁Bas	-11.5352
▁bias	-11.5353
cam	-11.5357
roll	-11.5357
..."	-11.5358
▁sk	-11.5361
ati	-11.5363
и	-11.5364
▁ceremony	-11.5364
▁empire	-11.5364
▁vacation	-11.5364
▁swimming	-11.5364
cv	-11.5365
▁cleared	-11.5365
▁acres	-11.5366
▁displaying	-11.5368
▁overwhelming	-11.5369
▁lit	-11.5369
▁Winter	-11.537
Mac	-11.5373
Button	-11.5377
▁implements	-11.5377
▁behavioral	-11.5378
mul	-11.5382
▁Jerusalem	-11.5382
▁tabs	-11.5382
▁substitute	-11.5384
▁visitor	-11.5385
Launch	-11.5385
▁bears	-11.5385
▁Assembly	-11.5385
MAN	-11.5388
▁Tre	-11.5388
▁pseudo	-11.5389
▁Practice	-11.5389
ech	-11.539
▁assumption	-11.5391
rating	-11.5391
▁bills	-11.5391
▁districts	-11.5392
▁Harvard	-11.5392
CF	-11.5393
Store	-11.5395
blue	-11.5396
▁offerings	-11.5399
▁Buy	-11.54
▁RT	-11.5402
▁winds	-11.5403
▁EINVAL	-11.5403
▁vibrant	-11.5403
Ignore	-11.5403
▁Ze	-11.5404
▁silk	-11.5405
tl	-11.5407
▁inventory	-11.5408
▁-->	-11.5409
▁operated	-11.541
▁Sur	-11.541
▁orientation	-11.5413
love	-11.5415
bd	-11.5418
DN	-11.542
▁seasons	-11.5421
▁Document	-11.5423
tation	-11.5426
▁colours	-11.5427
▁ms	-11.5429
▁assignments	-11.5431
▁subscription	-11.5431
rite	-11.5432
True	-11.5434
▁statistical	-11.5435
▁cater	-11.5438
▁tick	-11.544
▁cousin	-11.5443
▁assault	-11.5443
▁strengths	-11.5444
sia	-11.5446
▁explaining	-11.5448
▁variants	-11.5449
▁HDD	-11.5452
▁cart	-11.5452
▁darkness	-11.5452
Power	-11.5452
▁constitution	-11.5452
STR	-11.5454
▁Files	-11.5457
▁Host	-11.5458
ND	-11.5459
▁researcher	-11.5461
worm	-11.5465
Method	-11.5465
PG	-11.5466
iter	-11.5467
ACK	-11.5471
▁NY	-11.5473
▁yields	-11.5475
▁actors	-11.5476
▁borders	-11.5477
plugin	-11.5477
RB	-11.5479
Interactive	-11.5479
▁Eric	-11.548
▁pupils	-11.5482
▁elaborate	-11.5482
▁minimizing	-11.5482
▁Performance	-11.5483
▁weigh	-11.5484
▁tolerance	-11.5487
wal	-11.5487
tls	-11.5488
▁tokens	-11.5488
▁landscapes	-11.5489
elli	-11.5492
▁Marine	-11.5492
▁Ci	-11.5493
▁heal	-11.5497
▁GIT	-11.5498
Ubuntu	-11.5499
register	-11.55
▁regex	-11.5503
▁Mes	-11.5506
▁Register	-11.5507
Like	-11.5508
▁Ali	-11.551
▁Lin	-11.5511
▁na	-11.5511
Vi	-11.5512
rah	-11.5512
▁beside	-11.5512
tions	-11.5513
pend	-11.5515
gre	-11.5516
kar	-11.5516
connection	-11.5517
▁unfortunately	-11.5517
duc	-11.5521
▁ACUTE	-11.5522
▁tremendous	-11.5522
▁pricing	-11.5522
▁gauge	-11.5522
▁Gallery	-11.5522
▁Arctic	-11.5522
▁secured	-11.5524
UR	-11.553
▁healthier	-11.5532
hoe	-11.5534
▁Know	-11.5534
WE	-11.5535
SR	-11.5536
▁vaccines	-11.5537
IAL	-11.5537
▁repeatedly	-11.554
TB	-11.554
▁Guidelines	-11.5542
Th	-11.5547
HO	-11.5547
▁atomic	-11.5548
▁dialog	-11.5548
lag	-11.5549
▁shops	-11.5552
▁aesthetic	-11.5552
▁Death	-11.5552
▁handles	-11.5554
mission	-11.5555
▁bool	-11.5556
▁pending	-11.5556
▁discussing	-11.5557
ws	-11.5558
cis	-11.556
▁prioritize	-11.5562
sure	-11.5562
Perform	-11.5563
ked	-11.5563
▁jet	-11.5567
fo	-11.5568
ifies	-11.5568
bottom	-11.557
▁mixing	-11.5573
heat	-11.5573
▁wrapper	-11.5574
▁forum	-11.5575
▁overrides	-11.5576
door	-11.5578
▁Capital	-11.5578
]+	-11.5579
conv	-11.5579
▁Application	-11.558
▁satisfy	-11.5581
▁magnitude	-11.5587
▁relax	-11.5588
▁gardens	-11.5589
rew	-11.5589
aud	-11.559
▁ample	-11.559
▁guides	-11.5592
)=	-11.5593
▁Mont	-11.5595
PID	-11.5596
▁shake	-11.5596
▁attitudes	-11.5597
▁Dog	-11.5599
▁UID	-11.5601
▁legitimate	-11.5602
▁reliability	-11.5602
▁clause	-11.5602
▁awesome	-11.5602
▁inflation	-11.5602
▁ladies	-11.5603
serve	-11.5604
▁extending	-11.5605
▁queen	-11.5608
rot	-11.5608
tun	-11.5612
OW	-11.5612
▁Tech	-11.5616
▁emails	-11.5617
▁wherever	-11.562
shared	-11.5624
▁limiting	-11.5626
▁organize	-11.5626
▁indicators	-11.5627
▁translate	-11.5627
SPEC	-11.563
▁lawn	-11.563
come	-11.5631
aki	-11.5632
▁hosted	-11.5632
▁cd	-11.5633
hn	-11.5638
outs	-11.5639
three	-11.5641
▁mitigate	-11.5642
▁yoga	-11.5642
▁drought	-11.5642
▁departure	-11.5642
▁intimate	-11.5643
▁prince	-11.5644
▁blast	-11.5645
erson	-11.5648
EG	-11.5648
▁fr	-11.5649
▁shortly	-11.565
▁faint	-11.5656
seconds	-11.5656
▁refuse	-11.5658
▁soldier	-11.566
much	-11.5666
▁charging	-11.5669
▁mothers	-11.567
▁===	-11.567
▁carriage	-11.5673
BL	-11.5675
mkdir	-11.5675
morrow	-11.568
▁Char	-11.568
▁consuming	-11.5682
▁eternal	-11.5683
Work	-11.5684
Factory	-11.5687
▁announcement	-11.5687
▁boats	-11.5689
pipe	-11.569
LI	-11.569
dry	-11.5691
▁supplement	-11.5692
▁accepting	-11.5692
emb	-11.5693
▁extraction	-11.5693
Sa	-11.5694
▁loves	-11.5694
▁instantly	-11.5694
utf	-11.5695
▁slash	-11.5697
▁separately	-11.5699
){	-11.5701
CPU	-11.5702
▁[]	-11.5702
rules	-11.5704
▁compromise	-11.5704
▁allocate	-11.5705
mile	-11.5706
Description	-11.5707
****************	-11.5709
▁PATH	-11.571
country	-11.5711
▁schemes	-11.5713
Record	-11.5714
▁occurrence	-11.5715
flag	-11.5718
▁Everything	-11.5719
▁excel	-11.572
pot	-11.572
▁trunk	-11.5721
tine	-11.5722
▁Paper	-11.5722
▁offensive	-11.5723
▁vocabulary	-11.5723
mathbf	-11.5723
▁salad	-11.5725
ike	-11.5725
▁acceptance	-11.5726
▁sorts	-11.5726
▁correspond	-11.5726
▁subdirectories	-11.5726
▁partnerships	-11.5729
▁Bol	-11.573
logic	-11.5731
▁crossed	-11.5731
Di	-11.5734
▁und	-11.5735
▁specifications	-11.5735
▁upstream	-11.5735
▁responded	-11.5735
▁interviews	-11.5737
▁Wisconsin	-11.574
▁wounded	-11.5741
ART	-11.5743
▁exceptions	-11.5744
mine	-11.5745
▁outputs	-11.5745
ulated	-11.5747
▁publishing	-11.5748
▁truck	-11.5748
▁deb	-11.5749
utter	-11.5751
▁ok	-11.5758
▁transmit	-11.5759
phan	-11.5759
▁completing	-11.5763
▁elegant	-11.5763
prio	-11.5764
ere	-11.5766
Lo	-11.5767
▁golf	-11.5767
▁educated	-11.5769
▁Talk	-11.5771
▁supplements	-11.5771
▁retired	-11.5772
)?	-11.5773
▁threatened	-11.5774
▁Silver	-11.5774
▁spirits	-11.5777
▁distinctive	-11.578
Document	-11.5781
▁Ann	-11.5783
think	-11.5784
▁Tro	-11.5787
▁Additional	-11.5788
▁importantly	-11.579
▁organizational	-11.579
▁stdout	-11.5791
course	-11.5792
▁spelling	-11.5792
▁promotion	-11.5794
▁bore	-11.5794
poetry	-11.5797
▁occasions	-11.5802
▁meditation	-11.5804
▁temporarily	-11.5804
verify	-11.5804
▁slope	-11.5806
▁olive	-11.5809
▁Direct	-11.5809
Pa	-11.581
▁Matthew	-11.5811
▁elderly	-11.5811
fore	-11.5814
▁obey	-11.5815
▁Custom	-11.5815
▁tent	-11.5821
Sort	-11.5823
mun	-11.5825
▁imply	-11.5825
▁speaks	-11.5826
LV	-11.5829
▁colored	-11.5831
olo	-11.5831
▁farms	-11.5832
binary	-11.5832
▁Depending	-11.5835
wave	-11.5839
▁aggregate	-11.584
▁CT	-11.5841
▁persist	-11.5842
proof	-11.5842
▁keyring	-11.5843
▁Abraham	-11.5844
æ	-11.5845
▁Greece	-11.5845
▁Pur	-11.5845
▁benchmark	-11.5845
▁clever	-11.5845
▁inequality	-11.5845
▁pets	-11.5846
▁defence	-11.5847
ila	-11.5848
Two	-11.5849
▁Sarah	-11.585
terminal	-11.585
▁Castle	-11.5851
▁abandoned	-11.5856
▁Hot	-11.5857
np	-11.586
ded	-11.5864
▁pixels	-11.5864
▁speeds	-11.5866
▁syscall	-11.5866
▁equations	-11.5866
▁fired	-11.5867
▁Roll	-11.5869
city	-11.5869
▁followers	-11.5872
▁radical	-11.5872
▁eco	-11.5872
▁submodule	-11.5875
▁touched	-11.5875
AI	-11.5876
Pi	-11.5877
TL	-11.5877
▁coating	-11.5882
OM	-11.5882
▁overflow	-11.5882
▁SSE	-11.5882
Status	-11.5886
▁XP	-11.5887
▁scholarship	-11.5887
▁geographical	-11.5888
hin	-11.589
Second	-11.589
▁thickness	-11.5891
─────┬──────────	-11.5891
hex	-11.5893
▁Golden	-11.5893
▁Nazi	-11.5894
cad	-11.5897
job	-11.5899
cycle	-11.5899
uel	-11.59
factor	-11.59
▁beloved	-11.59
cop	-11.5901
Auto	-11.5901
▁spa	-11.5902
▁shine	-11.5903
▁emit	-11.5905
▁origins	-11.5907
▁constants	-11.5907
WP	-11.5908
curl	-11.5912
erry	-11.5912
***	-11.5912
▁prevented	-11.5913
▁Reference	-11.5913
▁rendered	-11.5915
▁mapped	-11.5916
cum	-11.5916
tant	-11.5917
ality	-11.5917
lb	-11.5917
Com	-11.5917
acc	-11.5918
une	-11.5921
rom	-11.5923
▁declare	-11.5926
▁flour	-11.5927
▁vaccination	-11.5928
ML	-11.5928
▁adhere	-11.5929
calc	-11.5931
cas	-11.5931
▁parks	-11.5931
▁fo	-11.5931
odo	-11.5937
▁pie	-11.5939
▁aging	-11.594
▁cow	-11.5945
▁outbreak	-11.5946
▁exits	-11.5946
Mark	-11.5946
going	-11.5946
SK	-11.5946
▁disappear	-11.595
▁mud	-11.595
)]	-11.5951
▁competitors	-11.5951
▁Vietnam	-11.5951
▁rays	-11.5953
ports	-11.5955
Cr	-11.5956
ended	-11.5957
strict	-11.5958
ect	-11.5958
▁nutrient	-11.5958
▁Marketing	-11.596
▁sore	-11.5961
▁sphere	-11.5963
mouth	-11.5963
localhost	-11.5968
Allow	-11.5968
▁Conservation	-11.5969
▁desirable	-11.5969
▁utilization	-11.5969
▁situated	-11.5969
▁shallow	-11.5973
▁mock	-11.5974
Microsoft	-11.5977
▁meter	-11.5978
▁Experience	-11.598
Equal	-11.5983
▁Hong	-11.5983
kan	-11.5983
▁Pri	-11.5983
▁forty	-11.5985
oh	-11.5986
console	-11.5986
▁Radio	-11.5989
▁Extension	-11.5996
▁Five	-11.5999
▁bay	-11.6001
mand	-11.6002
chrome	-11.6003
▁rendering	-11.6003
▁Box	-11.6004
▁Mus	-11.6007
▁races	-11.601
▁Democratic	-11.6011
mut	-11.6012
▁joke	-11.6013
▁Active	-11.6013
▁decent	-11.6016
HR	-11.6016
▁Normally	-11.6016
▁arc	-11.6018
mv	-11.6019
gpg	-11.6019
▁sustained	-11.6024
▁cheaper	-11.6026
▁flock	-11.6027
▁progression	-11.6027
▁mad	-11.6029
maker	-11.6031
▁trash	-11.6031
▁Kong	-11.6031
▁Py	-11.6032
CV	-11.6032
iling	-11.6033
fig	-11.6034
▁somebody	-11.6034
▁wishes	-11.6035
wn	-11.6036
▁nutritional	-11.6037
▁reviewed	-11.6038
oper	-11.6038
▁Limit	-11.6039
bank	-11.6041
rain	-11.6042
▁blocking	-11.6045
▁delight	-11.6045
scsi	-11.6047
▁banking	-11.6048
▁addr	-11.6051
▁basket	-11.6052
▁mysterious	-11.6053
▁Scottish	-11.6054
▁Var	-11.6055
▁Rep	-11.6056
▁deemed	-11.6058
Po	-11.6059
▁implementations	-11.606
thought	-11.6061
▁Author	-11.6061
different	-11.6063
▁centered	-11.6063
▁nearest	-11.6063
glob	-11.6064
nf	-11.6066
oth	-11.6067
▁colony	-11.6067
▁lecture	-11.6069
▁dimension	-11.607
▁ALL	-11.607
▁neighbors	-11.607
SEC	-11.6073
▁laughed	-11.6073
▁grades	-11.6073
▁UNIX	-11.6074
▁smallest	-11.6078
timer	-11.6078
▁shots	-11.6079
eri	-11.608
▁introducing	-11.6082
\\\	-11.6084
comm	-11.6085
▁predicted	-11.6087
cipher	-11.6088
Long	-11.609
▁pest	-11.6091
bol	-11.6092
HI	-11.6093
cial	-11.6094
▁empathy	-11.6095
▁autism	-11.6095
▁outdated	-11.6095
▁infant	-11.6095
▁Turkey	-11.6096
▁passionate	-11.6096
▁humble	-11.6097
▁buyers	-11.6097
nz	-11.6099
▁Multiple	-11.61
▁concentrations	-11.6101
▁Film	-11.6103
zer	-11.6105
▁declaration	-11.6105
▁cruise	-11.6106
▁incidents	-11.6106
Ah	-11.6109
▁Mississippi	-11.611
pve	-11.611
▁rep	-11.6112
lex	-11.6112
▁Miller	-11.6113
▁electro	-11.6114
▁thumb	-11.6117
▁iptables	-11.6119
▁surprising	-11.612
▁Follow	-11.6122
doi	-11.6123
Extract	-11.6124
accept	-11.6127
▁fires	-11.6128
▁faithful	-11.6129
▁Bro	-11.6132
▁Kids	-11.6132
atch	-11.6133
▁counting	-11.6133
▁symlinks	-11.6135
▁Fall	-11.6135
cca	-11.6136
▁tumor	-11.6137
▁literacy	-11.6137
FAILURE	-11.6137
Figure	-11.6137
▁severity	-11.6137
▁fertilizer	-11.6137
▁VI	-11.6138
Block	-11.6138
▁mounting	-11.614
▁apartment	-11.614
▁Always	-11.614
▁fitted	-11.6141
devices	-11.6141
trust	-11.6143
▁Epi	-11.6145
▁Introduction	-11.6145
tile	-11.615
▁Stop	-11.6151
hur	-11.6153
▁households	-11.6155
▁Rec	-11.6155
cel	-11.6156
▁Stra	-11.6156
▁spreading	-11.6158
RAM	-11.6158
ICE	-11.616
▁careers	-11.6162
Will	-11.6163
▁collapse	-11.6164
▁Lock	-11.6166
▁suspected	-11.6169
letter	-11.617
▁puzzle	-11.6172
▁Historical	-11.6172
rist	-11.6173
bil	-11.6176
▁passengers	-11.6177
▁horizon	-11.6179
▁cellular	-11.6179
▁horror	-11.6179
▁ministry	-11.6179
▁diamond	-11.6179
▁fraud	-11.6179
▁straightforward	-11.6179
▁absent	-11.618
▁connectivity	-11.618
▁similarly	-11.6181
▁accessibility	-11.6181
▁Muslims	-11.6184
▁DO	-11.6187
▁resistant	-11.6188
▁keywords	-11.619
▁typing	-11.6192
diag	-11.6192
ieve	-11.6193
▁imposed	-11.6194
▁clusters	-11.6194
▁conducting	-11.6195
Win	-11.6195
API	-11.6197
▁pretend	-11.6208
▁Edit	-11.6209
ibility	-11.6209
About	-11.6209
▁Steve	-11.6209
▁tie	-11.6211
▁producers	-11.6213
yan	-11.6213
----------	-11.6214
enabled	-11.6216
▁promotes	-11.6221
α	-11.6222
▁Raspberry	-11.6222
▁navigating	-11.6222
▁liberty	-11.6222
▁Navy	-11.6222
▁tendency	-11.6223
▁prototype	-11.6224
▁dim	-11.6224
xz	-11.6224
▁lean	-11.6224
▁rope	-11.6225
HTTP	-11.6226
▁bid	-11.6228
▁Culture	-11.6229
cla	-11.6229
▁Motor	-11.6231
▁obstacles	-11.6232
▁charity	-11.6232
▁Gi	-11.6232
lets	-11.6236
Resource	-11.6236
gas	-11.6238
▁SH	-11.6238
browser	-11.6239
▁CHAPTER	-11.6241
always	-11.6241
▁Connection	-11.6243
▁advised	-11.6243
stock	-11.6245
▁permits	-11.6246
▁buttons	-11.6248
▁Pin	-11.6249
▁singer	-11.625
▁sooner	-11.625
sta	-11.6251
▁abundance	-11.6254
▁sampling	-11.6256
▁planted	-11.6256
rib	-11.6264
handler	-11.6264
RD	-11.6264
▁loyalty	-11.6265
▁substitution	-11.6265
▁recipes	-11.6265
▁parish	-11.6266
iti	-11.6267
▁tomorrow	-11.6268
CAP	-11.6268
▁boasts	-11.6269
▁canvas	-11.627
▁relay	-11.627
leq	-11.627
ides	-11.6274
ARE	-11.6277
Gr	-11.6278
aux	-11.6278
▁Cost	-11.6279
▁exp	-11.6283
upgrade	-11.6284
either	-11.6284
▁latency	-11.6287
▁bra	-11.6287
▁AL	-11.6288
▁anybody	-11.6288
Task	-11.629
inger	-11.6293
▁Foreign	-11.6293
▁Emperor	-11.6295
ees	-11.6295
rip	-11.6295
vent	-11.6295
Sign	-11.6298
▁CAP	-11.6298
fin	-11.6298
tire	-11.6299
▁riding	-11.6301
▁processors	-11.6301
▁Square	-11.6304
▁passive	-11.6305
Target	-11.6305
▁heap	-11.6305
▁Hope	-11.6305
▁obtaining	-11.6306
▁champion	-11.6306
▁atmospheric	-11.6307
▁Testament	-11.6307
▁clarity	-11.6307
▁singular	-11.6308
▁genius	-11.6308
▁ioctl	-11.6308
mur	-11.631
▁considerably	-11.631
▁desk	-11.6313
GROUP	-11.6313
figure	-11.6316
▁performances	-11.6317
links	-11.6317
▁Anne	-11.6317
▁MI	-11.6319
▁variant	-11.632
▁appealing	-11.6323
emacs	-11.6325
▁reload	-11.6328
aur	-11.6329
Alt	-11.6329
▁failures	-11.6333
mass	-11.6333
HC	-11.6334
▁atoms	-11.6337
▁gum	-11.6337
▁subnet	-11.6337
▁Hat	-11.6339
▁gpg	-11.6341
para	-11.6341
▁plates	-11.6342
▁useless	-11.6345
▁hack	-11.6345
talk	-11.6349
}_	-11.635
▁Douglas	-11.635
▁Minnesota	-11.635
▁Ontario	-11.635
▁Between	-11.635
▁Explorer	-11.6351
▁demanded	-11.6352
Application	-11.6353
▁mem	-11.6354
Sp	-11.6355
HD	-11.6355
▁emission	-11.6356
▁Student	-11.6356
ios	-11.6357
gettext	-11.6359
▁Clear	-11.6359
▁publicly	-11.636
▁Package	-11.6361
▁Yo	-11.6362
▁Police	-11.6364
why	-11.6365
▁Pop	-11.6365
ington	-11.637
▁planets	-11.6372
Ca	-11.6372
conda	-11.6373
dynamic	-11.6374
exclude	-11.6376
▁fits	-11.6377
▁crossing	-11.6377
▁Fun	-11.6378
▁catalog	-11.6379
said	-11.638
Module	-11.6384
▁connector	-11.6386
between	-11.6388
children	-11.6389
makers	-11.639
quant	-11.6393
bell	-11.6393
▁Toronto	-11.6394
SG	-11.6395
▁Israeli	-11.6398
▁Same	-11.64
▁Ball	-11.6401
▁UI	-11.6403
▁suspended	-11.6407
▁beast	-11.6409
▁ghost	-11.6409
▁internally	-11.641
▁Ross	-11.641
▁LVM	-11.6413
▁servants	-11.6413
▁arrested	-11.6415
▁imported	-11.6417
Bi	-11.6418
▁convention	-11.6418
LEN	-11.6418
enne	-11.6419
▁suppress	-11.6422
sight	-11.6424
▁filtering	-11.6424
▁departments	-11.6425
▁Root	-11.6426
Ne	-11.6427
▁Made	-11.6428
circ	-11.6429
Alias	-11.6431
nom	-11.6432
launch	-11.6434
<!--	-11.6434
▁HISTORY	-11.6435
uz	-11.6435
▁vacuum	-11.6435
working	-11.6435
▁RNA	-11.6436
▁Heritage	-11.6437
▁utilities	-11.6437
TV	-11.6438
FR	-11.6442
▁seeks	-11.6443
▁borrow	-11.6445
▁valve	-11.6448
▁syslog	-11.6448
quit	-11.6448
▁symlink	-11.645
▁convinced	-11.645
Art	-11.6451
▁Oil	-11.6453
▁Korean	-11.6453
▁comic	-11.6453
▁upgraded	-11.6455
GR	-11.6455
▁Ce	-11.6457
ascii	-11.646
▁await	-11.6461
▁stimulate	-11.6462
▁Off	-11.6465
▁Cover	-11.6467
▁indirect	-11.6468
▁validate	-11.6468
mc	-11.6472
days	-11.6476
▁deer	-11.6477
▁Century	-11.6479
lev	-11.6479
▁grains	-11.648
nan	-11.648
▁Intelligence	-11.6481
▁manipulation	-11.6481
▁confusing	-11.6481
▁ruling	-11.6481
images	-11.6482
▁Albert	-11.6482
▁newest	-11.6484
▁feast	-11.6484
many	-11.6484
▁NAME	-11.6488
▁momentum	-11.6488
▁GO	-11.6492
svn	-11.6492
▁machinery	-11.6494
▁Disable	-11.6498
gua	-11.65
lier	-11.6501
▁permanently	-11.6504
strip	-11.6505
▁electrons	-11.6507
▁Answer	-11.6507
pwd	-11.6508
hd	-11.6512
FL	-11.6513
▁raises	-11.6516
ire	-11.6516
seed	-11.6518
▁controversial	-11.6525
▁romantic	-11.6525
▁grammar	-11.6525
▁Bureau	-11.6525
MO	-11.6526
▁marking	-11.6526
Footnote	-11.6526
amd	-11.6526
▁resistor	-11.6531
yu	-11.6531
MR	-11.6535
▁letting	-11.6541
hub	-11.6542
▁Vitamin	-11.6542
▁Summer	-11.6543
▁assessments	-11.6543
boat	-11.6544
▁Steel	-11.6546
▁ties	-11.6548
▁ME	-11.6548
▁tan	-11.6552
total	-11.6552
▁grip	-11.6553
▁Shakespeare	-11.6554
▁Singapore	-11.6554
MODE	-11.6556
ben	-11.6561
Lock	-11.6561
▁arrays	-11.6562
▁efficacy	-11.6562
▁Brian	-11.6566
vor	-11.6567
▁vent	-11.6567
Handler	-11.6568
posing	-11.6568
▁demonstrating	-11.6569
▁timber	-11.6569
▁immigration	-11.6569
TT	-11.6569
▁pond	-11.6569
endif	-11.657
KB	-11.657
▁induced	-11.6571
▁pipes	-11.6573
▁Alternatively	-11.6576
Compress	-11.6577
▁inspection	-11.6577
▁colonial	-11.6578
▁viral	-11.6579
▁dirty	-11.6579
configuration	-11.658
east	-11.658
▁alliance	-11.658
▁hop	-11.6583
▁Anna	-11.6584
DES	-11.6585
▁explored	-11.6589
▁defects	-11.659
oul	-11.6592
▁Industrial	-11.6592
tier	-11.6592
▁Hay	-11.6592
VM	-11.6593
▁Mobile	-11.6594
▁ads	-11.6595
IES	-11.6595
rho	-11.6597
digit	-11.6598
TU	-11.6598
▁burned	-11.6598
office	-11.6601
▁inserted	-11.6602
▁installer	-11.6603
▁myth	-11.6608
▁trips	-11.661
esteem	-11.6612
▁Instagram	-11.6613
▁disposal	-11.6613
▁nursing	-11.6613
▁divorce	-11.6613
another	-11.6613
▁clarify	-11.6613
▁purple	-11.6613
▁vivid	-11.6613
oriented	-11.6614
▁submission	-11.6614
▁inhibit	-11.6614
pel	-11.6614
▁exclaimed	-11.6616
▁BY	-11.6618
▁warranty	-11.6619
Jo	-11.6623
▁apple	-11.6623
provider	-11.6624
hang	-11.6625
▁comply	-11.6625
arian	-11.6626
▁KEY	-11.6627
▁lucky	-11.6627
▁mate	-11.6628
▁grants	-11.6629
▁counsel	-11.6632
▁Eye	-11.6634
GO	-11.6634
▁Fast	-11.6635
▁avoided	-11.6635
umble	-11.6639
dog	-11.6639
▁canal	-11.6639
▁Beyond	-11.664
▁neglect	-11.6641
▁slip	-11.6643
▁shifts	-11.6644
▁reinstall	-11.6646
sea	-11.6648
▁Fox	-11.6648
▁designer	-11.6649
▁NA	-11.6649
▁`\	-11.6651
▁organisations	-11.6651
▁Wikipedia	-11.6652
▁attacked	-11.6653
▁flowing	-11.6653
▁MO	-11.6654
agg	-11.6655
▁Allen	-11.6657
▁influential	-11.6657
▁vegetation	-11.6657
▁Definition	-11.6659
▁END	-11.6659
▁prospect	-11.6662
▁secrets	-11.6664
Li	-11.6669
mos	-11.667
▁synthetic	-11.667
▁Ash	-11.6674
World	-11.6677
Component	-11.6679
▁eaten	-11.6679
gio	-11.6683
ved	-11.6683
▁beef	-11.6683
▁beds	-11.6685
URE	-11.6686
▁tin	-11.6687
▁Brain	-11.6688
▁transit	-11.6689
WR	-11.669
▁mesh	-11.6691
▁Easter	-11.6691
▁Rob	-11.6692
▁Stay	-11.6693
abs	-11.6694
▁indoor	-11.6696
▁va	-11.67
▁elevation	-11.6702
▁GitHub	-11.6702
▁automation	-11.6702
▁Franklin	-11.6703
▁unchanged	-11.6703
▁Making	-11.6706
Ka	-11.6709
APP	-11.6712
Password	-11.6712
sty	-11.6713
wo	-11.6713
dle	-11.6713
▁united	-11.6714
▁hypo	-11.6714
▁fame	-11.6714
DOS	-11.6715
Range	-11.6715
ddle	-11.6717
CN	-11.6717
▁beautifully	-11.6718
▁Close	-11.6718
coming	-11.672
▁Users	-11.6721
mov	-11.6722
▁reasoning	-11.6723
▁Rule	-11.6725
▁dash	-11.6727
\"	-11.6731
▁attracted	-11.6731
Based	-11.6732
argv	-11.6732
dependent	-11.6733
running	-11.6733
delay	-11.6735
▁GPT	-11.6735
▁Cold	-11.6737
▁lungs	-11.6737
inline	-11.6739
▁"[	-11.6741
▁magical	-11.6741
ester	-11.6744
boy	-11.6745
▁signatures	-11.6746
▁identifies	-11.6747
▁memorable	-11.6747
mathrm	-11.6748
▁fatty	-11.675
▁wished	-11.675
▁cement	-11.675
▁practicing	-11.675
▁sched	-11.6757
▁Mission	-11.6758
▁swing	-11.6758
kes	-11.6759
Verify	-11.6759
▁vain	-11.676
ais	-11.6763
▁figured	-11.6764
▁beer	-11.6764
partition	-11.6765
resolve	-11.6765
uli	-11.6768
▁analyses	-11.6769
▁combines	-11.6771
▁quietly	-11.6772
▁Jeff	-11.6774
ANT	-11.6774
▁twist	-11.6776
nate	-11.6779
▁coins	-11.6781
▁constitutional	-11.6781
corn	-11.6782
SYSTEM	-11.6784
sam	-11.6784
lc	-11.6784
Prints	-11.6786
▁advancements	-11.6786
▁UDP	-11.6786
eme	-11.6788
▁doses	-11.679
▁susceptible	-11.6792
▁accessories	-11.6792
▁Kansas	-11.6792
▁drove	-11.6792
▁precedence	-11.6792
▁nitrogen	-11.6792
▁rubber	-11.6792
Am	-11.6793
▁Throughout	-11.6793
▁agenda	-11.6793
▁jail	-11.6793
htm	-11.6794
▁funny	-11.6794
▁regards	-11.6797
▁Certificate	-11.6801
▁PhD	-11.6802
Compare	-11.6805
▁ordering	-11.6807
▁endpoint	-11.6809
added	-11.6811
▁Along	-11.6811
gnome	-11.6813
region	-11.6816
▁Trail	-11.6817
indent	-11.6818
▁rewards	-11.6819
▁Ukraine	-11.6821
snapshot	-11.6822
Col	-11.6823
ARG	-11.6825
cid	-11.6825
wr	-11.6828
▁Poly	-11.6829
▁linking	-11.6831
eral	-11.6834
▁locks	-11.6835
▁knock	-11.6836
▁exterior	-11.6837
▁pursuing	-11.6837
▁Missouri	-11.6837
▁versatile	-11.6837
▁»	-11.6838
▁von	-11.6839
▁overridden	-11.6839
▁pests	-11.6839
prompt	-11.6839
▁Poland	-11.684
▁Kit	-11.6841
ively	-11.6843
▁defendant	-11.6843
▁theatre	-11.6843
pra	-11.6844
iva	-11.6845
▁coaches	-11.6845
▁paintings	-11.6846
▁systematic	-11.6846
▁prescribed	-11.6846
mix	-11.6847
▁Reg	-11.6849
▁teaches	-11.6853
▁electronics	-11.6854
▁artwork	-11.6857
▁showcase	-11.686
nas	-11.6861
▁terror	-11.6863
▁manipulate	-11.6864
▁outlined	-11.6867
▁insect	-11.6867
▁cake	-11.6867
▁washing	-11.6869
▁Credit	-11.6873
▁freeze	-11.6873
▁specially	-11.6873
Merge	-11.6874
▁achievements	-11.6875
▁dressed	-11.6876
▁advocate	-11.6877
▁modest	-11.6878
▁recipient	-11.6878
▁pulling	-11.6879
hem	-11.6879
race	-11.6882
▁crazy	-11.6883
▁excellence	-11.6883
▁explosion	-11.6883
▁frequencies	-11.6883
▁invocation	-11.6883
▁liability	-11.6884
▁wore	-11.6884
▁proposition	-11.6884
ante	-11.6885
stead	-11.6887
▁breathe	-11.6887
▁minority	-11.6888
▁iconic	-11.6889
ova	-11.689
▁excuse	-11.689
▁contacts	-11.6891
▁CF	-11.6892
▁Effective	-11.6897
▁seasonal	-11.6898
ema	-11.6898
sect	-11.6899
▁winner	-11.6899
▁discard	-11.6901
▁Kan	-11.6901
▁recommendation	-11.6903
MSG	-11.6903
ord	-11.6905
PDF	-11.6907
gam	-11.6908
▁Agriculture	-11.6909
Exit	-11.6911
▁Colonel	-11.6914
RR	-11.6914
sent	-11.6916
▁affection	-11.6916
Match	-11.6917
▁generous	-11.692
pha	-11.6922
NP	-11.6922
▁Alzheimer	-11.6928
▁scattered	-11.6929
▁approaching	-11.6929
▁infants	-11.693
bid	-11.6931
▁Sci	-11.6932
▁Jul	-11.6933
MU	-11.6933
friend	-11.6934
▁Must	-11.6935
▁spinal	-11.6939
▁combinations	-11.694
Which	-11.694
▁Easy	-11.6942
▁rocket	-11.6942
▁builds	-11.6945
▁timely	-11.6947
OH	-11.6948
▁closest	-11.6949
▁padding	-11.6949
▁revert	-11.6949
nov	-11.695
▁enthusiasm	-11.695
news	-11.6951
▁oven	-11.6954
mind	-11.6955
▁maintains	-11.6956
▁forcing	-11.6957
▁expecting	-11.6958
having	-11.6959
▁headed	-11.6961
▁"__	-11.6963
ori	-11.6964
▁weren	-11.6965
▁interactively	-11.6965
hook	-11.6966
▁ACL	-11.6966
▁forwarding	-11.6968
original	-11.697
▁conclude	-11.697
▁shame	-11.6971
▁balls	-11.6972
Great	-11.6972
▁simplicity	-11.6974
VAL	-11.6975
▁baseball	-11.6976
▁bump	-11.6976
▁SEO	-11.6977
▁absorption	-11.6977
▁delayed	-11.6979
▁Maryland	-11.6979
▁surgical	-11.698
▁adjustments	-11.698
fect	-11.6983
▁cmd	-11.6984
counter	-11.6985
qual	-11.6986
uer	-11.6992
▁[[	-11.6993
Mount	-11.6995
Main	-11.7
▁pathway	-11.7001
cket	-11.7001
▁Six	-11.7001
▁Qu	-11.7003
eye	-11.7004
▁mal	-11.7005
▁Move	-11.7007
kov	-11.7007
▁Different	-11.7008
None	-11.7008
▁den	-11.701
▁individually	-11.7011
▁adjusted	-11.7011
▁structured	-11.7013
▁numerical	-11.7018
▁publications	-11.7018
▁GA	-11.7019
sanitize	-11.702
▁plague	-11.702
iya	-11.7021
▁Roger	-11.7021
OPEN	-11.7024
ule	-11.7025
▁HE	-11.7026
blk	-11.7026
▁simpler	-11.7027
▁Grade	-11.7029
ents	-11.703
─┼──────────────	-11.703
▁Range	-11.7031
mol	-11.7032
▁norms	-11.7034
▁costly	-11.7034
/#	-11.7035
▁ecosystems	-11.7036
otic	-11.7036
Reference	-11.7037
▁connects	-11.7038
▁finest	-11.7038
▁dr	-11.7038
▁fitting	-11.7041
sound	-11.7041
asm	-11.7043
chy	-11.7044
generate	-11.7046
>(	-11.7046
amine	-11.7046
▁Pet	-11.7048
▁Similar	-11.7048
science	-11.7048
▁checksum	-11.7052
owned	-11.7054
▁tablets	-11.7057
SN	-11.7057
▁frozen	-11.7058
▁Ana	-11.7059
▁checkout	-11.7061
swap	-11.7064
▁Jordan	-11.7066
▁Seven	-11.7066
▁Amendment	-11.7067
▁worried	-11.7067
▁invasion	-11.7067
▁Bishop	-11.7067
▁weakness	-11.7067
translation	-11.7067
▁stiff	-11.7068
Template	-11.7068
▁GDP	-11.7068
plus	-11.7069
▁IPC	-11.7069
▁dirt	-11.7071
--------------	-11.7072
Row	-11.7073
Watch	-11.7074
▁interference	-11.7076
▁tablet	-11.7076
▁Resource	-11.7077
NOTES	-11.7078
heart	-11.7078
▁overlooked	-11.7079
▁auth	-11.7082
CK	-11.7082
▁virtue	-11.7083
▁Gas	-11.7084
▁excluded	-11.7084
ether	-11.7085
▁fuels	-11.7086
SIG	-11.7086
▁Protect	-11.7088
▁Neuro	-11.7088
▁Steven	-11.7089
lio	-11.709
▁(*	-11.709
Import	-11.7091
stan	-11.7091
▁politicians	-11.7092
Apply	-11.7095
▁graphical	-11.7098
▁Fo	-11.7101
=$	-11.7101
dp	-11.7102
▁coaching	-11.7102
▁cr	-11.7102
mg	-11.7104
▁[<	-11.7107
▁Samuel	-11.7113
▁okay	-11.7114
▁Boy	-11.7114
*)	-11.7114
▁Avenue	-11.7115
▁cough	-11.7115
▁farmer	-11.7115
▁potatoes	-11.7115
▁motherboard	-11.7116
▁mainstream	-11.7117
▁referenced	-11.7117
▁Cut	-11.7118
:{{	-11.7118
▁primitive	-11.7119
touch	-11.7119
▁presenting	-11.712
▁basin	-11.712
▁rotate	-11.712
▁thoughtful	-11.7122
▁NS	-11.7123
▁viable	-11.7126
▁workforce	-11.7128
▁Sin	-11.7131
Hu	-11.7132
▁Ye	-11.7137
youtube	-11.7137
▁FROM	-11.7138
▁shirt	-11.7139
▁absorbed	-11.7139
▁separator	-11.7141
)))	-11.7142
▁sees	-11.7144
pose	-11.7147
▁Fre	-11.7147
▁Bus	-11.715
▁triggered	-11.7153
▁assumes	-11.7155
nr	-11.7155
NULL	-11.7156
▁RETURN	-11.7157
father	-11.7157
▁Found	-11.7158
▁ranks	-11.7158
▁coupled	-11.7159
▁ARABIC	-11.716
▁Oregon	-11.716
▁franchise	-11.716
▁securing	-11.716
▁Gulf	-11.716
▁coordination	-11.716
▁governance	-11.716
bla	-11.716
Directory	-11.7161
▁Works	-11.7162
▁uncle	-11.7162
▁Panel	-11.7162
▁fingerprint	-11.7163
▁Clinical	-11.7164
kel	-11.7165
▁bleeding	-11.7166
▁surgeon	-11.7166
▁pl	-11.7168
▁modeling	-11.7168
income	-11.7168
WA	-11.7169
setting	-11.717
caption	-11.717
▁Method	-11.7171
▁conditional	-11.7172
▁poems	-11.7175
▁Event	-11.7175
lint	-11.7181
▁photograph	-11.7183
▁differential	-11.7183
oom	-11.7185
eat	-11.7187
MHz	-11.7187
▁relieve	-11.7189
▁perceive	-11.719
Child	-11.7191
best	-11.7193
▁stayed	-11.7193
▁Driver	-11.7194
▁handed	-11.7197
▁visibility	-11.7198
▁supportive	-11.72
mil	-11.7202
rect	-11.7202
notify	-11.7203
leave	-11.7205
▁developmental	-11.7207
▁continually	-11.7207
▁dividend	-11.7208
▁declined	-11.7209
▁Authority	-11.7209
▁sup	-11.721
▁bot	-11.7212
azi	-11.7212
▁lamp	-11.7215
▁holidays	-11.7215
Layout	-11.7216
▁cabin	-11.7217
Parser	-11.7217
▁coral	-11.7219
rush	-11.7219
zu	-11.7219
especially	-11.7219
Life	-11.7221
TRACE	-11.7222
TER	-11.7222
probe	-11.7226
cies	-11.7226
▁bedroom	-11.7227
▁gen	-11.7228
▁tribe	-11.7229
▁([	-11.723
▁Either	-11.7231
▁fragments	-11.7232
▁poorly	-11.7232
▁LAN	-11.7232
▁gotten	-11.7233
▁directive	-11.7233
iw	-11.7234
▁wages	-11.7235
▁Sta	-11.7237
▁halt	-11.7237
internal	-11.724
ought	-11.7241
▁sw	-11.7242
\|	-11.7243
▁hormones	-11.7243
stats	-11.7244
▁survived	-11.7245
▁Ag	-11.7246
shop	-11.7247
▁intensive	-11.7249
▁supporters	-11.7252
▁CHARACTER	-11.7254
▁incidence	-11.7254
▁garbage	-11.7254
▁garage	-11.7254
cate	-11.7254
▁salary	-11.7255
▁renowned	-11.7256
Cor	-11.7258
▁fonts	-11.7258
▁unclear	-11.726
sep	-11.7261
▁mighty	-11.7263
Si	-11.7266
▁Below	-11.7266
▁ruled	-11.7267
▁LI	-11.7268
":"	-11.727
▁gallery	-11.7271
▁concentrated	-11.7272
▁Sep	-11.7276
Auth	-11.7276
▁ancestors	-11.7276
▁`--	-11.7278
agon	-11.7278
ppa	-11.7279
▁converting	-11.7281
▁electron	-11.7282
▁sizeof	-11.7283
▁masses	-11.7283
▁hits	-11.7284
rec	-11.7284
▁Reserve	-11.7284
▁ii	-11.7285
▁derive	-11.7287
▁pole	-11.7288
▁tens	-11.729
▁GL	-11.729
▁geometry	-11.7291
▁pine	-11.7292
▁md	-11.7293
▁triggers	-11.7293
▁bent	-11.7293
▁Quick	-11.7293
▁Tag	-11.7294
▁bees	-11.7294
km	-11.7296
▁Exp	-11.7298
▁elect	-11.7298
▁HO	-11.73
pgm	-11.7301
▁metabolism	-11.7301
▁suspicion	-11.7301
▁undoubtedly	-11.7301
▁inspiring	-11.7301
mt	-11.7302
▁picking	-11.7302
▁carpet	-11.7303
▁scanning	-11.7303
▁Cape	-11.7303
▁corporations	-11.7304
▁hell	-11.7304
▁Syn	-11.7304
▁amendment	-11.7304
HISTORY	-11.7304
▁footprint	-11.7305
Pattern	-11.7306
aro	-11.731
dh	-11.7313
hit	-11.7313
mnt	-11.7316
encrypt	-11.7318
▁woods	-11.7319
>"	-11.7323
▁analog	-11.7323
▁Applications	-11.7324
▁bass	-11.7325
skip	-11.7326
▁develops	-11.7329
digest	-11.7332
rank	-11.7332
issue	-11.7333
▁Theory	-11.734
▁contexts	-11.7341
▁musicians	-11.7345
logger	-11.7345
▁plum	-11.7345
wire	-11.7347
VC	-11.7348
▁Netherlands	-11.7349
▁innocent	-11.7349
▁Moses	-11.735
▁theater	-11.7351
▁Sto	-11.7352
▁Bee	-11.7353
▁relying	-11.7354
▁elementary	-11.7355
▁bypass	-11.7359
thin	-11.7361
ury	-11.7363
▁stays	-11.7367
[...]
